#version: 0.2 - Trained by `huggingface/tokenizers`
d e
e n
Ġ s
r e
i n
Ġ a
t e
Ġ f
Ġ o
o r
t i
a n
l e
Ã ¥
Ġ m
g e
Ġ de
Ã ¦
Ġ h
Ġ e
Ã ¸
v e
Ġ b
Ġ i
Ġ p
Ġ k
a r
l i
Ġo g
k e
n e
Ġ v
s e
Ġ d
o m
ti l
Ġf or
in g
e d
s t
Ġe r
Ġa t
Ġ til
o n
Ġ en
a l
te r
Ġa f
de r
Ġ g
r a
r i
u n
Ġ t
l le
m e
Ġ D
Ġ n
Ġp Ã¥
Ġ S
ve r
i s
Ġm ed
e t
i l
k ke
l a
ge r
i g
Ġde t
li g
de n
u d
r o
s k
j e
b e
Ġ 1
Ã¸ r
Ġ in
o l
a t
l se
Ġ l
Ġde r
Ġ 2
Ġs t
a m
Ġ H
Ġde n
re t
an d
Ġ M
Ġs k
Ã¥ r
Ġa n
s te
e l
Ġ B
Ġ A
n ing
a g
Ġs om
Ġ F
Ġh ar
Ã¦ r
Ġv i
Ġo m
r u
d t
Ġk an
s ke
Ġb e
en de
Ġ ud
Ġd u
re s
u r
Ġ K
Ġ T
Ġe t
p e
h e
Ġi kke
lle r
Ġh v
Ġ P
Ġo p
Ġ L
0 0
c e
â Ģ
s en
o g
ge t
s i
Ġ V
ti on
li ge
Ġm e
Ġ E
Ġ I
v i
le r
d s
en t
f or
Ġv Ã¦
u l
Ġf ra
i t
Ġ (
r Ã¦
Ġs Ã¥
Ġ C
Ġ re
a s
re r
Ġ -
Ġ ve
se r
Ġ c
. .
de t
ne r
Ġ N
Ġm an
Ġ R
a d
Ġs i
k t
in e
a ge
te t
Ã¦ n
Ġ G
me r
k s
o d
Ġ O
0 1
Ġo ver
Ġ je
Ġ u
a v
Ġs am
Ġ J
en e
Ġe ller
en s
Ġv ar
u s
o p
h ed
in ger
or t
Ã¦ l
Ġa l
Ġs e
an g
f ter
o k
Ġin d
Ġje g
a b
Ġh e
u t
Ġ 3
Ġs p
Ġk om
Ġsk al
Ġm en
Ġ âĢ
o t
Ġ un
ĠD et
g t
t a
d i
Ġv il
Ġve d
s Ã¥
Ġ j
Ġhv or
Ġp ro
s p
ĠvÃ¦ re
h ol
be r
ĠD e
g i
lse r
Ġ le
m a
l ing
m en
Ġ2 01
d re
Ġ r
Ġ li
Ġ ti
Ġk un
v is
f e
lig t
be j
t te
g en
Ġm Ã¥
m me
c h
Ġ ne
i d
i e
Ġog sÃ¥
in de
y g
ar t
a le
Ġ U
o te
ï ¿
ï¿ ½
f t
Ã¸ b
" :
u m
ve t
Ġa r
Ã¸ n
un d
Ġn y
je r
e g
l y
o s
Ġs ig
Ġe fter
k ti
, "
Ã¸ j
v a
l Ã¦
Ġ w
Ġ 4
Ġ la
Ġb ru
Ġ 5
Ġk on
r ing
kke r
y n
i k
c i
Ġme re
v en
d an
k en
pe r
Ġm in
i r
d u
Ġb li
o ner
a ve
le t
o re
Ġa lle
de l
Ġ Ã¥r
re m
Ġb le
Ġm u
Ġs el
Ġun der
d ig
Ã¸ re
me l
r y
Ġb l
Ġp e
a tion
Ġh an
n inger
Ġf Ã¥
s s
ne t
Ġ "
Ġd in
Ġd ig
p p
ĠI n
ke r
Ġ te
Ġg o
re de
ri g
Ġ W
Ġhe r
a k
ĠV i
s m
v Ã¦r
l o
Ġo f
is k
de s
en ne
a ti
s ter
o res
r Ã¥
Ġt o
Ã¸ l
ti g
a re
Ġp ri
Ġsel v
Ã¸ d
i lle
el t
ĠF or
Ġk l
ĠâĢ ĵ
.. .
he der
Ġme get
Ġf Ã¸r
ĠS t
an t
Ġl Ã¦
Ġ 0
Ġen d
d ag
m p
Ġb et
r s
o v
Ġ Ã
Ġtil b
r an
v ar
Ġman ge
o b
s Ã¸
m ar
i c
u e
l an
Ġg i
is ke
Ġar bej
Ġ 6
a p
y l
or d
Ġ Ã¸
s ti
l t
Ġd ag
Ġn Ã¥r
Ġm a
Ġb ed
Ġn o
Ã¦ re
st en
s Ã¦
Ġble v
Ġden ne
l and
d k
y r
Ġs m
Ġf rem
le re
c k
ĠDe r
t en
ï¿½ ï¿½
Ġo n
ske r
r Ã¸
j Ã¦l
Ġf a
i st
ĠD an
ĠA n
Ġvi r
o li
Ġf e
Ġd a
y der
ne s
Ġh ave
Ġs te
Ã¦ s
al g
ke t
l u
Ġn u
Ġv ores
a f
in d
ote l
Ã¥ n
Ġ1 9
Ġn og
h and
mel de
ĠH e
lÃ¦ g
sk ab
" ,"
Ġ 7
g ang
Ġd an
âĢ Ŀ
Ġ ret
la g
al t
hol d
Ġt he
Ġm o
Ġbli ver
Ġti d
Ġ lige
l sen
Ġh av
Ġb Ã¸r
se t
Ġ 8
Ġhv is
Ġan dre
a ger
le m
Ġo r
ĠR e
Ġ1 0
o ve
r en
D et
Ġkun ne
Ġa d
enne m
av n
ĠJ eg
Ġs y
a te
Ġan melde
in der
) .
Ġde m
ti k
o w
Ġal t
ing en
s h
ar bej
ĠS e
Ġgo dt
lig hed
or g
Ã¥ l
b o
Ġfor b
ning en
Ġde res
Ġg r
E R
o ver
ĠD en
o f
s l
l ine
Ġp ar
ĠS k
Ġu den
Ġo s
a u
c om
ĠE n
ti d
Ġm ig
Ġg ennem
Ġk r
o ne
g a
i li
ks om
Ġ 9
t ter
o u
ri e
Ġd i
Ġh ver
se l
Ġno get
Ġny e
Ġdet te
Ġf inde
Ġpe rs
an ge
re d
si on
Ġk Ã¸
D e
de re
Ġsam men
s til
Ġh elt
he den
Ġde l
ske l
lle m
ĠB e
om m
Ġg ra
Ġhav de
ge s
Ġf lere
Ġg od
Ġan d
Ġh je
s ig
Ġ2 00
ĠO g
Ġ ra
ar d
Ġh ol
a y
u b
Ġpro du
g ende
Ġf Ã¥r
Ġm od
ning s
Ġhv ad
vi k
Ġfor t
Ġb y
Ã¥ de
o st
ru p
Ġl y
Ġse r
a li
Ġh un
ge re
c t
Ġt rÃ¦
en ter
I N
Ã¸ de
Ġfor skel
Ġp la
ĠL Ã¦s
j en
Ġin den
Ġ lig
mar k
Ġhe le
on t
k ter
Ġe k
den de
Ġbe g
Ġ Â
Ġfor m
u g
Ġs in
ĠS p
Ġkom m
ti gt
s at
Ġb il
Ġh jÃ¦l
d om
i a
d te
ĠD u
k tion
Ġ /
l en
i m
Ã¦n d
Ġsam t
f i
s y
Ġsi d
2 0
1 0
Ġh os
is se
r in
Ġanmelde lser
Ġ2 0
si k
ie r
Ġbli ve
te s
Ġd it
Ġ Ã¥
ro p
Ġon line
Ġn Ã¦
s b
Ġli dt
n i
Ġnog le
at ur
Â Ń
sk ri
st y
ger ne
Ã ©
la s
ke l
ce r
Ġkom mer
s om
ĠM en
ti ge
Ġme llem
yg ge
le s
ĠC h
Ġv Ã¦r
e b
00 0
m ber
Ġb Ã¥de
Ġst Ã¸r
Ġi s
Ġf ri
ĠvÃ¦ ret
Ġ y
de lse
ĠHe r
Ġhv il
o le
k om
Ġh Ã¸j
2 01
Ġl ang
Ġl Ã¸
Ġ |
m t
ti s
v ende
am p
Ġ ver
a c
Ġg ang
Ġv en
Ġ rig
Ġh en
a de
Ġ ro
h t
Ġt y
Ġin ter
Ġs u
Ġ1 8
) ,
x x
Ġ .
ing s
ĠfÃ¸r ste
ĠH v
Ġ1 2
Ġs Ã¸
ul d
f fe
rÃ¦ n
a be
h avn
b y
d ning
ĠH an
p ro
g ra
Ġforskel lige
Ġgi ver
E N
ul t
me t
Ġ res
J eg
Ã¸l ge
Ġ1 5
k on
e s
Ġre j
and t
b org
Ġst or
ĠT il
Ġi gen
a ter
der ne
Ġ &
Ġd at
n a
u st
ĠP e
Ġm ar
ri k
Ġst ore
": "
lige re
Ġre g
ly s
Ã¸r g
u lle
o ur
sÃ¦ tte
Ġpers on
ti sk
o de
dan ne
l Ã¸
Ġk v
Ġ ,
m Ã¦r
I n
vi ce
a st
Ġg Ã¸r
Ġ :
Ġvir ksom
Ġf un
1 2
m ed
ĠbÃ¸r n
e j
p ri
Ġb are
k te
Ġtil f
m in
li k
Ã¸ rer
Ġp en
Ġbed ste
Ġsi den
Ġud vik
b ru
p la
b et
ol og
Ġen e
k ning
Ġne t
Ġg en
Ã¦n g
Ġb o
v al
Ġs ag
Ġs Ã¦
ĠDan mark
Ġan det
Ġbru g
Ġd ine
Ġf al
Ġsi kker
or i
le ve
ene r
Ġsam me
Ġgr und
va li
Ġble vet
âĢ Ļ
Ġg Ã¸re
Ġt a
g Ã¥r
m ent
Ġn Ã¦r
ve j
Ġs til
ote ller
v t
ĠL e
Ã¸ je
s c
3 0
Ġg Ã¥r
Ġ ru
Ġf ar
m mer
Ġd og
f Ã¸r
Ġ Ã¸n
Ġ $
Ġgo de
h us
ol d
Ġg Ã¥
Ġ ri
Ġsk ulle
t al
Ã¦ g
r ne
Ġb ille
Ġt h
V i
f al
se s
Ġl u
rÃ¦ kke
st Ã¥
Ġan den
Ġp rÃ¦
Ġder for
an e
f at
Ġal tid
i re
Ġom k
Ġhvor dan
Ã¦ lle
Ã¥n d
ĠM ed
u p
ul l
Ġsk ri
1 9
Ġb ag
ĠA l
Ġsi ger
ĠK Ã¸b
Ġkon t
ĠS Ã¥
Ġfor di
t y
I B
un der
Ġhje mme
Ġv ig
Ġ1 4
Ġm as
ge l
Ġp lan
O R
Ġve l
Ġa kti
den s
h ver
Ġk m
Ġs pe
u re
ĠM ar
sl ut
re g
b le
Ġr Ã¥
Ġpri ser
Ġt age
kke t
he r
Ġj o
lig heder
i de
ĠH vis
Ġ1 1
5 0
Ġne d
a se
Ġmen ne
k n
st ra
di ge
Ġ1 6
Ġme st
Ġt ra
S e
Ġe le
Ġh and
Ġh ur
Ġin ds
Ġf il
Ġ '
d st
ĠvÃ¦ l
ĠT e
Ġn atur
le des
Ġh el
is ter
Ġd isse
Ġc h
Ġtilb age
r on
n u
am ili
1 1
en havn
Ã¸rg sm
Ġ1 7
v ent
k re
t s
om p
Ġp o
Ġve j
ti ske
E n
Ġs o
te ter
ri d
Ġdan ske
F or
Ġe ks
Ġla ve
Ġfor s
g Ã¥
Ġarbej de
Ġarbej ds
Ġb ar
Ġbe h
hand ling
Ġvi lle
in an
Ġp as
Ġf ore
Ġom rÃ¥
S T
Ġf ol
m an
ste d
u le
ra t
b ud
Ġpe r
Ġf ly
ĠU d
v Ã¦
sÃ¸ g
A N
a ler
ĠÃ ĺ
te de
ĠH otel
Ġin de
te re
st re
Ġs Ã¦r
Ġs l
Ġlig ger
p s
res se
Ġ1 3
un kt
ene re
.. ..
ĠstÃ¸r re
a me
Ġd age
Ġs it
ĠP Ã¥
Ġv a
Ġle ver
w w
K K
Ġli v
Ġin te
Ġn ok
ĠA r
Ġbru ge
a ber
ĠK omm
Ġh u
in ge
Ã¦ t
lys ninger
y tte
ri p
ti oner
c ent
ce s
vali tet
Ġsid ste
Ġgi ve
Ġv and
ĠT h
Ġk Ã¸b
ĠÃ¥ b
r inger
ri ge
an ske
Ġm il
i te
Ġp r
Ġmu ligt
Ġ ingen
ĠP ro
Ġ gerne
1 5
Ġf o
p en
Ã¸rgsm Ã¥l
De r
st a
ï¿½ï¿½ ï¿½ï¿½
Ġli lle
Ġ3 0
Ġk ra
Ġm or
v Ã¦re
ist or
ine r
Ġmu lighed
Ġf ik
ste m
i be
lse s
an de
Ġfa st
Ġf Ã¸
vi r
o c
Ġe l
v n
Ġt ro
se mp
hed s
Ġb or
m od
om e
i se
sÃ¸ ge
Ã¦n ge
Ġkom me
i ller
f ar
v alg
Ġs en
Ġb u
i o
l inger
Ġl and
ra g
s u
Ġw eb
Ġtilb ud
hol der
y t
o ok
in t
Ġomk ring
r and
gi ve
Ġbru ger
Ġ =
y d
e w
Ġs h
E T
an ce
f Ã¸lge
A n
Ġsi de
s n
Ġpri s
S t
Ġt re
ĠmÃ¥ de
Ġp oli
Ġ Y
ĠE r
m id
Ġvir ke
ĠT he
ling en
Ġhvil ket
Ġh a
al en
l Ã¸b
Ġfor hold
y s
Ġof f
Ġk en
ĠO p
Ġf Ã¸l
ĠKÃ¸b enhavn
ig t
ds p
g ne
ĠU n
te ret
1 8
sty re
t t
i b
ĠâĢ Ŀ
ĠV e
ĠM e
1 6
la de
for ma
Ġbe sk
Ġkom p
f f
Ġf l
der s
i dt
f ri
inde lse
i on
Ġ1 00
s ende
Ġh ove
Ġv in
Ġ2 5
Ġh am
k l
le v
Ġh oteller
ĠmÃ¥ ne
Ġof te
k la
1 4
Ġf le
ta kt
p ar
Ġ ge
Ġle ve
at te
ur der
Ġh ende
Ġmin dre
Ġl ok
Ġk ort
e rne
Ġspe ci
Ġbl andt
ti dig
kon om
Ġek semp
Ġst ad
Ġsp Ã¸rgsmÃ¥l
Ġsp ille
Ġk la
pp en
Ã ¤
E D
1 3
al l
g Ã¸re
Ġ [
Ġh otel
Ġmed lem
le de
Ġnog en
Ã ĺ
A R
Ġt ing
ĠhjÃ¦l p
2 2
Ġdi re
u ne
f te
m pe
Ġf amili
i ve
Ã¦lle s
u rop
ĠmÃ¥ l
j Ã¸
st and
ĠM an
ce p
ut ter
Ġf inder
ri s
Ġs n
ve l
Ġt Ã¦n
b u
ĠV is
ĠR o
Ã¦ k
ĠvÃ¦ k
arbej de
c he
i ge
Ġrig tig
Ġop leve
s dag
h a
w e
st ru
ro om
ĠA f
d a
Ġne m
Ġbed re
ra tion
s var
Ġny t
res s
Ġc a
Ġor d
lig vis
f on
Ġdan sk
for m
D u
ĠÃ¸n sker
an det
Ġd ri
1 7
9 9
un dt
Ġgra tis
D en
Ġst k
si de
Ġg am
ĠÃ ħ
O N
un de
Ġk or
ro l
ter ne
or m
Ġbeg yn
Ġf re
Ġa ut
Ġ rÃ¦kke
kti sk
k ende
Ġan vende
ĠâĢ ľ
t u
u se
un i
ĠDet te
s ning
ĠN y
ol en
Ġvi de
Ã¸ g
ab le
Ġk valitet
b og
ĠH ar
d f
Ġst Ã¸
Ġtid ligere
g Ã¸r
ĠF re
Ġk o
IN G
Ġh al
sÃ¦ t
ĠK on
ati oner
Ġhje m
c on
Ġste d
Ġhan s
Ġstad ig
Ġt ager
vi d
i el
M e
I L
Ġ5 0
ĠS am
Ġp ra
Ġpro je
Ġg Ã¦l
Ġh Ã¥r
Ġl ov
in a
f un
Ġk ro
Ġ201 6
Ġver den
r om
Ġst Ã¥r
Ġop lysninger
Ã ¶
Ġ Z
sk aber
Ġb en
Ġk rÃ¦
g r
Ġre gi
Ġn r
E L
ĠM a
ĠmÃ¥ ske
f ra
{ "
ry k
Ġf jer
/ /
Ġg ange
ĠP ar
Ġst ar
p h
Ġ2 4
Ġl Ã¸b
hand ler
Ġmo dt
ta le
Ġn Ã¸d
n o
A T
it h
ot o
r or
Ġforb indelse
Ġv is
c o
ag en
Ġmenne sker
Ġm and
Ġst y
Ġs et
a kke
p pe
ro w
c tion
m o
Ġe gen
fe r
q u
b en
al ing
Ġg j
t h
f ik
l in
Ġ201 5
ĠrÃ¥ d
Ġtilb yder
) ;
ibe x
dig t
ĠIn d
ĠÃ ©
Ġmar ke
v or
Ġrej se
Ġd y
m b
2 5
ĠHv or
ti ve
Ġpen ge
_ _
sta ur
Ġsm Ã¥
Ġend nu
Ġ X
Ġ Ã¦nd
Ġfinde s
Ġk ri
ĠJ o
Ġj u
d ate
ru m
ter n
Ġe ffe
v il
k tet
Ġ %
Ġm ens
Ġeksemp el
Ġp rÃ¸
ter i
la d
Ġk n
Ġg Ã¦
ĠD KK
Ġinter net
skab et
Ġk li
Ġr en
Ġkomm un
i le
Ġ201 7
forma tion
c en
t ra
n ull
ĠD a
z e
sn it
ĠsÃ¥ dan
sp ro
ĠF a
Ġst and
Ġst ort
Ġv alg
v s
ent lig
f a
Ġma j
Ġvi dere
g an
k ur
Ġtilf Ã¦l
Ġsi ge
H e
Ġ2 2
ant as
sen s
Ġud danne
Ã¦r ke
kt o
Ġb yg
Ġde sig
sk in
ĠÃ¥r s
k lu
ĠD enne
Ġm Ã¸
ĠN Ã¥r
o e
art s
E S
for d
Ġk al
f Ã¸re
Ġprodu kter
Ġ2 1
. ,
ĠkÃ¸ be
st Ã¥r
Ġso ci
Ġh Ã¥
om rÃ¥
k ken
men ter
u ar
ler ne
Ġb i
Ġanmelde lse
s age
ene ste
ĠHv ad
Ġs yn
ĠfÃ¥ et
an k
N r
" ,
art ner
: //
Ġ yder
s am
' s
Ġ201 3
Ġs v
Ġs alg
u k
Ġ201 4
Ġbe k
Ġ x
2 4
Ġud valg
y de
Ã¦n gere
jen dom
kti oner
Ġj an
Ġbe handling
a ch
fi ce
il l
Ġb og
Ġan be
Ġad gang
Ã¦l dre
Ġbe ste
ĠV ed
R I
Ġ2 3
A d
Ġh istor
ow n
a ck
Ã¸ ger
Ġvi ser
le je
ne m
Ġser vice
Ġm et
Ġ +
Ġfo ret
Ġh Ã¥nd
e ks
at s
de le
Ġst ra
e m
Ġfil m
Ã¸ res
re v
i ch
y e
Ġbet yder
Ġ #
ul ta
i et
Ġvirke lig
ĠhjÃ¦l pe
Ġvi a
Ġs ine
Ġf Ã¦r
ĠB o
Ġt ur
Ġf ag
Ġf ok
styre lsen
te rer
an s
va rer
Ġkv inder
Ġ201 2
Ã¸r en
f o
Â «
Ġt op
bo ok
âĢ ¦
Ġh Ã¸je
Ġudvik ling
Ġw e
e de
d at
T il
ĠvÃ¦re lser
6 0
H vis
st al
on s
a get
og le
4 5
Ġsk i
ĠS om
m inde
? ?
Ġkl ar
c a
ĠnÃ¸d ven
le fon
Ġsom mer
op ul
Ġpro ble
ĠE t
Ġlang t
sÃ¦tte lse
Ġalle rede
Ġk ig
ĠCh ri
le dning
ĠÃ¸ konom
Ġc m
o ks
Ġun ge
Ġk ar
id get
n at
Ġek stra
i en
Ġse p
g ave
Ġbl ot
Ġr undt
b at
j l
k o
h an
O M
b yg
n en
ri en
Ġs ol
v in
s yn
Ġmin utter
Ġl in
y m
Ġhol de
Ġhur tigt
4 0
i p
re vet
ag t
re fter
st yr
Ġvirksom heder
um mer
sh op
ĠA lt
Ġs var
li e
Ġfle ste
g re
su den
om ati
ken dt
Ġle t
Ġm ad
Ġm id
b ar
Ġc omp
Ġc ent
ĠE U
f il
si den
B e
Ġt ran
Ġf Ã¦lles
Ġs und
Ġene r
vÃ¦re lse
mme t
s lag
p r
t age
Ġl Ã¦ngere
ĠÂ »
ga ard
ĠS h
Ġste det
Ġ ter
al y
ĠA lle
Ã Ĩ
Ġun d
te d
Ġfol k
d rig
Ġbe slut
l l
Ġsk abe
ke lt
Ġm it
s pe
Ġsi kre
R e
ir ma
ĠfÃ¸r st
ĠF ra
ie s
Ã ħ
dig heder
ret ning
ĠM o
i x
Ġf uld
n on
u ter
k al
an ter
Ġse x
Ġ201 9
Ġpers oner
ve d
la gt
t o
og ra
ĠU S
sk ud
Ġ201 8
Ġw ith
stil ling
Ġm ob
A L
ote lle
Ġsy nes
il de
ci li
h Ã¸r
ft en
Ġp df
Ġen kel
Ġf antas
Ġfamili e
I T
fÃ¸r t
Ġpla ds
ult ur
a a
ar s
P ri
ĠvÃ¦l ge
2 3
ĠUn der
ĠS u
v ning
skri ve
bru g
Ġnem lig
sig t
p o
h u
ĠA d
ĠsÃ¥ ledes
ma il
m m
Ġa ug
ber g
Ġt ale
ser ne
Ġal drig
Ġvig tigt
Ġs vÃ¦r
Ġm ine
yg dom
ĠU ni
sp ort
s on
Ġom fat
me re
pri l
rup pe
Ġti mer
- -
ur de
Ġin dt
Ġpla ce
pp ort
8 0
ge lse
ru g
Ġ }
Ġk ur
Ġsam tidig
Ġg ar
ĠH ent
Ġde lt
2 00
H otel
Ġv al
Ã¸r n
t ro
te mber
vis or
Ġbeh ov
Ġl Ã¥
g rid
om s
Ġj uni
Ġper fe
h en
Ġ {
ale t
ĠgÃ¦ ster
ĠH ol
or n
ĠvÃ¦re lse
g n
ĠtilfÃ¦l de
Ġalt sÃ¥
Ġmed arbej
Ġst yr
Ġa b
ce mber
f ul
ĠÃ© n
ĠN or
Ġg lÃ¦
h Ã¦ng
it al
ĠE l
Ġg ik
l Ã¥
Ġpro gra
Ġfe rie
Ġanbe f
Ġva rer
t rÃ¦
Ġener gi
2 7
urder ing
ĠÂ ·
s si
Ġlever ing
v at
ĠT V
Ġjan uar
kti v
ĠstÃ¸r ste
ro g
ĠvÃ¦r di
vis ning
Ġ2 7
f Ã¸l
is sion
der en
Ġh jer
Ġt al
Ġbru ges
Ġmu ligheder
Ġpe ri
Ġor gan
ver si
ne de
rÃ¸ m
Ġakti vi
Ġa c
Ġs ke
Ġb ygge
ĠKomm une
p lan
' ,
2 8
Ġfl ot
Ġb el
ĠG ra
di tion
Ġen de
le ver
as se
Ġsikker t
Ġb ud
f ol
Ġfa ktisk
Ġmor gen
ru e
s o
ĠS o
yl land
r Ã¸r
Ġm m
la tion
\ /
ĠlÃ¦ se
Ġm arts
Ġte kn
Ġy ou
Ġgam le
kto ber
Ġh us
Ġ ...
it y
for en
Ġen kelt
vÃ¦r k
Ġman g
Ġbille der
9 5
il d
dig hed
Ġ2 6
2 6
Ġhver t
Ġer hver
Ġ2 8
sen t
ĠnÃ¦ ste
Ġdire kte
Ġs ti
ĠC ar
rÃ¥ d
de ling
Ġer far
m u
ĠDer for
ĠFre der
ga ver
Ġvi den
f Ã¦r
t on
b lik
Ġla vet
sat te
v an
Ġst art
f yl
Ġje r
( '
a i
Ġkra v
si e
je kning
Ġt Ã¦t
Ġ z
ĠO m
s vÃ¦r
Ġma skin
u der
or de
Ġj ob
Ġ4 0
Ġk Ã¦
Ġgr Ã¸n
Ã¦ ller
Ġti den
b r
Ġk amp
l d
af fe
re ds
Ġsam arbejde
pro du
ĠA t
a der
or te
Ġunder sÃ¸ge
Ġhand ler
Ġmin dst
an ti
m i
jer g
cili teter
p per
ir ke
c el
Ġf ul
Ġc y
v and
Ġp opul
Ġdat a
w idget
": {"
ĠÃ¸ je
âĢ ĭ
ĠE urop
Ġa pril
hol de
s a
M en
mar ks
Ġi mp
I D
or den
xx xx
Ġal minde
v ne
an sk
Ġbil lig
k a
Ġ201 1
Ġno ve
Ġbo lig
Ġsp Ã¦n
st Ã¦n
Ġvig tig
s be
Ġha ft
Ġs j
P ro
Ġmil li
ĠS el
Ġi de
omati sk
Ġfors lag
va re
re j
Ġs and
ĠO ver
ĠL a
las se
st at
rig in
Ġf Ã¸lge
Ġret ur
un det
Ġi d
Ġe x
Ġsep tember
Ġe vent
ig ht
Ġd Ã¦
olog i
Ġn av
Ġkon takt
gel sk
ĠG r
ĠL i
ur en
fÃ¸lge lig
Ġsk ole
M ed
Ġenkel te
Ġde cember
ĠM in
ĠH un
kt or
ar k
Ġe jendom
Ġp ati
Ġarbej der
ic in
ne re
ĠÃ¸ v
Ġd yr
ĠW e
sy k
Ġn Ã¥
ĠP ri
Ġfok us
rie r
at ch
Ġn avn
ter ing
Ġt og
2 9
ate g
ĠnÃ¦ sten
al le
Ã¦ tte
Ġa pp
2 1
ĠsÃ¦ tte
ĠE fter
o ler
Ġde j
Ġu de
Ġa re
vi de
at or
Ġsu per
st Ã¸
00 00
ĠlÃ¦ g
Ġan svar
ve s
R E
Ġo ktober
b ed
Ġin formation
Ġs lag
p ort
Ġt j
Ġigen nem
Ġm ener
Ġfor ud
ke re
I G
ĠDan sk
ke ring
d age
S k
an te
Ġhol d
A S
Ġproble mer
Ġ2 9
gi ver
Ġu ge
un g
Ġlu ft
Ġk ap
p rÃ¦
sk i
Ġm is
Ġe g
sik ring
0 5
m and
Ġti me
v l
ase ret
s for
Ġnet op
Ġt ror
ĠÃ¸n ske
ti kker
Ġta get
c enter
Ġud t
L e
ue lle
or k
Ġs at
Ġh ens
ĠC o
ĠS te
Ġvar me
Ġ Ð
Ġfor ven
0 7
ĠE x
ĠK r
ran ge
dt jekning
Ġinde holder
Ġle j
ri t
ti den
s se
Ġhove d
ĠSe r
ud over
Ġher under
un den
ation al
k st
hol ds
le j
gi vet
3 5
hol m
Ġbar n
av en
Ġf yl
Ã¸r s
Ã¦l d
Ġan tal
Ġfor stÃ¥
gr und
Ġres ulta
Ġsi k
ĠG o
ĠhÃ¥ ber
Ġnove mber
Ġ Ã¦g
ti kel
le d
g ene
Ġp i
Ġbet ale
R O
Ġde le
ĠsvÃ¦r t
ĠN iel
be l
Ġrej sende
N Ã¥r
Ad visor
fal se
Ġaug ust
rip Advisor
Ġn ive
Ġs c
der sen
ul ti
Ġs Ã¦l
ĠgÃ¦l der
âĢ ľ
ĠF il
ĠG e
ĠB ar
Ġsp il
del sen
ak ter
Ġsk yl
Ġs li
Ġbe stil
Ġsh op
Ġf inan
on d
ĠS y
Ġaf ten
os ter
b lem
ĠF Ã¥
Ġpo si
ĠÃ¥ ret
0 6
" .
Ġne mt
Ġt v
lig heden
ĠF e
gÃ¸re lse
Ġs enere
Ġmu sik
ĠSp il
0 4
Ġc on
al d
Ġsk Ã¸n
Ġp l
V is
ĠB ed
Ġis Ã¦r
Ġf ire
i ti
k Ã¸b
ĠI s
Ġs ker
} ,"
lser ne
Ġt Ã¸r
i kke
Ã¦ ss
Ġ Q
si ge
Ġvi st
Ġs Ã¸n
Ġk Ã¸re
la ss
k ort
L O
um ent
Ã¸ mme
Ġmenne ske
A M
ve de
bru ar
Ġin ve
Ġl andet
Ġf ores
Ġv oks
sti tu
a rer
va tion
Ġti dsp
c y
otelle t
Ġgra d
Ġpas ser
Ġst Ã¥
ĠN ord
Ġl o
ĠâĢ ĭ
Ġhol der
Ġmil jÃ¸
staur ant
Ġm Ã¦nd
Ġinter n
Ġste der
se k
ation en
ret te
ot or
ru s
ger ing
Ġt ab
mar ke
Ġ201 0
Ġover sÃ¦ttelse
Ġsm u
i ler
Ġf x
3 6
Ġv urdering
vÃ¦r ende
an set
Ġhende s
Ġ19 9
ti c
S Ã¥
age s
J a
gi fter
mel dt
Ġ ï¿½ï¿½ï¿½ï¿½
Ã ¼
min ist
en sen
r yg
Ġfe bruar
Ġg enere
Ġb ry
S K
abe l
ĠstÃ¸ tte
0 8
Ġselv fÃ¸lgelig
Ġh inan
ĠA ar
ĠB il
Ġinte resse
ga de
, -
R o
sp il
Ã¥ ret
Ġn at
O g
Ġskri ve
sti an
ĠfÃ¸l gende
ren ce
mÃ¦r ksom
Ġst at
kt Ã¸r
o den
Ġ *
P Ã¥
Â »
ce book
d ra
Ġop n
x t
Ġan non
Ġpro fe
Ġdesig n
Ġkon kur
z z
for t
Ã¥r lig
Ġvirksom hed
Ġs ygdom
as in
ĠPe ter
Ġfal se
val get
li t
Ġi t
ĠH en
Ġfor del
Ġpoli ti
Ġaut omatisk
Ġplan lÃ¦g
Ġfort Ã¦ller
se re
Ġn orm
Ġh Ã¥n
Ġh tt
Ġmaskin over
ta ler
Ġte lefon
el l
Ġf in
ĠâĢĭ âĢĭ
Ġm Ã¸de
3 3
ser vice
Ġbed st
oli tik
Ġgj ort
Ġfor h
mid ler
ĠP la
li en
ti v
Ġop mÃ¦rksom
Ġsag de
un t
Ġ Ã¸j
j s
m ad
ĠO r
kom men
o rer
Ġhjemme side
l f
ĠomrÃ¥ de
ĠlÃ¦ re
sÃ¸ ger
Ġlok ale
kti vi
Ġind til
ĠS ch
0 9
q ue
j a
ori en
0 3
ĠJ a
o der
Ġl ande
ĠF ran
oe r
Ġp rin
ĠfÃ¸ le
Ġreg n
Ġhal v
Ġ â
ve m
det s
Ġene ste
stÃ¥ ende
Ġbe lig
Ġbru gt
Ġla ger
y dning
i ks
a il
Ġt an
Ġfantas tisk
ci al
il jÃ¸
w are
Ġpro blem
Ġb id
ĠsÃ¸ ge
ud danne
Ġg u
U d
Ġju li
In d
7 5
Ġud ford
ma sk
Ġin sp
h o
of fer
b ro
h n
ati v
ĠG od
Ġh Ã¦
Ġse s
Ġmas se
j ylland
Ġo rigin
own lo
Ã¸ dt
den t
Ġhinan den
ti ds
Ġkun st
Ġen gelsk
f Ã¸rer
Ġdelt age
et en
Ġud gang
n ende
ĠDan marks
S p
g Ã¦nge
Ġsl ut
at h
Ġder med
Ġmedlem mer
ĠH el
ĠN u
be lt
Ġd ok
on g
al s
pla d
Ġbeg ge
ĠlÃ¸ s
Me re
kti ve
l ot
Ġele ver
O p
ar i
Ġsp ise
He r
Ġb r
Ġnive au
vi ew
ge de
ĠN e
g te
Ġsit u
li v
b ygge
fal d
4 9
Ġsp iller
ĠmÃ¥ne d
Ġforb ed
0 2
Ġuddanne lse
ĠlÃ¦ ge
O L
ĠF ol
ĠP o
r al
ane r
Ġth at
Ġb an
g ning
ue r
ĠBe r
ĠS i
ser ing
Ġs eneste
Ġprodu kt
in k
ĠJ e
Ġu ger
ĠlÃ¸b et
Ġa k
jer n
Ã¦r ing
ĠN ew
ret tet
u rer
Ġkun der
ĠbÃ¸r ne
Ã¥ let
S E
Ġk ry
ĠspÃ¦n dende
ĠkrÃ¦ ver
ĠnÃ¦r heden
Ġv ok
Ġdat ing
Ġc o
ation ale
me rik
Ġn ord
Ġh Ã¦n
in i
Ã¦ rer
Ġkro ner
Ġh ygge
Ġe m
f rem
Ġsy ge
3 8
g ar
N D
hol det
Ġsag t
Ġover nat
Ġhvil ke
U n
Ġdag en
Ġ3 1
Ġfar ve
Ġm on
in s
k an
5 5
Ġr y
ĠmÃ¥ne der
Ġfe m
Ġind lÃ¦g
D enne
Ġi mod
O K
ĠT ra
ĠAar hus
4 8
ent lige
Ġfal d
\ "
et s
A G
ĠT y
en d
ke s
til bud
Ġf od
Ġanvende s
jÃ¦l land
Ġpro cent
ĠK ri
Ġly s
Ġkun de
ĠK ar
Ġmu ligvis
Ġw ww
Ġo ven
7 8
Ġd om
ati ve
la t
.... ....
Ġmob il
Ġst ud
ĠhÃ¸j t
m is
ĠPe r
og n
Ġri sik
Ġl Ã¦nge
Ġhvor for
Ġs ende
Ġhver dag
ĠB r
si ve
sk o
ĠUS A
ĠL u
hol dt
Ġk Ã¸r
be hÃ¸r
Ġre d
ĠS il
Ġh j
ĠHvor dan
l ende
E M
Ġfor ret
ĠkÃ¸ kken
ĠhjÃ¦l per
Ġh y
T ER
Ġ20 20
ĠM u
ht t
ĠV ej
lige vel
cep t
Ġhistor ie
ĠsÃ¸ ger
ww w
Ġt ri
la get
h Ã¦n
ener al
ĠB l
la te
as h
Ġyder ligere
A f
ĠO n
Ġkv inde
Ġvoks ne
ti one
Ġg ul
. :
Ġrig tige
ve je
sti k
ta ger
ĠomrÃ¥ det
d ing
ĠâĢ Ķ
r ene
Ġskri ver
Ġeller s
Ġhe ller
Ġ6 0
Ġe bog
Ġfor an
lem ent
ar m
Ġorgan is
Ġopn Ã¥
Ġbe vÃ¦
u ri
ĠN ej
ĠV il
ĠT i
ste t
o en
Ġm Ã¦rke
v inder
Ġ >
Ġa v
4 6
Ġfor sk
Ġproje kt
Ġe jer
ĠS ta
rÃ¦ k
Ġsi mp
st an
Ġb ade
rup per
Ġsam let
Ġmed icin
Ġsammen lig
Ġ ×
sc rip
ĠkÃ¸ ber
Ġsam arbej
du e
vi vl
p as
b l
3 9
4 7
Ġre lev
a pp
Ã¸r re
Ġby en
ĠS Ã¸n
u ro
Ġhvil ken
Ġe get
Ġf rom
Ġje res
Ġvirksom heden
H oteller
Ġly st
ĠT ak
ĠK an
Ġo b
Ġarbej det
ra gende
Ð ¾
Ġde suden
3 7
n y
Ġan aly
d Ã¸rs
C E
Ġle der
U S
ĠprÃ¸ ve
Ġe gne
ver ing
m ens
Ġinden for
sp unkt
Ġtil la
Ġar tikel
Ġmas sage
ĠM et
den se
Ġli vet
ĠF ri
b or
Ġkomm ent
Ġsk o
give lse
h je
Ã¦ vn
Ġbe hand
ĠglÃ¦ de
Ġaktivi teter
Ġind i
ĠomrÃ¥ der
ĠS c
Ġen ten
Ġd is
p Ã¥
Ġj a
Ġele kt
p art
S am
Ġ200 9
Ġst Ã¦r
Ġth is
Ġtidsp unkt
ĠmÃ¥ tte
du st
âĢĿ .
Ġhur tig
vi st
Ġp syk
Ġfun det
Ġpro ces
Ġnet tet
a x
a h
f tet
pe ri
Ġgennem snit
B O
Ġvi d
ĠD i
Ã¸ ver
al borg
gi vning
. -
k Ã¥r
I S
H vor
Ġfe jl
ab y
Ġg anske
Ġst op
Ġt Ã¸j
ti e
tion en
Ġreg ler
Ġanbef ale
c is
tion s
kke s
Ġst jer
v ol
Ġa s
Ð µ
men tet
T ak
201 7
ic k
m s
ĠB y
i ce
Ġen hver
in ister
I R
Ġw as
al og
Ġl Ã¸n
sk ole
Ġs al
p ub
Ġform Ã¥l
ind ow
S om
ste met
re en
f Ã¸res
ce ret
Ã¦l g
Ġpra kti
Ġkon ta
Ġl og
Pri ce
Ġsi der
Ġre ser
or s
Ġal ene
E t
Ġin klu
u ner
Ġl Ã¥n
E r
get Ã¸j
Ġken der
T e
rÃ¸r ende
p t
k ra
g j
il ot
Ã¦ng de
sÃ¦ tter
Ġm idt
F OR
at ter
v o
ĠIn n
w ay
ĠlÃ¸ sning
k rÃ¦
is h
ont rol
Ġsikker hed
f ly
Ġtil gÃ¦nge
va te
Ġop hold
k ost
Ġbet aling
Ġd ra
d rag
var me
ĠS m
tig hed
ĠSel v
st rup
Ġk rop
": [
Ġa kt
kt ur
te gi
Ġpar kering
ninger ne
Ġbeste mt
u el
Ġfor be
Ġpopul Ã¦re
Ã¦s sige
ou se
Ġsmu kke
Ġfor en
Ġsp rog
ation s
Ġbu tik
ĠH u
de ne
vi ser
Ġf ed
ĠM as
ab ili
v ig
Ġti t
= "
ĠS yd
Ġv are
I d
k omm
ĠUni versi
gÃ¥ ende
Ġf ys
! !
Ġbet ydning
Ġkom met
Ġlige som
. )
ru ppen
Ġid Ã©
Ġn or
o o
ri gt
m us
Ġkom b
se ret
Ġvir ker
Ġkl ub
Ġd o
Ã¸r ge
Ġcomp uter
ĠÂ §
1 00
lÃ¸ s
s ol
b li
b an
g u
ĠEurop a
te l
Ġp ost
T he
Ġfor Ã¦ldre
ĠvÃ¦l ger
B ook
Ġop date
Ġla de
ow e
Ġgj orde
Ġmas ser
Ġbl om
ch en
Ġun i
Ġko lle
pla ds
Ã¸r ne
d y
Ġpri vat
uder ende
mme lse
Ġf Ã¸d
ĠsÃ¦r ligt
d ater
ĠI kke
ĠA ir
4 4
Ġty p
am en
Ġc an
Ġb on
Ġben ytte
Ġt vivl
Ġf irma
f tige
on en
lu b
Ġ3 5
Ġs ort
Ġ )
li c
6 5
red it
Ġk ultur
Ġen s
Ġs let
ssi one
Ã¸ jer
va ret
Ġin stal
ĠS ide
ĠV ar
Ġoff entlig
Ġn ull
ĠM Ã¥
Ġc he
Ġd isk
a pe
7 0
lo v
teri ale
D S
Ġal ligevel
I ON
Â ¬
ĠC on
H an
svÃ¦r re
Ġbe sÃ¸g
t re
o ut
Ġre la
ĠJ ensen
Ġbe stÃ¥r
ĠlÃ¦ kker
3 1
Ã¥ d
ĠL and
ĠFreder iks
Ġte st
Ġh Ã¸r
ĠvÃ¦ gt
Ġopleve lse
âĢĿ ,
Ã¦r ker
la ck
m l
rÃ¥ det
ĠA ut
Ġde refter
vik ling
U R
Ġhens yn
Ġsoci ale
ĠT o
Ġan ven
d o
red je
Ã¸r dag
Ã ·
Ġg ruppe
Ġstil le
ks is
Ġt ak
Ġmo derne
ult at
ig h
U T
Ġb al
o sp
lÃ¸ se
' ).
fat ter
Ġal vor
Ġfra gt
Ġi f
Ġnatur ligvis
Ġop gaver
Ġhan del
P e
re dt
ĠH a
ktion en
Ġg ene
Ã¦r t
Ġw h
p le
c ol
ĠH Ã¸j
ag ra
ome r
gi ft
Ġmilli oner
kke de
b art
3 2
Ġse ks
Ġbeg rÃ¦n
Ġse j
Ġla ver
Ġsid der
Det te
Ġinds til
v ad
ste der
c ed
fri t
Ġg rÃ¦n
mid del
Ġh Ã¸re
Ġselv om
Ġre du
th is
Ġsy stem
Ġop skri
Ġt ag
Ġb rÃ¦n
ske t
b ag
sm inister
Ġsp ort
Ġsk ab
ĠS ort
ĠB ru
Ġmo del
3 4
ĠsÃ¦ tter
b old
Ġresulta ter
ĠG u
Ġt ry
ol f
Ġfinan sie
Ġh as
. "
hu set
Ġbille de
Ġbl og
Ġmedarbej dere
bet aling
ĠD at
Ġm ag
ot h
l lu
Ġ200 8
Ġslag s
rin ge
Ġhv id
Ġgi vet
. âĢĿ
Ġvi se
Ġsk Ã¦r
Ð °
Ġun g
om en
skrive lse
Ġbe reg
Ġfre mme
Ġb aseret
Ġa merik
l s
Ġf an
am pe
] ,"
pp et
staur anter
Ġo ut
Ġve jen
ĠpÃ¥ vir
Ġv ol
ogra f
Ġfar ver
dig vis
Ġr yg
b ille
om an
Ġ ur
Ġk ol
g o
sÃ¦t ning
Ġvide o
ĠL Ã¦
Ġkl art
Ġfun ge
ĠN o
Ġad minist
Ã¦ iske
ĠsÃ¦r lig
val ue
Ġop ti
e lse
Ġle tte
Ġoff entlige
Ġg av
Ġm Ã¸r
Ġ <
Ġsund hed
ĠFa cebook
ĠhÃ¸je re
ĠVe r
mÃ¦r k
lo b
Ġy our
Ġk Ã¦r
ali tet
ring en
m ning
Ġf at
ĠS an
ĠS Ã¸ren
Ġle je
ĠO G
Ġ Ã¦ldre
h Ã¦
u elt
si c
si te
A r
Ġt redje
Ġty pe
Ġsu c
or sdag
Ġnorm alt
f und
Ġd ren
del en
Ġ Ã¦n
Ġbud get
kom me
Ġj ord
Ġm io
ord ning
8 8
ĠfÃ¸l ger
Ġh ud
Ġgam mel
ar ch
ĠJ es
ot en
Ġm el
sk il
ĠF OR
Ã¦ dag
vis ion
ĠGra tis
ĠV ores
Ġmo de
it ter
ĠK un
ĠChri stian
Ġh ed
ĠDan ske
Ġd rÃ¸
rÃ¦ t
ĠO dense
s in
Ġme ter
e ken
C H
ĠO K
a el
ĠHan s
st rer
p lig
Ġudgang spunkt
Ġk ateg
ne ss
ĠvÃ¦ sent
ĠA alborg
o ck
Ġret te
Ġval gt
Ġend da
Ġb urde
gen hed
i um
Ġal tern
Ã¸ s
ĠFil m
Ġ7 0
ĠM ad
Ġg ri
Ġr ent
Ġven ner
Ġken dt
Ġbil lige
Ġar range
te g
ytte lse
Ġbag grund
ĠÃ¥b en
ss age
ri c
Ġra bat
ĠÃ Ĩ
Ġerfar ing
Ġfol ke
Ġf la
r ende
ie lle
Ġsm ag
ak ken
Ġaf slut
Ġu tro
Ġd Ã¸
ĠRe s
ĠHan sen
f la
ve ret
ĠF ind
ĠprÃ¦ sen
Ġru m
sc ort
Ġk ost
Ã¸r ger
Ġbeh Ã¸ver
bo x
Ġm y
lo w
ĠRe gi
ĠP h
Ġdet al
Ġpri vate
Ġaf tale
ker ne
ĠÃħ r
k Ã¦
Ã© r
D E
Ġla g
de les
N E
ĠNiel sen
9 0
ont ent
Ġf andt
p ilot
Ġlok al
ĠÃ¦n dre
Ġj ule
ĠJ u
fÃ¸l gende
8 7
Ġp res
i v
Ġo pe
Ġver dens
ar ds
A l
âĢ ĵ
Ġf int
Ġsl Ã¥
Ġweb shop
ĠG ud
ownlo ad
Ġperi ode
Ġel sker
ta get
ob belt
Ġvin ter
sp lan
Ġs Ã¦s
Ã ĥ
di v
Ġp a
s v
An meldt
Ġma il
Ġk a
d der
ni ve
C h
ar a
ĠlÃ¦ rer
Ġ Ã¦
Ġfa ciliteter
k ant
Ġb red
Ġt vÃ¦r
na me
k or
K omm
ĠPro du
ĠA pp
ct or
Ã¸r gen
ame ra
s us
Ġg rÃ¦
Ġkomp eten
} ,
ĠgÃ¥ et
ĠS T
Ġ4 5
Ġtran sport
Ġs mer
ð Ł
ĠN et
o od
ĠB lu
Ġan ti
sti t
Ġfun ktion
at t
( "
ĠR eg
Ġti ds
me ster
t her
ĠnÃ¦r me
arbej det
ĠB en
Ġerhver vs
Ġr Ã¸d
le der
8 5
Ġdage s
A lle
Ġre gel
ĠN r
Ġsik rer
ver se
ĠR as
ĠP ris
Ġvigtig ste
ok ra
Ġp akke
Ġprofe ssione
m on
ĠkÃ¸ rer
b a
omrÃ¥ det
G ra
Ġop ly
Ġmang ler
Ġkro ppen
Ġf ru
an lÃ¦g
Ġty de
V ed
Ġk il
Ġn ot
Ġtro ds
Ġbegyn der
u ler
Ġfly tte
Ġc ook
b i
fol k
Ġe vt
m Ã¥l
Ġu anset
Ġdri ft
ĠnÃ¸dven digt
Ġind hold
olog isk
Ġny de
Ġsoci al
Ġsk revet
ĠtÃ¦n ke
Ġregi stre
) )
Ġsk ade
ĠEn g
Ġtyp isk
y tter
k lÃ¦
H ar
Ġli de
an der
ta lien
O T
s ing
Ġ ul
Ġanmeldelser Nr
Ġre di
Ġi m
Ġk lo
h jÃ¦l
Ġg ave
Ġsj ov
mask ine
Ġop gave
Ġbu tikker
Ġsam lede
ste de
ma le
mpe rat
Un der
ĠB ag
ye r
ra gt
6 6
Ġre staurant
ik ation
Ġnu vÃ¦rende
Ġs tig
ĠS und
Ġperfe kte
ĠmÃ¸ der
Ġp ub
Ġh vem
Ġfort sat
e ller
den ti
Ġop fyl
indow s
our n
Ġperfe kt
in ter
Ġb rand
Ġst of
ib li
ce ss
t ag
b Ã¦k
pla y
tig heder
ĠB u
Ġve dt
sk ov
Ġb us
Ġsn art
N y
Ġeksempel vis
Ġret ning
Ġ8 0
I C
Ġpati enter
t ende
a ut
in ds
ĠâĢ Ļ
ĠT ripAdvisor
p on
mÃ¦r ke
me llem
ĠF Ã¸r
Ġm otor
ap i
Ġlig nende
Ġse k
Ġst ri
mp t
Ã¥r s
Ġfjer n
Ġbel Ã¸b
Ġomfat ter
Ġfor kla
si oner
con dition
Ġkomm uner
ĠW i
Ġs a
Ġkar akter
Ġsy d
handler s
Ġperson lige
Ġm oms
ven d
owe r
n Ã¥r
P S
ĠstÃ¸rre lse
Ġra mmer
sk olen
L E
ĠJ an
ĠAn dre
Ġ200 7
ene st
ĠÃ¦g te
Ġan lÃ¦g
m Ã¸
gÃ¸r ende
Ġf ine
ti vt
Ġre prÃ¦
Ġ0 9
ĠF oto
P h
Ġkomm ende
Ġk ende
un kter
R A
Ġj ul
Ġs ove
ĠbÃ¸rn ene
k Ã¸
row ser
7 7
ĠplanlÃ¦g ger
ĠM ich
ĠK n
ĠTh om
u den
Ġs jÃ¦l
ag n
h Ã¸j
Ġde f
Ġsid st
b are
kom st
a den
rs on
Ġk op
4 3
ig hed
ĠB et
Ġv an
for sam
Ġtilf reds
las ses
Ġrig tigt
tet s
Ġp art
ck ing
be ret
Ġfunge rer
ĠAr bej
ĠV en
e y
O S
in den
E fter
je kt
ĠAn dersen
li p
Ã¦ss igt
ĠâĢ ¢
ĠvÃ¦ g
Ġkor re
Ġeffe kt
Ġop r
k r
h el
ĠT IL
ĠC an
Ġomk ost
T o
Ġstar ter
oli ger
Ġk affe
ĠSt or
sk Ã¦r
ĠDer udover
i ration
ve re
Ġmin d
ĠD el
ĠB og
te rede
sen dte
M an
n r
Ġin stru
k ar
Ġbon us
M et
l ar
ĠD isse
Ġp artner
Ġg lad
Ġgennem gÃ¥r
k ens
b Ã¸ger
Ġbe f
f irma
Ġl ange
Ġk lasse
Ġmodt ager
k si
tik ler
Ġpra ksis
Ã¶ r
sk land
Ġkli ma
sÃ¦tte lser
ĠK ort
Ġbid ra
a ci
kt Ã¸j
Ġmarke ds
ĠD ag
vÃ¦r ks
re am
Ġmodt age
ĠJ Ã¸rgen
y pe
Ġindi vi
te gne
A B
olog iske
ĠV Ã¦r
Ġk re
Ġover sat
yt tet
u ra
ĠK Ã¸
AN D
Ġbeste mme
Ġbar net
Ġkon st
omrÃ¥ de
Ġa ller
Ġkont rol
ĠRas mus
ĠgÃ¦l dende
oli ti
m or
5 6
Ġg eneral
ĠsÃ¦r lige
ur g
Ġ9 0
asin o
foren ing
al k
ibli ote
Ġsk atte
f uld
Ġan satte
ĠK om
Ġne g
f el
b il
Ġstand ard
Ġdy b
Ġlige ledes
Ġudvik le
Ġstyr ke
ĠSer vice
Ġb Ã¦re
te res
ĠIn ter
u en
Ã¦ st
Ġc ir
sten sen
Ġe urop
Ġst uderende
ĠB Ã¸rn
man n
Ġb ro
Ġi fÃ¸lge
Ġwe eken
ĠE ller
Ð ¸
Ġden s
ĠGr Ã¸n
8 6
Ġk g
ap ir
O m
re re
Ġpen gene
Ġhu set
Ġsp i
Ġlej lighed
dat a
ĠS ol
P o
Ġfjer ne
Ġst od
Ġhtt p
ĠkÃ¦ mpe
Ġj f
8 9
Ġm yn
Ġbl od
ine s
Ġund gÃ¥
am mer
Ã¸ st
sen dt
an a
Ġvel kommen
Ġen g
ĠKon takt
ter ia
s d
f l
Ġl yder
Ġre sten
ĠF ar
Ġ Ã¦r
sl in
ission en
v ok
Ñ Ĥ
le x
Ġstjer ner
Ġle delse
vÃ¦r digheder
Ġla v
Ġbor ger
gra m
Ġb a
Ã¦ v
ĠSk o
7 9
un ge
l og
le g
b yr
Ġf ot
Ġne mme
Ġta ler
ĠnÃ¦r mere
ĠM ange
ĠDe suden
de ret
Ġne den
7 6
o se
h Ã¥n
Ġ 00
ud valget
gj ort
Ġskyl des
Ġu be
vir ksom
ĠSu per
Ã¦dag og
Ġved rÃ¸rende
BO OK
di en
Ġdig it
Ġforb ru
I M
Ġde svÃ¦rre
f ag
Ġgenere lt
Ġsuc ces
Ġu for
Ġh um
Ġinve ster
ffe r
ĠH ove
a e
Ġin tet
ag ne
Ġf y
R U
Ġar k
ĠtrÃ¦ ning
ste mer
ud se
ĠÃ¦nd ringer
f li
inge lser
Ġ yn
Ġtilb yde
ne d
s st
Ġop lever
S u
ĠnÃ¦ vn
ĠV urder
c ar
Ġg las
Ġpati ent
A D
ĠlÃ¸b ende
kl ar
Ġ3 6
ine ret
Ġsam fun
Ġres ultat
Ġeg entlig
Ġform and
Ġind gÃ¥
4 2
j ul
Ġv urde
ri sk
Ġcook ies
Ġperson ale
ĠB yg
ĠA p
ĠJo hn
Ġbl Ã¥
Ġprodu ktion
ĠsÃ¥ som
s ul
201 6
ĠfÃ¸ ler
ĠS pe
si kker
en h
ra f
frem t
Ã¸ v
ĠM on
Ġpi ger
ĠÃ¸v rige
ĠÃ¥b ne
Ġkla ss
O P
ce re
Ġbesk Ã¦
Ġo lie
Ġalminde lige
Ġud b
nive au
Ġle d
Ġmid ler
Ġanvende lse
Ġra di
s our
or ter
Ġal der
Ġu p
Ġh Ã¸rer
5 9
Ġk las
Ġle dige
O r
ĠJ ac
br ud
ic ro
ra s
Ġfor sÃ¸g
Ġsu pp
Ġnav ne
Ġi det
Ġsk aber
F T
Ġt om
Ġprogra m
ĠS K
Ã¦l dende
K Ã¸b
ĠL y
or ier
ĠT ran
lÃ¸b et
D a
v Ã¥
st ol
ĠVe st
g rÃ¦n
Ġp ct
in ation
hol delse
A t
E ST
Ġkont ra
h use
on ne
Ġen gang
m atch
Ġkonta kte
Ġan sÃ¸g
sk ilde
Ġtj ene
Ġos v
h ove
ĠÃ¸v rigt
amili e
al a
N ING
Ġudt ryk
z a
Ġinds ats
ĠK vinder
jer ne
Ġla gt
kende lse
Ġ {"
Ġredi gering
Ġly kke
ĠC ol
b jerg
ĠB a
O W
Ã¦ gt
n g
Ġa ir
M S
ta iner
b ane
Ġin stitu
Ġtra di
ĠÃ¸je bli
ĠT a
ĠFran k
i ke
Ġst ol
Ġ3 00
D an
Ġfe st
Ġsm art
Ġbl o
Hotel s
Ġfor l
sk abe
as s
ĠA c
Ġbelig genhed
4 1
o la
Ġmed ier
ĠsÃ¦ t
Ġo ch
s la
Ġly d
ĠvÃ¦k st
sty ret
h s
Ġs na
Ġcent rum
skab s
Ġby ens
Ġ7 5
Ġ/ /
Ġte kst
pri s
ĠN ogle
Ġp or
K on
Ġunder stÃ¸
c her
Ġproje ktet
Ġbe sÃ¸
Ġt rÃ¥d
m Ã¥
E G
Ġf Ã¸de
Ġor dre
S el
Ġad resse
ĠV Ã¦lg
Ġhel st
Ġty per
Ġfed t
kti vt
as sen
V Ã¦re
as ter
ĠfÃ¦r dig
ĠlÃ¸ be
Ġf ran
ĠIn gen
Ġd Ã¥r
styre lse
F i
li m
n d
j p
ful de
si v
li s
Ġgen givelse
ĠL ar
Ġ ;
Ġinds am
f u
it te
vi se
ve rige
Ġ qu
ss y
ĠD Ã¥rlig
ĠL ars
ĠBed ste
Ġhu ske
sig n
Ġmodt aget
Ġorigin alen
ĠSÃ¸n der
au se
Ġflot te
ĠM art
ĠA b
ĠsÃ¸n dag
ĠFor bed
vi t
oli d
Ġi mellem
p rÃ¸
Ġres pe
m per
Ġbe ske
i z
Ġf ro
Ġkon sek
Ġd obbelt
o x
Ġfort Ã¦lle
Ġk Ã¦re
P ar
Ġa m
Ġind sendte
Ġsund heds
Ġcy kel
ro lle
Ġst ru
an ne
Ġpri sen
la st
de lser
ort en
Ġforret nings
P R
ĠM Ã¸
Ġsimp elt
Ġbet al
Ġmen ing
Ġretur ret
d r
ĠhÃ¸j de
T h
Ġefter fÃ¸lgende
Ġt je
sp ar
ĠG ar
p ing
ĠW indows
S i
Ġover veje
C lass
ok ken
sp ille
ĠHotel s
org an
Ġud n
sy net
Ġf iske
Ġp oten
Ġsen der
op lysninger
dre de
Ġh otellet
ĠU dtjekning
Ġro lle
re e
li ck
un ds
in get
Ġv Ã¥
t tet
ĠT or
stÃ¦n dig
ĠÃ¸konom iske
lo ven
P O
ĠR et
re at
Ġb yder
Ġt en
Ġac cep
ĠR ing
bu tik
g ruppe
Ð ½
ĠC ent
Ġover ra
Ġt ru
h al
Gra tis
sm u
Ġbet yde
Ã¥ rige
Ġi denti
ĠV al
hol des
ĠB ir
htt ps
d al
ve jen
ĠI T
Ġal l
Ġm at
te xt
ĠV el
Ġ3 2
Ġpro te
se de
Ġ0 8
-- --
Ġin kl
vi dere
ĠC enter
H vad
Ġmaskinover sat
Ġs enest
te mp
mis match
S c
Ġmaskinover sÃ¦ttelser
av ne
Ġud s
ĠsÃ¦ d
ĠP a
teria ler
ĠB or
ta tion
Ġb ri
Ġn Ã¸dt
Ġste mme
ĠSÃ¥ dan
am a
ri et
M o
ĠfÃ¸d sel
ĠSe x
ĠB ra
Ġdri kke
i f
komm ende
× Ļ
Ġsand syn
Ġa ner
p leje
tet en
Ġp ol
it z
Ġaf gÃ¸rende
Ġsag en
Ġm ak
Ã¸j et
Ġhed der
Ġfre dag
ci p
Ġne ds
ab ler
s ub
klu b
ĠHen rik
h otel
* *
g od
a ds
an o
Ġo k
Ġbegyn dte
i let
C lasses
F ra
ĠmÃ¥ der
M ar
fun ktion
5 7
00 3
Ġproje kter
Ġudford ringer
Ġ Î
h as
Ġk oster
Ġbe st
Ġs la
div Classes
u de
sk en
ĠlÃ¸s ninger
O n
rÃ¦ kker
on a
cer ti
Ġhen te
Ġ3 9
ĠE ner
lem mer
201 9
Ġ ðŁ
ĠR an
Ġhol dt
Ġfe j
f Ã¦l
Ġfrem ragende
Ġf av
or ld
ft ware
n is
Ġgar anti
Â °
V e
Ġ5 00
Ġsy mpt
Ġhjer te
ste det
Ġtage s
Ġsty kke
ci a
lÃ¦g ge
Ġken dte
ĠI I
se d
ĠForbed r
Ġ ï¿½
ister ende
ret s
u al
T ripAdvisor
, âĢĿ
Ġforb i
p ed
Ġfor n
l us
ot al
I K
ine ss
Ġblom ster
Ġforsk ning
ĠA F
Ġste mmer
ri ske
Ġkra ft
Ġb Ã¸ger
ĠPar k
d yg
Ġfamili en
j o
Ġb as
um b
ĠprÃ¦ cis
ĠCh ar
lan det
Ġk at
lo we
land s
Ġven lig
sp iller
del inger
ĠDa vid
T op
Ġma teriale
ug le
Ġkn ap
ĠtÃ¦n ker
Ñ ģ
Ġkont o
Ġsitu ation
am in
E x
n ummer
Ġse vÃ¦rdigheder
Ġg ro
an cer
Ġle ge
be handling
ĠC ity
Ġp leje
Ġdok u
Ġk irke
am me
ĠNy borg
ĠSp ort
Ġved lige
ĠvÃ¦r d
5 8
un ktet
Ġful dt
ĠD is
midler tid
Ġud styr
Ġst Ã¦rke
age re
Ġkommun en
Ġrisik o
Ġintern ationale
ct s
ĠM idt
Ġ3 3
sk ra
ene s
ri v
Ġfor mer
b ry
Ġbru gere
ĠB rug
sÃ¦tte s
el s
ĠTy skland
me s
Ġd Ã¸d
e re
ma ger
ring s
is s
Ġb ran
ĠN atur
EN T
v alt
ĠAn ne
S h
ĠB ro
ĠJ ens
Ġp ige
ĠIn dtjekning
Ġtil st
Ġsen dt
b ack
Ġende lig
ic al
ĠUniversi tet
ĠS a
Ġkla re
ar y
Ġover for
de lingen
bo lig
land t
Ġspeci elt
6 9
Ġmo ds
ĠâĢ ĺ
t op
p res
an den
Ġunder visning
ĠD in
Ġhen hold
Ġstar te
N u
il la
va rede
sol ut
ĠâĢ ¦
Ġf Ã¸rer
Ġfri vil
b ord
ken dte
ve lse
ne y
sker ne
ĠE k
) :
ĠM id
A V
F a
L IN
Ġg lob
K T
ĠE le
m al
M ET
k ont
Ġven stre
201 8
ti t
Ġk vali
ĠsÃ¦l ger
p a
ĠT ru
Ġk ul
scrip tion
ve st
Ġs or
Ġspeci ali
Ġanbef aler
Ġve st
Ġopr inde
Ġre kla
ĠhÃ¸j re
ud vikling
Ġdej lig
si der
Ġsel ve
Ġver sion
I V
Ġinsp iration
Ġven te
ĠD K
ik ro
Ġbe bo
ke d
lÃ¸ sning
Ġkon cer
fe rence
Ġhv ide
ok o
gÃ¥r d
ĠK l
Ġtra fik
Ġpoli tiske
Ã¥ b
m iljÃ¸
o us
ber t
sti sk
Ġv isse
ĠM ob
lig gende
Ġvis te
ĠMich ael
ist orien
Ġom f
Ġt ryk
ra pport
L Ã¦s
ĠF rem
Ġaf snit
re b
ĠGo ogle
Ġl Ã¸rdag
f in
ali s
S P
Ġopleve lser
stit ut
Ġbor gere
ĠP en
Ġ ce
che ck
Ġud sigt
Ã¸l v
Ġp aa
ra le
Ġgeneral forsam
Ġr inge
ĠJo han
ĠRegi on
Ġeks per
j le
Ġfrem stil
Ġin vi
Ġinte ress
con tainer
k ast
Ñ Ģ
ster ne
C T
ĠlÃ¦ kre
ud t
ĠR ed
Ġamerik anske
Ġst rÃ¸m
on y
Ġvi dt
ĠM al
ĠsÃ¦s on
ĠÃĺ st
Ġkomment arer
Ġde bat
oli e
ĠE m
tra cking
ĠS id
Ġform id
ĠundersÃ¸ge lse
Ġspille t
Ġdok ument
Ġa mb
im g
ĠC omp
Ġ$ *
Ġan g
h l
ĠR Ã¥
ĠAn d
Ġerhver v
Ġ200 6
ste mmelse
Ġd Ã¸de
gÃ¸r ing
jp g
Ġre cept
Ġli ve
Ġop slag
Ġan der
Ġf u
Ġn ummer
Ġhun de
as ser
Ġp unkt
hÃ¥n den
Ġt and
pri ce
Ġc om
tro du
ĠS and
Ġp ort
gi v
ĠsÃ¥ vel
ĠE d
ĠL ad
ĠS al
Ġbek ym
6 4
Ã¸ se
d yr
Ġres sour
som t
ĠC op
Ġtradi tione
ĠH vid
m g
per s
ĠPe rson
sion s
Ġ xxxx
Ġs ven
Ġli ste
ite l
Ġen heder
ti gere
Ã¦g ter
Ġsk rev
foren ingen
Ġfun ktioner
ĠThom as
Ġu del
Ġhvor nÃ¥r
gre b
Ġu af
ĠKÃ¸benhavn s
ĠstÃ¦r kt
Ġgennem fÃ¸re
Ġte gn
Ġind ust
kom mer
m te
sti val
ĠF jern
5 4
Ġk e
Ġop be
Ġfor retning
Ġgen op
li ma
5 1
Ġl ove
ĠkÃ¦r lighed
Ġfor hand
Ġudvik let
Ġvil kÃ¥r
k ninger
rig ht
E X
Ġfri sk
V D
Ġu t
P artner
Ġ200 0
fice ret
fa ciliteter
and id
Ġweb site
ĠfÃ¸ dt
for b
ĠD R
ĠK irke
Ġd re
uddanne lse
ig ur
va il
Ġfa kt
ot t
Ġpri mÃ¦r
Ġmu lige
Ġva ske
Ġeks isterende
Ġb ort
Ġmid del
Ġte mperat
ĠlÃ¦g ger
f en
Ġ3 8
Ġhtt ps
Ġander ledes
Ġli sten
ĠM or
Ġbe kendt
Ġp h
o om
Ġnet vÃ¦rk
plad sen
ar en
y st
d is
widget s
Ġfrem tiden
Ġmarke det
Ġbeslut ning
Ġkomm une
rie s
Ġra mme
sy stem
ĠSk ole
Ġsk olen
h am
Met a
C C
L ist
Ġpro fil
T ra
Ġab solut
, '
Ġskri ft
ĠT ag
Ġf r
Ġd Ã¸g
sen e
Ġfore gÃ¥r
ig n
6 7
g Ã¦ld
Ġd Ã©
Ġpar a
Ġn Ã¸g
Ġhand le
Ġer stat
ĠQ u
Ġaf deling
ri b
e k
skri ft
per son
Ġret ter
6 8
. (
Ġvalg te
ĠH os
Ġpl udse
de lig
ond on
Ġop ret
mme l
st jer
Ġb ord
d Ã¦
old ing
ĠpÃ¥ g
Til bud
Ġtilf Ã¸je
ĠR a
Ġstud ie
ĠH or
ĠF in
r n
ĠsÃ¥ kal
ad a
Ġind kÃ¸b
D KK
ĠB us
Ġfal der
ĠF Ã¦lles
Ġbrug te
plad ser
sÃ¦ de
Ġv andet
ud styr
Ġfor plig
ĠK e
Ġsid de
Ġtil pas
lo c
lÃ¸ st
- )
le k
Ġi midlertid
ĠC a
ĠÃ¸konom isk
Ã ¡
ĠÃ© t
ra sse
hed sb
Ġvin due
Ġmin im
y kke
Ġst en
ĠglÃ¦ der
ĠÃħr hus
se rede
?? ??
Ġ 01
t r
Ã¦ss ig
h ave
Ġdy re
li vet
ĠH ver
Ġe scort
ĠV and
ĠÃ¸konom i
sb jerg
ĠrÃ¥ dighed
m ing
k k
Ġte g
so ft
ĠW eb
la det
k ler
Ġ3 7
PO ST
Ġbe s
Ġrej ser
ĠBe ach
sti d
Ġfores til
vi dst
Ġf art
à ¸
Ġg a
Ġaf t
= \"
ĠP lan
Ġrelev ante
d ri
Ġbog en
b Ã¦r
Ġv anske
5 2
5 3
ĠRo skilde
Ġma sk
Ġgrund lag
ID E
ĠlÃ¥ ne
ĠT op
del t
kto rer
Ġfor and
Ġat tra
Ġk ob
ste re
ĠkÃ¸b t
ĠP ort
Ġm ore
ab let
Ġs ne
fÃ¦r d
ĠC la
Ġop rette
Ġfrem gÃ¥r
Ġstil ling
ĠL in
in ten
st ri
Ġud gifter
ĠhÃ¥r dt
use um
ĠÃ¦nd ret
ï¿½ï¿½ ï¿½
Ġd yg
lÃ¦g gende
holds vis
mme lig
Ġm v
Ġbil en
os s
Ġd ist
Ġs varer
p et
ĠtrÃ¦ k
Ġfyl dt
Ġantal let
ĠgrÃ¸n ne
k ret
fÃ¸r ing
for sk
Ġre f
di re
Ã¸b ler
RO OM
amp ing
Ġb ank
Ġsk j
P RI
Ġfys isk
m y
ĠV ir
( )
Ġop tage
lag s
ver s
Ġs ur
ĠpÃ¥g Ã¦ldende
am b
Ġe j
' ))
ĠnÃ¸dven dige
Ġanaly se
Ġst ati
Ġdag lig
ĠW h
Ð¾ Ð
Ġgod kendt
enh agen
Ġc i
Ġdi verse
j ene
Ġm Ã¸n
al ler
9 8
Ġbe styrelsen
Ġforbed re
ĠR ad
A Y
9 7
dag en
Ġkommun ikation
ĠEr hver
ĠBr Ã¸n
Ġfor sikring
ff et
om st
y a
Ġet able
Ġmo der
od y
ĠMe re
Ġnav net
Ã¦ ste
gi ven
Pro du
Ġvej ledning
201 5
be sk
Ġskab t
Ġregi strer
M in
ker s
vi di
Sel v
ot s
mel d
fat te
ĠK o
ĠSam tidig
Ġkl in
U L
E F
Ġek sk
st offer
Ħ ¢
ĠB lack
ĠK ir
Â ²
ĠAl l
ĠO le
Ġaf hÃ¦n
Ġover ens
Ġplace ret
Ġluft havn
Ġuden dÃ¸rs
i at
Ġa g
vej s
ĠAn ders
c re
Ġb age
land ske
D F
Ġdat ter
Ġpar ti
in dt
hÃ¦ng ig
ate d
t ing
li ste
ĠE rik
al te
Ġk Ã¸n
Ġstra tegi
lÃ¦ ge
Ġefter hÃ¥nden
ĠSo cial
Ġovernat ning
ha us
ĠÃ¸ k
Ġvar ie
B il
Ġj orden
ĠNiel s
G o
Ġtil slut
Ġd Ã¸r
ĠMart in
x e
Ġud gÃ¸r
Ġs ub
Ġkorre kt
sk ue
ĠY ou
Ġpra ktisk
Ġfle ksi
Ġe value
po si
Ġprakti ske
sp ris
ĠSt art
Ġ3 4
or it
Ph one
ĠP C
ĠB i
ĠU den
Ġbelig gende
Ġbek ve
Ġud vi
ĠS verige
ĠB ille
h r
s f
c m
Ġkig ge
Ġbe sÃ¸ge
si st
ar der
ĠIn tern
le f
Ġc ar
ktivi tet
la ds
inger ne
ĠbevÃ¦ ge
R ay
Ġsel skabet
ourn ali
u be
Ġmand ag
ate l
v ogn
Ġudvik lingen
Ġpoli tik
t ning
Ġ0 7
Ġne w
of a
p ad
ĠF ort
Ġs ang
y des
ĠC D
part ment
Ġfor st
Ġv andt
Ġv ind
Ġst ran
fil m
5 00
ty pe
Ġakti e
Ġfru gt
Le vering
Ġfort sÃ¦tter
Ġbo ok
â Ħ¢
Ġfantas tiske
ĠL yn
ĠPe dersen
ĠÃ¸ de
st of
Ġf ry
ĠlÃ¦ ser
ĠFol ke
pr widgets
omrÃ¥ der
gÃ¸re lsen
Ġp resse
Ġk j
Ġte ma
] ,
Ġri ge
Ġkonkur ren
sm Ã¦ssige
Ġbi ler
o oth
Ġover blik
Ġre ger
l ut
Ġ ing
ĠR en
sm ed
":" (
ĠlÃ¦g ge
ĠO f
and ard
Ġin iti
Ġkom fort
r un
Ġfok use
ĠArbej ds
D K
forma tioner
Ġbet rag
k var
Ġi r
Ġtab let
ĠHar ald
g ruppen
Ġv inder
get js
icro soft
ame s
sh ow
ir t
gar anti
sk ort
temp late
S B
ĠS Ã¸
Ġfor vent
age ment
ĠT lf
Ġlette re
ĠS E
, Â«
Ġgen gÃ¦ld
ĠC he
st alt
w ards
ĠW il
Ġs ager
Ġprogra mmer
give lser
Ġb ad
Ġbeh age
Ġre stauranter
g rupper
S pe
Ġdel tager
8 4
Ġdi alog
ĠFra gt
Ġunder vis
Ġspeci al
ĠH al
Ġelekt ron
fice rede
Ġud gave
P L
Ġv inde
ĠLar sen
st o
mÃ¦r ket
ĠSt rand
fe ren
":[ ],"
le tte
ĠB el
min ister
il y
k le
Ġo ur
Ġt Ã¥
ger en
vi den
Ġbek rÃ¦
Ġregi on
Ġvig tige
Ġung dom
age lse
ĠL o
ĠÃ¦nd ring
tie r
ĠR i
ĠW omen
( );
ĠsÃ¥ fremt
Ġsm ule
Ġb rowser
svar ende
Ġsk ul
Ġfor ker
Ġsk ov
ĠhÃ¥n dte
ĠL ige
P ER
Ro oms
ĠL eg
un st
Ġkor tet
for hold
ĠDe sign
Ã¸d te
ti dige
ĠprimÃ¦r t
ce rer
Ġsam fund
Ġgu ide
Ġfor fatter
organ is
A C
Ġdel s
ĠJac ob
Ġfre e
Ġpas se
Ġhvor af
T V
Ġpl us
Ġsam mens
de m
ĠÃ¸ get
f ast
ym na
Ġg rupper
Ġin no
ĠH us
i tes
D R
C o
Ġvej r
r c
Ġbade vÃ¦relse
Ġdire ktÃ¸r
Ġhu den
× ¢
LO G
Ġ200 5
Ġ4 8
Ġf ind
ĠdÃ¦ kker
ĠprÃ¸ ver
- ,
Ġind re
Ġofte st
vok at
it s
om me
sel skaber
Ġstart en
Ġt orsdag
ĠK ultur
Ġ xx
Ġhver ken
hove det
mod ule
ak tion
ĠF inan
Ġkra f
Ġud fÃ¸re
Ġvar i
Ġc re
Ġdej ligt
otelle ts
Ġl Ã¦r
ĠL ou
Ġstar tede
Ãĺ R
ĠM ag
hjÃ¦l p
N ej
S H
Ġalminde lig
vÃ¦re lser
ĠkÃ¸ le
a z
Ġbed Ã¸mme
f ig
Ġm us
byg ning
Ġaktivi tet
res ser
U N
slin jer
Ġt rue
Ġg lade
ĠbeskÃ¦ ftige
hs x
v inde
p i
la der
Ġg Ã¸res
Ġk ir
Ġb aby
Ġsp ur
l Ã¥n
Ĥ ¬
Ġhen blik
Ġm Ã¦rker
Ġanbefale s
ĠK lik
Ġaltern ativ
Ġkonkur rence
g aven
ra y
f lade
ĠL ondon
ĠG en
ĠtvÃ¦r s
v ens
Hvor dan
ome ter
ĠÃ¸ ge
g in
Ġeurop Ã¦iske
ĠInd beret
FOR M
ĠO ne
Ġdag s
ĠD ig
7 4
ord in
Ġsp are
Ġaf stand
" },"
Ġinds at
jen ing
htt p
Ġb ut
Ġlave re
smu ligheder
for me
Ġpo int
" }
Ġte am
li d
Ġnye ste
Ġd Ã¥rlig
ĠSt ore
Ġma terialer
k lasse
Ġhjemme siden
b age
vi dt
ĠS vend
Ġsk ar
Ġmu se
pr w
Ġpr w
module List
Ġmode ller
je kter
Ġannon cen
3 00
op pe
skri ver
ĠÃ¸ st
container Class
Ġlever and
Ġide e
Ã¦t ning
ale s
sens or
0000 00
le jer
ĠS im
Ġind fly
ĠB ri
Ã¤ r
Ġ5 5
ĠR Ã¸d
Ġra pport
m Ã¦ssige
scrip t
ĠA L
ĠstÃ¸ v
d skab
Ġbyg get
Ġmu ligheden
rs dag
Se rier
Ġfa ste
Ġlin k
Ġw ill
Ġk redit
Ġt us
Ġrelev ant
abili ty
sp olitik
Ġdetal jer
p ens
ĠG ennem
Ġ ner
s sen
ra m
Ġb und
han del
Ġforb rug
ent ligt
Ġp ul
Ġret tigheder
com p
Ġ15 0
Ġin fo
ĠÃ¸j ne
fe rie
Ġpart nere
ĠD ire
B S
h i
9 6
ĠbesÃ¸ gende
ant en
Ġmedarbej der
osp ital
Ġdesig net
sÃ¸ gt
som rÃ¥
ĠSt ud
Ġbe styrelse
ĠRan ders
sp ri
Ġbesk ytte
D W
p ol
ĠL ED
Ġpoten ti
Ġde ri
Ġg uld
ĠC or
sk ende
D is
ĠB au
le y
ĠI N
Ġbeske d
ĠRe j
Ġeks p
man den
ur s
Ġpla d
byg get
ĠPo ul
ĠM and
Ġsammen hÃ¦ng
ĠP i
ĠB al
ĠstÃ¦r k
ĠvÃ¦r ktÃ¸j
ĠEner gi
Ġst r
Ġkon kre
ic ap
op leve
Ġch ar
ĠD VD
Ġre gering
Ġerfar inger
Ġud by
Ġre ali
ĠTh is
Ġt yn
ĠreprÃ¦ sen
Ġpri ori
Ġdag lige
ske re
LIN E
ĠMÃ¥ ske
Ġsk il
Ġp Ã¦dagog
ma tik
Ġperi oden
Ġudt ry
........ ........
Ġforb undet
ur t
B ar
Ġforet age
Ġ4 2
Ġ5 99
Ã ³
Ġmak si
Ġte mp
Ġoverens stemmelse
ĠkÃ¦re ste
Ġs ket
yn am
or ks
Ġkun derne
istor ie
Ġpludse lig
Ġsk at
Ġla d
Ġla der
it ness
Ġpoli tisk
V ores
g ange
Ġskri dt
Ġsjov t
ine re
ĠM ac
Ġs an
ĠOn line
Ġb redt
Ġfys iske
tter atur
ati vt
ĠKomm issionen
Ġr Ã¸r
k ser
l la
vÃ¦r di
Ġal ko
oko lade
Ġomf ang
Ġaf sla
Ġtop pen
I F
Ġb ase
Ġne der
ĠC O
Ġvar en
Ġstop pe
Ġm ikro
ĠF ix
in en
Ġleve ret
lag te
sel skab
Ġr oman
ĠP oliti
Ġnog ens
s ret
T ype
st pilot
res sen
V ER
ĠVej le
ph oto
7 2
C S
ĠL ang
Ġu middel
re ak
Ġc it
Ġde c
ĠX L
Ġutro lig
ĠfÃ¦r re
ort h
sk yl
Ġmed dele
Ġto ilet
ĠlÃ¦ der
li ver
Ġomkost ninger
ĠS en
Ġf Ã¸re
âĢ ¢
i or
ĠP rin
h un
hje mme
ĠH je
ĠChri stensen
Ġakti ve
ger s
Ġstil ler
bo ut
Ġr Ã¸de
Ġt rin
fÃ¸r te
K E
Ġsimpelt hen
Ġud bud
Ġbe skrive
ser vation
ĠÃ¸ ver
Ġmyn digheder
ĠSam men
Ġanven der
ĠTil behÃ¸r
vende lse
b ol
A pp
Ġa p
Ġad skil
Ġst ress
Ġark ite
ĠB j
Ã¥ s
Ġsm uk
Ġs Ã¸de
Ġfod bold
ĠRasmus sen
Ġa u
Ġsk u
y kker
ht ml
p olitik
lej ning
ĠKomm un
Ġfor ne
Ġsu kker
S var
c ontent
et te
Ġind gÃ¥r
Ġtil kn
Ġdigit ale
Ġop dage
Ġhove det
ĠBo lig
la ge
Ġtan ker
Ġom gang
ĠB ook
Ġsel skab
Ġbet aler
Ġfor sÃ¸ger
in o
ske de
Ġby e
v ner
ĠÃ¸jebli kket
ï ½
ĠbÃ¦re dyg
Ã¦ tter
ab rik
ling s
Ġmorgen mad
ĠF l
aci tet
ar get
som me
Ġde s
ĠÃĺ ster
Ġmin i
ĠS jÃ¦lland
Ġfor dele
n s
og ne
p ut
Ġakt uelle
Ġstra ks
t v
Book ing
ĠH D
Ġme ste
ol o
f yn
yg ter
Ġleve re
re ve
ĠS P
Ġon sdag
" ]
i der
ĠÃ¸nske de
p l
8 3
ĠC V
Ġanmeldelser Vis
Se r
ĠlÃ¸ se
ĠSu ites
Ġm ulti
af Ã©
ent s
Ġsp or
Ġspille re
ĠB ank
Ġinsp ire
ĠC e
m os
ÃĨ R
ĠH j
lÃ¦g ning
ĠP ost
Ġansvar lig
9 1
ĠR us
Ġspeci fi
Ġnogens inde
Ġd ie
un k
Ġkont rolle
Ġt r
Ġver y
h op
Ġbillig ste
rik a
Ġm Ã¦ng
Ġkonsek ven
Ġelever ne
IR G
Ġkamp en
Ġvar mt
Ġfri t
mme ligheder
ro id
Ġtil skud
Ġkonkre te
7 3
ĠG ro
re gi
ĠSk ov
Ġfort sÃ¦tte
Ġvenlig st
ze r
stil linger
ĠF lere
sc he
Ġgr unde
Î ±
Ġtil lÃ¦g
O ver
Ġn ab
T i
Ġakti v
gang en
tal let
Ġnemme re
ĠOg sÃ¥
Ġfor lÃ¸b
ta in
var ing
ĠMas sage
dat o
Ġm ale
Ġl od
Ġweb sted
Ġbye r
Ġg ent
lig ste
Ġfor stÃ¥r
ur dere
ĠM iljÃ¸
Ġt uri
Ġfor handler
Me ssage
Ġp at
ĠSil van
ktivi teter
n ene
Ġgra der
for lÃ¸b
Ġmarke d
om mer
Q U
Ġu s
h av
Ġforet aget
or a
Ã¦ de
Ġsp Ã¸rge
ĠtrÃ¦ kke
rej se
Ġminim um
Ġan del
Ġh und
Ġpen is
Ġsj ove
ĠBau haus
Ġtil stand
ĠF al
Ġso ftware
f et
×Ļ ×
Ġforven tes
on i
m at
ĠRes ort
ĠSk al
ĠhÃ¸je ste
t he
8 1
ĠK j
Ġre lig
tegne lse
de rer
> <
ĠP S
Ġlu kket
ĠL Ã¸
g y
ĠAp S
sb y
Ġperson lig
st art
Ġtyde ligt
Ġï¿½ï¿½ï¿½ï¿½ ï¿½ï¿½ï¿½ï¿½
st ati
ĠJ em
Ġv enter
Ġh i
ĠÃ¥ret s
O D
Ġ0 6
Ġb om
Ġm l
st rem
ks us
ven dt
Ġs alt
Ġlang s
Ġin c
or en
la mentet
ot te
lov ens
F lags
Ġf ir
Ġd rÃ¦
Ġpo ol
al ly
script Flags
Ġm g
Ġsympt omer
ĠF yn
ĠC y
n av
marke det
ĠVe ster
Ġt lf
Ġgrund lÃ¦ggende
Ġkont or
sti der
lef oner
rej ser
ĠY ork
alen der
Ġweeken d
sh Ã¸j
A P
000000 000
Ġtil behÃ¸r
vn en
ĠE uro
Ġk rig
mel ding
ĠT ro
c ted
ĠnÃ¦rme st
je ktet
ĠK ont
Ġf isk
E J
Ġm i
Ġtilb ydes
ter s
Ġbille det
8 2
Ġty ske
stÃ¥ et
k ri
Ġleve rer
lÃ¥ s
ĠB eg
af tale
Ġeffe ktiv
ut h
e p
ĠFrank rig
la y
Ġuden for
Ġtilla dt
Ã¸n ne
sp are
×¢ ×
Ġe je
Ġfun ction
Ġkomment ar
ĠTe r
Ġu gen
Ġstig ende
Ġin vol
Ġfor d
ĠskÃ¸n ne
Ġle g
ili t
Ġski fte
Ġover hovedet
ĠPar is
ĠprÃ¦ ci
Ġkur sus
Ġlig ge
Ġri me
Ġplace ring
Ġbl Ã¸d
ĠV Ã¦re
ĠtilgÃ¦nge lige
ĠÃ¥b ner
Ġmet oder
Ġj un
Â ´
ou sel
Ġnyt tige
Ġl ook
Ġg rÃ¥
U D
c u
ket ing
la m
ĠTe kn
Ġdat o
nat ning
ti der
Ġkompeten cer
c ca
Ġk lik
Ġhav en
Ġdet s
Ġin ten
Ġkig ger
ĠÂ ©
Ġopdate ret
ĠmaskinoversÃ¦ttelser Ja
rie re
ĠH ouse
Ġ6 5
Ġpub lik
Ġ2 50
Ġ200 4
Ġland brug
g le
" ).
Ġgar an
RE G
og en
Ġindfly delse
Ġst Ã¥l
Ġvar m
Ġdan ne
ks ter
f art
Ġud styret
Ġop stÃ¥r
Ġt Ã¦
b rand
Ġb lÃ¦
ke borg
ĠAl der
st op
Ġh yl
ult ure
Ġele menter
Ġs tik
for mer
Ġneden for
Ġin trodu
car ousel
rer ne
Ġm agt
Ġ: )
Ġp apir
vej ledning
ĠÃ¥b ning
f lu
ĠSt at
Ġvi ses
Ġst offer
v Ã¦g
Ġs ing
Ġbil ligt
ĠE N
ma tisk
Ġud fÃ¸rt
__ __
IN LINE
o ter
Ã¦nd ing
hold ning
et ooth
j ord
Ġmet ode
ĠforstÃ¥ else
Ã¦n ke
7 1
li a
Ġdat oer
marke d
st ande
Ġan sat
Ġmang lende
Ġti rsdag
Ġkal des
ĠlÃ¸ ber
produ kter
en sk
ssi st
inten do
ĠM orten
Ġtekn ologi
ĠI t
Ġsk in
ti me
Ġ Ã¸l
ĠK a
VÃ¦re lse
Ro om
Ġf yr
6 3
Ġklass iske
sti ske
Ġuni versi
li de
Ġstat us
ket s
ĠE sbjerg
ĠI talien
C omp
pen ge
st in
ĠvÃ¦r k
konom i
Ġvol ds
ov re
l und
ra ger
ĠL ok
Ġbestil le
Ġin formationer
sel s
ĠR ig
Ġmob ile
H un
Ġte k
ur n
Ġprodu ktet
Ġd vs
at a
9 3
Ġm Ã¦l
ĠCop enhagen
ĠP rÃ¦
Ġ4 00
ĠM y
Ġkon stru
reg n
k u
Ny heder
Ġkal der
":[ "
Ġbr Ã¸d
ĠF ly
ab il
ph one
ĠS til
Ġun dt
m Ã¦ssigt
Ġover be
j eneste
Ġs vÃ¦re
Ġfor Ã¥r
ve ks
" )
F Ã¥
Ġ4 4
ĠK olding
ĠafhÃ¦n ger
Ġregn skab
ĠN av
Ġud for
Ġv ende
ĠFor en
alt h
g ens
ol ens
Ġfag lige
Ġtilst rÃ¦kke
EL SE
9 4
Ġne j
Ġk ampe
Ġ4 3
Ġhj ul
Ġinter view
B R
ĠTil bud
Ġbl and
ĠE R
Ġefter sp
Ġst ats
LO W
Ġsende s
te kn
Ġnatur en
Ġi gang
Ġs orte
ic o
R et
ĠL au
a uer
Ġuddanne lses
ĠFrederiks berg
201 3
Ġomfat tet
sul ent
T A
ĠS w
Ġomfat tende
Ġmind ste
Ġind holdet
ĠMet te
ss til
st Meta
stMeta Price
ni en
Ġdanske re
vÃ¦ k
k Ã¸r
Ã¦l der
s ler
Ġs w
ble mer
Ġc asino
A vail
ĠU D
spro ces
F rem
Ġmet al
ĠM ulti
Ġinteress ant
ĠNor ge
ĠK L
ĠInter net
E C
b al
r ine
D ansk
Ġsty re
Ġv ore
Ġp Ã¦n
Ġbet ingelser
ĠB Ã¸rne
Ġfor nu
c d
9 2
ĠC as
n Ã¦vn
r ent
k i
st ation
Ġ4 6
ĠRe wards
Ġ !
se arch
Ġpla t
arbej der
god a
ĠHer ning
ĠVi borg
ĠMar ie
Ã¸rgsm Ã¥let
Ġsmer te
Ġsikker heds
Ġsk rÃ¦
Ġs ad
Ġanbe fal
201 4
Ġforkla rer
Ġbe skrivelse
Ġi vÃ¦rks
LOG IN
Ġo kt
Ġgive s
ĠS ag
ĠsÃ¦r deles
Ġf ler
] .
Ġkon cent
ver ne
be stilling
it t
i ft
ĠM useum
ĠK ina
Ġvirkelig heden
H u
In fo
Ġm ent
Ġsk ader
ĠV ol
ĠÃ ¤
Ġn ov
ĠfÃ¦lles skab
under sÃ¸ge
Ġte a
p rin
Ġj Ã¦vn
Ġlandet s
k ap
Ġo ne
v Ã¦l
ob by
ĠnÃ¦vn t
dan net
Ã¦n k
ĠOp dater
it a
Ġprin ci
Ġminutter s
Ġfil men
Ġen der
Ġnatur lige
b ili
Ġva ret
Ġbal ance
Â ¥
Ã¥ rig
Ġnat ten
am ent
o uld
Ġvil d
Ġop fatte
date rer
ped ia
Ġti der
un a
Ġevent uelt
ĠC om
Ġprogra mmet
ĠV an
ĠbegrÃ¦n set
Ġbe vidst
de de
Ġc omm
Ġud givet
ĠM il
Ġk Ã¸d
Ġhel b
ĠHv il
Ġsagt ens
Ġk em
Ġk amera
Ġskyl d
ĠrÃ¥d givning
P ris
Ġv urdere
t rue
sp Ã¦r
Ġmu lig
Ġover skud
Ġre lation
Ġop ford
Ġat t
Ġsig n
Ġ0 5
Ġpen sion
sm id
in stitu
Ġsy stemet
Ġsen ge
K ey
Ġend videre
f y
Ġressour cer
ater ne
Ġl oc
Ġte gne
ĠS v
at teri
Ġh istorien
ple jer
ĠsÃ¥ danne
N e
m Ã¸de
Ġkl okken
Ġtj eneste
B yg
over natning
ier ne
ĠA m
Ġindivi du
sl Ã¥
ter ende
Ġsamarbej dsp
Ġtran s
Ġfri tids
uk kende
Ġkig get
Ġcir ka
ĠJes per
Ġvil de
B C
Ġgra vidi
ĠsÃ¸ gning
Avail ability
fun ction
6 1
Ġkli kke
Ġaf gifter
Ġst ream
ĠDen mark
ĠfÃ¸dsel sdag
me ssage
F Ã¸r
Ġdren ge
B y
Ġdem okra
ller ne
Ġsp ar
yr k
f re
Ġhur tigere
Ġri si
Ġsy v
6 2
Ġbe given
for brug
Ġtan ke
Ġyder st
Ġst ue
k j
Ġsk ue
ĠH and
Ġkon kret
Ġ200 3
Ġb ol
Ġgi ft
Ġfort Ã¦l
Ð »
ste l
ĠB orn
Ġek strem
Ġalko hol
art of
ĠM ED
ĠmÃ¸ des
Ġb rede
g yl
Ġorganis ation
osp it
p ress
Ġbidra ge
Ġbesk yttelse
Ġhe refter
F e
it or
g ro
ss on
Ġgul v
y ske
s varet
Ã¦n ds
ate s
Ġfor ordning
Ġsel skaber
vi lle
Ġf und
- /
ĠM at
ke rer
Ġ1 000
Ġovernat ninger
Ġb ack
se ende
ĠT rÃ¦
Ġbyg ning
ĠsjÃ¦l dent
hÃ¦ng igt
ĠT id
C he
melde lser
Ġd Ã¸ren
j ob
Ġk lÃ¦
Ġejendom men
Ġgeneralforsam ling
Ġannon cer
cel ine
Ġn ationale
Ġst rand
Ġudel ukkende
ĠHvor for
× ķ
Ġaf gÃ¸relse
Ġbo o
g Ã¸res
Ġunder stre
tik len
Ġhvor vidt
Ġp ause
Ġopskri fter
Ã¸rre lse
sb et
Ġbil ag
a tet
IG H
vÃ¦ gt
r t
el d
Ġl Ã¦ring
for men
ĠS n
Ġbe stilling
Ġb ibliote
m ag
y right
re f
Ġfuld stÃ¦ndig
Ġdag ligt
kt en
Ġs varede
fe rat
Ġsammenlig ne
h ent
k ode
ur l
Ġfe b
Ġsen g
ĠsÃ¦l ge
ĠSÃ¸ren sen
st rÃ¦
Ġor den
be s
Ġb oliger
p re
Ġopskri ft
', '
BOOK ING
Ġre cep
Ġgennem fÃ¸rt
ation alt
O F
skri fter
Ġudn ytte
ĠN Y
Î ¹
Ġtil svarende
Ġn a
atel lit
n inge
ĠprÃ¸ vet
nÃ¦vn te
Ġb Ã¦r
Ġforen ing
men tere
ĠkrÃ¦ ft
Ġkor te
rue r
ĠD S
Ġbekve mmeligheder
Ġvid ste
um s
Ġlov givning
Ġaf tal
ogra fi
Ã¦v net
ĠHor sens
ve lser
Ġplan ter
ĠK ap
ti dens
re et
k at
V il
Ġkv art
b Ã¥nd
av is
Ġspi ser
Ġop pe
u tere
Ġnatur ligt
Ġk u
y al
W idget
Ġken dskab
Ġsommer en
Ġbyg ninger
W e
m Ã¦nd
ĠHu sk
stalt ninger
Ġs atte
ĠD y
Ġuds alg
ĠfÃ¥ s
Ġover ord
kÃ¸b ing
Ġvil dt
Ġsh ow
Ġg yl
Ġkvalitet s
r Ã¸d
Ind lÃ¦g
Ġh o
G rid
Ġor dent
Ġpoliti et
Ġvirksomheden s
bygge lse
ĠD og
Ġch okolade
til f
Ġh igh
ĠkÃ¸b enhavn
Ġsp a
Ġl Ã¦ng
ĠfÃ¸le lse
ĠMe r
M A
ĠhÃ¸r t
ter ings
Ġs Ã¸rge
ĠansÃ¸g ning
Ġaf sl
Ġre k
st rÃ¸m
Ġs lu
op gaver
le vet
Ġve ri
ĠlÃ¦kker t
Ġ ..
ĠH o
= =
ĠsÃ¸ vn
be re
le ret
sk at
ĠV I
s al
Ġreg lerne
Ġi Phone
or y
ĠD o
Ġbegyn de
Ġ get
T E
Ġk andid
Â ®
Ġsty kker
Ġf ug
Ġkig gede
linger ne
ĠR y
ro s
Ġa bout
ski fte
Ã¸ ret
Ġtil h
Ġim Ã¸de
Ġtur en
ĠO ut
F LOW
ĠF C
Ġt ryg
ĠL og
ĠMar i
ner ne
ĠG reen
Ġne de
Ġjer n
Ġhur tige
OR D
ĠL und
Ġhel digvis
NE W
Ġen hed
ĠA ug
Ġforven ter
ĠgrÃ¦n se
t ur
li sten
ske ma
AT ION
ĠV in
Der for
ĠA k
fÃ¸r sel
Ġimp le
ĠJ ylland
g ri
Ġud landet
Ġmed vir
ĠEn d
sminister iet
ĠH Ã¥nd
Ã Ń
Ġlin ks
ĠJÃ¸rgen sen
o ret
Ġma ke
Ã¤ n
Ġtekn iske
stan den
ĠDe res
of f
ti ment
ĠMu sik
Ġf Ã¶r
Ġderi mod
lig ht
ou g
Ġud arbejdet
ak ob
ĠHe lle
Ġr ing
ĠH ave
ds jÃ¦lland
ymna si
Î ¿
Ġon dt
ĠP al
p artner
ĠnÃ¦rme ste
ĠM od
Ġm ave
Ġro om
Ġs Ã¸rger
ot ter
ĠApp le
Ġske te
Ġplan te
ĠDe m
Ġtid ligt
ĠM i
ont h
ds til
F re
Ġinte gre
Ġj ournali
gra mmer
Ġny heder
ĠK la
Ġ ?
ĠMa x
kt Ã¸jer
Ġ4 9
Ġ4 1
lle t
an aly
Ġdag ens
r ang
ĠB Ã¸ger
Ġudvik ler
ĠK ra
Ġle vende
Ġb Ã¸
Ġun ikke
ance ret
Ġkon fli
fe st
si d
che f
ĠM icrosoft
A IL
an ien
ĠT w
lÃ¦g ges
Ġved kommende
» ¿
Ġ @
of te
bu tikker
Ġp re
b t
Ġen or
Ġ Ã¥n
Ã¸je lse
Ġom givelser
ĠtrÃ¦ t
Ġg as
Ġnorm al
C on
Ġma x
Ġful de
ï »¿
k asse
Ġm Ã¦r
Ġind dra
c c
ĠÃ¥b ent
siden t
Ġfirma e
ĠC omm
Ġud bet
Ġsm il
ĠLÃ¦ der
Ġsk atter
Ġevent uelle
am s
ĠhÃ¦n der
stat us
Ġd Ã¦k
gi k
ĠBer lin
Ġren gÃ¸ring
ad resse
et h
si en
" ],"
Ġk i
w eb
b yder
certi fik
Ġvok sen
J o
h ygge
Ġfors var
um pe
Ġan ledning
Ġdej lige
form and
n um
Ġstran den
Ġeffe ktivt
Ġsamfun ds
K r
le ct
a ft
Ġefter mid
ĠundersÃ¸ge lser
× Ĳ
S te
Ġar tikler
an cen
ĠK en
kla ger
Ġkr on
ĠN ational
Ġved r
Ġbef inder
î ¥
EN S
ĠsÃ¥kal dte
ĠmÃ¸r ke
ic ielle
Ġind kvar
Ġslut ningen
a in
ti mer
ĠdÃ© t
fÃ¦l ge
Ind sendt
sm Ã¸de
Ġumiddel bart
ĠP at
lle re
Ġidee r
Ġsygdom me
Ġt Ã¸
Ġcent rale
Ġp ga
Ġplan e
ve res
ĠRe staurant
u x
ĠSil keborg
ĠB lÃ¥
Ġfirmae r
ĠM Ã¥l
ĠR Ã¥d
Ġsi te
ĠF ore
ĠFreder ik
Ġprofessione l
ĠB ud
re a
ss or
Ġh ul
Ġha vet
rat or
ĠD ie
os is
ri ft
ĠLyn g
O C
k li
Ġlager Levering
k amp
ud valg
Ġfro kost
Ġren te
ay s
ke de
Ġh id
k ro
Ġmedlem sst
Ġsam le
uler ing
f it
Ġhu se
Ġch ance
mask iner
g ul
Ï Ħ
Ġinternet tet
Ġhistor ier
ĠEurop Ã¦iske
Ġposi tiv
Ġs Ã¸d
ore fter
Ġter rasse
g as
ig ation
lÃ¦g ger
Ġder ved
us ter
ders lev
reg ler
Ġe mb
ĠLu ft
Ġbonus overnatning
se e
Ġmo ti
lys ning
B id
Ġla st
ar ter
an svar
H os
ĠKn ud
ĠL ind
S D
Ġse rie
Ġlig ner
Ġhand ling
Q ue
Ġkonst ant
om i
Ġly se
Ġadminist ration
an ke
ĠvÃ¦rdi e
p x
hedsb rev
G E
u nes
Ġsmu kt
B o
Ġadskil lige
M ange
Ġ1 20
av a
ĠTil bage
ik ken
ser va
O B
Ġin fe
ĠopmÃ¦rksom hed
Ġinstitu tioner
Ġfor Ã¥ret
Ġ4 7
ĠvÃ¦rdie r
L og
sy stemet
Ġover vÃ¥
onne ment
Ġro b
Ġtil tag
Ġl yn
ĠÃ¥rs ager
Ġhar d
ĠG am
m age
Ġstil lede
Ġp op
j u
ĠMÃ¸ ller
Ġre st
ĠReg n
ri bu
ma teriale
Ġt Ã¦tte
Ġsk oler
u me
Ġfal dt
Ġmar kant
p ng
ĠÃ¸j nene
Ġt un
sm Ã¦ssigt
Ġsk y
Ġben ytter
ĠlÃ¦ s
Ġinteresse ret
ĠA ust
Ġstil let
Ġlykke des
ci en
Ġi pad
ĠÃħ rs
ĠDavid sen
ĠkÃ¸be s
ly st
Ġ$ $
Ġforb inde
Ġindust ri
ĠN at
Ġa pr
Ġproble met
Ġsk Ã¦
m Ã¥let
Ġkonst ate
ĠA s
Ġbutik ken
(' .
ast rup
sk ade
Ġti ps
Ġhv orefter
ul ar
K om
201 2
Ġem ner
ĠBe mÃ¦rk
ud i
Ġh il
ĠhÃ¥r d
ra tioner
ĠK im
h ar
ĠSund heds
Ġda me
Ġb rev
Ġforker t
c ks
B A
Ġf i
Ġhver dage
ra d
Ġe p
ĠdÃ¸g n
ĠK omp
u res
h aven
vi e
ĠR om
U M
c ielle
Ġkon ge
OR T
Ġf oto
Ġprofessione lle
Ġregistre ret
virksom hed
danne lse
ĠNy heder
ĠMe get
Ġp an
Ġre vide
Ġud fyl
Ġ5 6
Ġs aa
ĠfÃ¸le lser
Ġhen holdsvis
Ġfrivil lige
ve rer
Ġ0 2
ĠL is
ĠtrÃ¦ ner
ĠU anset
ĠdÃ¥r ligt
ĠL ille
Ġmin ister
ĠKun st
li sh
Ġud over
ĠK at
Ġval ut
' );
ĠHove d
s sion
Ġudvalg te
Ġbesk revet
Ġan gÃ¥r
ĠSelv om
ĠmÃ¥ ler
ĠkÃ¸r sel
Ġir ri
Ġaf f
Ġ8 5
ĠM c
Bid rager
Ġn i
Ġu se
vol u
Ġkateg orien
iti es
st ret
f tede
stra tegi
sm o
Ġregistrer ing
te st
ĠG al
Ġo w
Ġeksemp ler
Ġfort alte
ĠA T
Ġm ilit
Ġc or
Ġsl Ã¥r
Kon takt
be g
e x
Ġb ange
ĠlÃ¦ st
Ġposi tive
Ġm Ã¦ngde
ĠK lima
ver den
zz a
ĠTh or
ĠH av
ĠSt k
Ġse ri
Ġkil ometer
vil kÃ¥r
c la
Dan mark
Ġting ene
Ġy de
ĠT re
S S
Ġ6 4
ĠSid st
red se
Ġgo od
ĠH igh
Ġeks is
Ġpers pe
b ri
ĠMar ia
ĠFre e
ir sdag
Ġmed ie
ful dt
Ġvej ret
Ġl Ã¦ngde
h y
Ġindt ryk
p unkt
Ġc lass
Ġhjer tet
Ġvi t
ra b
I kke
Ġa vis
Ġpas sende
ĠdrÃ¸ mme
Ġshop ping
Ġop var
Ġdre jer
Ġefter Ã¥ret
sel skabet
j ent
r g
ĠtilgÃ¦nge lig
Ġm Ã¸bler
AN CE
Ġ: -)
in dre
Ġfremme st
sb org
Ġkun den
ĠSh op
for sikring
ic a
pers oner
fte lse
Ġproces sen
Ġud fÃ¸res
Ġd ownlo
Ġbe ret
hÃ¸r ende
ĠÃħ b
ĠEng land
b Ã¸rn
comp uter
ĠM ikke
ĠSt ark
ot os
Ġorganis ationer
Ġbry llu
ĠSom mer
ES S
Ġe pub
ĠnÃ¸dven dig
ĠIn den
Ġtraditione lle
t ran
n avn
M ad
na ppen
Ġfor sÃ¸ge
Ġhe raf
Ġ5 2
b ut
T ablet
ĠA M
ĠVir ksom
ende s
ĠH otellet
G EN
Ġher re
ĠIntern ational
S y
Ġstream ing
til skud
] ;
Ġfremstil let
Ġfor Ã¦ld
Ġs il
ission ens
le mme
RI D
ĠH am
Ġreger ingen
Ġsven ske
Ġbe skriver
fi ler
Ãĺ F
Ġbegyn delsen
s or
Ġgra vid
ali ty
ma x
Ġord ren
Ġh ad
12 3
an y
sy ning
Ġk asse
ĠN yt
Ġar t
Ġkonsekven ser
ĠLi v
Ġres ul
ĠtrÃ¦ ffe
ĠE ks
ig en
Ġan y
ste ret
ĠkÃ¸ ret
Ã¸j ag
ĠK al
let ter
Ġkri tik
um p
ĠBorn holm
sub scription
s ch
Ġkon klu
m yn
Ġoff icielle
. Â«
sÃ¦t ninger
Ġcent ral
ae r
ĠMob il
Ġn Ã¸je
Ġve je
Ġsommer hus
f Ã¸j
iller Ã¸d
di e
t ry
je k
ĠF uld
kra ft
Ġinklu deret
ke ret
Ġsmer ter
as y
sion en
Ġ0 3
ĠfÃ¸r ende
PRI CE
s ung
Ġo tte
ĠP ra
C D
Ġan sigt
st ue
Ġover flade
ĠsÃ¦tte s
ĠP rÃ¸
spÃ¦r re
Ġvedlige holdelse
Ġresulta tet
Ã ¨
re servation
oner ende
hver t
Ġkal det
ag ende
de d
Ġc amping
Ġhverdag en
Ġoprinde lige
ĠA R
Ġli ke
i cia
dem okra
Ġtil t
Ġven der
ati ver
Ġtil lige
ĠreprÃ¦ sent
ĠAn tal
ĠBus iness
ĠTe lefon
z en
I s
î¥ ¤
Ġm ist
Ġop dater
Ġf red
Ġv urder
j ust
Ġf li
w ood
r alt
sk y
Ġbestemme lser
Ġb ringe
Ġap ote
ĠSt ra
ĠByg ma
ĠW orld
g res
Ġfav orit
dk lÃ¦
ĠÃ¸je blik
Ġh Ã¸
Ġf el
Ġfor klar
Ġme r
over ing
ĠGr und
H otellet
N ame
Ġhand icap
ic he
ab ri
Ġo ther
ĠMid del
m ene
Ġaf taler
as ing
Ġleve res
Ġkomb ination
Ġing re
Ġs cen
Ġbehandling en
Ġfamilie r
Ġsol gt
Ġop levet
tilf reds
Ġdetal je
Ġaf bestilling
ĠtrÃ¦ n
Ġsp Ã¸rger
b urg
S par
ĠN Ã¸r
Ġb unden
ĠR u
Ġ0 4
Ġma teri
Ġanven dt
Ġ200 2
ĠhÃ¥n den
ĠUS B
b ase
val gt
s org
Ġtil gang
Ġâ Ĥ¬
Ġrekla me
ĠI ND
": {
ure au
ski ft
ret tede
ĠJ on
ĠFragt frit
Ġs vare
Ġbid rag
Ġkateg ori
ĠH old
lle s
me ter
Ġs av
sen g
Ġover sigt
Ġog s
ĠJ akob
able d
f isk
Ġaf hÃ¦ngig
b iler
mu ligheder
ĠBl ue
Ġsport s
ket inget
Ġstar s
Ġan sig
gt ninge
ĠhÃ¥ndte re
Ġfun gere
Ġi llu
ster n
Ġforbe rede
ĠP Ãħ
T ag
Ġem ne
ĠmÃ¥ le
u la
ti get
Ġu mu
Ġst u
ste mme
gt en
i j
sikker hed
ĠkÃ¸r te
Ġski ft
ĠP lus
Ġbeslut tet
sk a
ĠNy e
Ġret ten
Ġe en
ce ller
m alt
ĠtrÃ¦ kker
Ġg alt
Ġi P
Ġstru ktur
Â ¦
" ;
Ġda mer
ali sering
op le
Ġbyg ger
. /
ru k
ĠP re
Su per
Ġch at
ĠAr k
spille re
is me
gra mmet
Ġs Ã¥r
Ġ9 9
sl en
Ġhens igt
Å ¿
Ġs Ã¸lv
ĠSi den
ro ss
Ġprodu ceret
ĠS U
Ġtil l
Ġkn Ã¦
Ġforet ages
Ġlave ste
Ġre de
Ġen ige
t og
ab en
Ġsyn tes
Ġeksk lu
Ġreg ne
ĠEle kt
ĠunderstÃ¸ tter
st ens
Ġhe ste
RU P
Ġvir kning
Mo del
Ġk artof
ĠtÃ¦n kt
vir kninger
ĠK op
som rÃ¥det
ĠA goda
Ġkolle ga
ud vik
Ã¦ ne
ĠsÃ¦l ges
Ġi talien
Ġ[ "
og a
ĠMan ager
Ġbenytte s
oc ument
ss am
b rit
D ER
ĠVi a
Ġsam tale
Ġn Ã¸
lin k
ĠLe getÃ¸j
ĠK or
ĠB Ã¥de
ĠG i
Ġra mt
lem t
Ġland s
Ġra pp
b us
Ġhy pp
Ġdeltage re
ĠIs land
Ġk yl
Ġperson ligt
d ay
ĠPa ul
Â §
Ġlu ksus
Ġda te
r Ã¸j
mÃ¦rke lses
Ġt alt
Ġplane r
N ew
Ġp c
d ress
Ġbegyn dt
Ġfor vejen
Ð º
S I
o ol
H ej
Ġst Ã¸j
al der
ĠS la
give s
Ġden gang
fik ationer
ĠM it
Ġmidt en
Ġegen skaber
Ġ6 00
l inge
ĠSy stem
Ġpro ced
sk Ã¦
se rer
ta gerne
K an
Ġcomp let
ĠIn formation
ĠP L
Ġw ell
Ġarrange menter
Ġdig ital
Ġsu pport
Sam l
Ġb atteri
vÃ¦r ker
Se le
ĠRe stauranter
ĠH ome
Ġkur ser
ĠvÃ¦sent lig
' :
ĠS us
ur tig
or is
sm Ã¥l
Ġkap acitet
Ġbe sÃ¸ger
Ġaf sted
ĠSt en
ĠSp a
' .
bru get
G ennem
h jul
Que ry
Ġud tale
Ġimp onerende
ĠHÃ¸j de
Ġg avn
Ġs ent
ĠG olf
ĠunderstÃ¸ tte
op yright
Ġhygge ligt
ĠK ur
ĠB ay
an i
bille der
Ġom stÃ¦n
agra m
IN S
Ġad fÃ¦rd
rip t
Ġr unde
Ġf Ã¦ng
ri ch
ĠIn stitut
pla de
Ġaften en
f tes
ord ningen
Ġi l
Ġopfatte lse
ĠP ol
Ġaf holdt
St k
rer ende
ĠslÃ¥ et
ĠF Ã¸l
v d
an ger
olid ay
Ġevent yr
Ġet c
ic s
Ġrisik oen
sty pe
Ġdan mark
Ġlej ligheder
Ġm al
ĠBo ot
ch n
Ġfordel t
ĠTh ai
L ER
led yr
ĠSim on
ag no
Ġm inde
Ġkap ital
Ġinstal lation
ĠChar lot
Ġlave de
b ran
Ġredu cere
li te
Ġs lan
S let
v ind
Ġb ra
ĠE F
Ġst rÃ¥
E U
Ġ9 5
Ġfyl der
Komm ende
A F
va res
ĠVi de
op per
Ġsor timent
gÃ¥r den
D i
Ġud sat
s laget
di c
s ager
sd Ã¦k
b on
Ġn ote
fi ci
arget ing
a en
Ġinde b
el sen
f ic
ĠÃ¥r ligt
ĠMa ds
p asse
at en
Ġ que
âĢ¦ ]
ĠN Ã¦st
ĠnÃ¦vn te
Ġdisk us
slut ning
G RID
Ġ3 60
Ġf iler
ssy stem
ĠSt y
Ġcomplet o
P opul
Ġselv stÃ¦n
P T
ment s
$ /
ĠN Ã¸rre
as c
Ġfran ske
ĠCar l
ĠsÃ¦d van
Ġn um
Ġy e
Ġli ter
b id
d by
ĠSund hed
ok ument
sk affe
pla ce
St andard
dst aden
ĠT om
ash ion
gi vende
ĠL ej
Ġd ol
Ġhe mme
ĠkÃ¸b et
b ringe
ï½ ¨
Ġfor Ã¥rs
w ork
O V
aler ne
Ġind rettet
t ab
ĠâĢ º
G e
se j
Co unt
] [
Ġwebshop s
ĠK ro
ĠA lex
ĠSk riv
Ġmin der
Ġ200 1
Ġkommun ens
Ġarbejds miljÃ¸
Ġle dere
Ġe vne
os of
is te
ĠSp anien
ĠI d
fice re
ĠG a
ĠO ff
brit an
D C
ĠD om
ĠÃ¥r hun
fik ation
IN TER
kost ninger
Ġak ut
d am
Ġaf spe
p lo
m ode
Ġtilla delse
Ġsy stemer
Ġan ses
le an
Ġgenere lle
ĠO s
ra ter
C lick
l Ã¸n
li ceret
ĠO fte
pp ens
A lt
N ogle
st or
ĠErhver vs
orks hop
sk on
ĠO k
Ġdyb t
ser ende
lu ft
Ġe lement
Ġtemperat ur
Ġhistor iske
ĠhÃ¦n ger
Ġn Ã¸jag
Ġre p
Ġbe folk
FORM ANCE
Ö ·
dag s
Ġend te
Ġd k
ĠB an
Ġsitu ationer
Ġklass isk
ĠWe st
sam men
Ġe book
ĠbevÃ¦ gelse
ĠG rand
f r
Ġopdate rede
late rede
ĠUniversi ty
Ġdren g
T argeting
form at
Ġmu sk
ĠB ang
Ġlave s
Ġunder vejs
fol kning
bog en
se x
Ġt rus
Ġu hel
le ase
ĠdÃ¦ kket
Ġr und
b ad
Ġt ol
ĠkÃ¸b te
Ġk og
ĠstÃ¸rre lser
ĠpÃ¥vir ker
Ġhjemme t
b aseret
Ġ5 7
kker ne
ĠS F
stru ktur
Ġg ud
Ġk ede
Ã¸r ring
loc ity
Ġsc ore
EL S
ktor en
Ġs ch
Ġsamfun det
y sk
Ġbil ligere
b ak
ĠG eneral
Ġvurde rer
ine rer
ĠE scort
beg yn
Ġop taget
OM M
stÃ¸ tte
ĠHel sing
vÃ¦ sen
ti es
ĠL ov
Ġli tteratur
Ġfri ske
ĠMo del
ve locity
Ġbidra ger
lig n
enere lt
ĠK i
KK E
Ġtra dition
Ġ5 4
ed back
var ende
st ore
ĠC am
Ġposi tion
Ġru te
ĠSi kker
Ġla vt
b all
Ġvindue r
Ġtil syn
stem te
ĠgrÃ¦n ser
ĠVel kommen
hje m
i i
S o
ĠU l
amen ities
Ġth ai
uddanne lsen
ĠE jer
ad gang
b um
ĠS lot
rÃ¸ mme
RI CS
Ġpublik um
si a
in formation
ĠInd hold
dust ri
sk revet
Ġe uro
idt h
Ġh ome
vid ste
Ġst ay
PER FORMANCE
ĠR is
201 1
ard iner
Ġpriser ne
Ã¦ d
ĠG rÃ¥
Ġt ren
Ġd ownload
ro ller
Ġkry d
le te
ĠB ygge
ig he
for slag
Ġope ration
Ġ} );
ĠE sp
Ġj agt
ĠT our
le dende
Ġsamt lige
Ġko ste
ag o
mo del
b oliger
Ġbehand les
Ġt ot
z y
Ã¦n delse
me ta
res pon
Ġv or
Ġakti vt
ĠNord jylland
i den
Ġfal de
c ker
Ã¦ mpe
MET RICS
in et
Ġbas is
Ġarbejds giver
gen nem
Ġt otal
ĠAn ti
Ġgennem gÃ¥
ĠG B
Ġklub ben
Ġche f
Ġfrem hÃ¦
Ġ5 1
ang en
Ġnatur lig
k ig
vÃ¦r ket
in stal
Ġliv s
Ġlin je
b ank
ĠðŁ Ļ
ste bro
Ġrela tivt
Ġn ational
Â« .
dan mark
w ire
as sage
Ġposi tivt
Ġde ler
ĠM Ã¸r
he re
for man
Ġud seende
ĠKon ge
Ġkan t
ĠÃ¤ r
Ġi ts
Ġbry st
for tegnelse
Ã¸ der
spri ser
Ġintern ational
Ġspecifi kke
ĠP DF
Ġtra v
Ġge vin
Ġh otellets
Ġv o
dat ter
i Ã¸r
ret ter
Ġg olf
ra di
ĠkÃ¸r t
Ġdeltage lse
Ġinvester ing
Ġpor no
Ġgra m
* !
Ġt rÃ¥
Ġwh ich
Ġprodukter ne
ĠfÃ¸de varer
ĠE vent
ĠJes us
Ġud valget
ĠS ne
) {
Ġr Ã¸
jÃ¦l p
Ġg la
Ġudford ring
Ġa ss
Ġkar riere
re bet
Ġf Ã¦lle
ĠSt ar
al p
lie r
Ġbestil ler
Ġforven te
Ġsli ppe
ĠG Ã¸r
styrelsen s
Ġo me
V S
Ġekstrem t
Ġd Ã©r
Ġstru kt
---- ----
sÃ¦ d
on de
Ġsp Ã¸rgsmÃ¥let
F lere
ĠRewards Saml
ĠFreder icia
Ġan greb
ar ia
ĠH enter
Ġpar ter
te lefon
pro g
lan de
led ningen
op ro
Ġder udover
Ġg ran
ĠkrÃ¦ fter
t ens
ĠT ri
Ġ5 9
Ġoven for
per ty
Ġk one
Î µ
ĠnÃ¸dven digvis
B ille
Ġru mme
ĠCo lle
Ġtro ede
Frem ragende
Ġkvart al
r k
A ll
Ġsek under
Ġhygge lig
ĠDat ing
ĠSvend borg
Ġban en
6 00
l len
ĠTe mp
ĠE pub
cent re
bo ks
Ġ5 8
Ġret tet
kti ske
ĠgrÃ¸n ts
ĠnÃ¥ ede
Ġb in
Ġkommun ale
Ġob lig
20 20
Ġvok ser
ĠmÃ¸ det
ĠD on
Ġaf holdes
Ġvi agra
Ġge mme
ĠPeter sen
Ġstol te
Ġdokument ation
ĠBlu etooth
k age
ĠL ove
Ġfr ont
ĠA partment
Ġkomp let
Ġc ol
Ġspille de
ĠS ig
ĠD ownload
Ġfrem over
Ġlag de
Ã¦ vne
ĠfÃ¸ les
ĠI fÃ¸lge
sk ur
Ġrespe kt
B ru
ĠG ul
ĠCV R
W INS
MET A
ĠtilfÃ¦l det
op h
SH OW
rol l
ue st
Ġmo tion
ĠStor britan
Ġv old
ĠstÃ¸ tter
Ġlu kke
Ġsam ling
ĠE jendom
ĠM Ã¦nds
at ing
Ġs olen
min dre
Ġ6 8
Ġen gel
ĠZ e
le lse
kti one
Ġop gaven
ĠG Ã¥
due lle
prÃ¸ ve
po ol
ĠKÃ¸ ge
Ġbetale s
Ġforl Ã¦nge
ce res
Ġkompeten ce
Pe r
ĠBil ag
Ġfore lÃ¸b
Ġmid dag
Ġfinansie lle
M Ã¥
Ġtekn isk
ĠBe st
4 00
ĠTru stpilot
pri ser
Ġny der
P la
tage lse
ly n
Ġdire ktiv
ĠCh r
ĠCla us
h Ã¥nd
o nes
IC ON
Ġb lack
Ġbru gen
le ss
Ġkomp on
p or
Ġfast sat
Ġsp id
Ġst ammer
Ġspur gte
s und
Ġma te
t Ã¸r
Ġvolds om
ur y
ĠC re
G en
Ġfor valt
Ġinds igt
Â ¸
ĠJ ob
Ġvi rus
holds fortegnelse
ĠI P
Ġro ligt
Ġp akken
Ġbet alt
Ġfort ry
ktion s
Ġ- -
E ÃĺF
id a
Ġprakti k
Ġpri m
se rie
tie lle
E lement
Ġh on
E K
rÃ¦ ts
ĠgÃ¦ster ne
si vt
E V
Ġe ver
Ġk age
ĠF o
Ġfrem tidige
ab a
Ġud pe
de ler
Ġ Ã¦ld
ĠN ik
S Ã¦r
Ġju rid
O G
ĠH i
Ã¸n der
ĠGe r
Ġp u
Ġvarer ne
Ġten dens
li ve
Ġbe de
Ġal so
Ġklas si
ĠS ti
Ġstig ning
Ġse rien
fla den
ater i
Ġ[ âĢ¦]
Ġk ulture
He ader
par ti
sm Ã¦ssig
va sk
V Ã¦lg
F ind
S m
Ġfore drag
Ġk ilde
Ġarbejds plads
ĠFol ketinget
ĠprÃ¦ sident
ĠC ap
ov n
af f
ĠUn g
ĠL ig
m Ã¦ssig
kti ver
Ġly set
Ġsla ppe
Ġkontra kt
an n
Ġfor sig
Ġste de
ĠMad sen
s jÃ¦lland
F oto
lsen s
Ġfrem ad
ĠC lub
ĠMidt jylland
Ġj ust
Â« ,
Ġprote in
Ġsandsyn ligvis
Ñ ĥ
Ġmed fÃ¸rer
Ġbag gr
or ds
C O
Ġlever ings
gra tion
ĠomstÃ¦n digheder
ĠÃ¥r lige
Ġf lo
Ġw i
l Ã¥r
ĠA me
ri st
u i
ĠðŁĻ Ĥ
ven lig
m it
Ġad vokat
ĠnÃ¦ st
ĠskÃ¦r m
Ġman den
Ġty sk
Ġt w
ast a
u ch
Ã¦ isk
ĠH il
om ster
SÃ¥ dan
ĠB rand
f oc
Ġmar k
Ġalminde ligt
Ġ7 2
ĠV alg
Ġste mning
Ġveri ficerede
c us
Ġf itness
ĠSy ge
h ighe
ĠAn na
Ġetable ret
Ġm ia
highe stMetaPrice
Ġtje kke
lo ck
ĠH vem
ĠnÃ¸g le
Ġkvalitet en
Ġhol dning
reg ning
vi a
na il
Ġgennemsnit lige
Ġkre ative
fÃ¸l ger
Ġh orm
ĠH y
S ta
Ġeffe ktive
ĠlÃ¦g ges
Ġaf leve
ĠLyng by
ĠChri st
ĠHer re
Ġfinansie ring
Ã¸r ste
Ġud arbej
Ġ6 6
Ġmedlem s
Ġfran sk
ĠF art
Ġbru gerne
g ent
l ene
tik a
Ġinno vation
ise ret
funktion s
fal ds
ĠÃ¦nd rer
R ad
let s
virksom heder
Ġfrem tid
ĠÃ¸j en
Ġforsk nings
styr re
sk oler
Ġhygge lige
is tiske
Ġk abel
ta ct
Ġ ????
Ġinklu derer
ĠAr t
Ġbor gerne
Ġop rettet
ĠH Ã¥r
t Ã¸j
ĠmÃ¦ng der
mÃ¦r ker
Ġ5 3
ĠtrÃ¥d lÃ¸st
ĠFÃ¸r ste
Ġud vide
la dt
Ġrevide ret
I fÃ¸lge
ĠD ame
ĠFÃ¸r st
Ġdem on
ĠP an
Ġsti ger
Ġda y
ĠMa j
ce rede
vis ninger
ĠL av
Ġlang somt
ĠSt ock
ĠNÃ¦st ved
ke y
Ġbetal ings
u te
va ske
p at
fu me
Ġop krÃ¦
sy ne
Ġen tre
ĠSt reet
G r
Ġgod kendelse
o pe
Ġretur n
Ġle de
Ġs ofa
sp or
Ġf ryg
Ġsl og
Ġr Ã¸g
Ġhol des
Ġforvent ninger
Ġs lette
f ind
":" ","
Ġme ster
st ad
ĠP R
Ġru mmer
ent en
ĠgrÃ¦ s
ĠP rem
ĠD it
Ġde sto
ĠP ower
ĠGu cca
p akke
ĠM ay
Ġy delser
fe jl
Ġsy mb
ĠV a
ud gifter
Ġungdom s
Ġun ik
ban en
EM AIL
V el
vi ses
ĠÃ¥rs ag
Ġpla st
ĠO b
Ġsamarbej det
O ut
Ġi mm
Ġmedarbej derne
fe kt
Ġbe handler
Ġwe re
Ġkommun al
Ġg al
ĠD M
ĠtÃ¸r re
Ġar tiklen
Ġhove ds
Ġge byr
ĠN avn
Ġat mos
peri oden
ĠLok al
Ġâ Ĩ
leg net
Ġe d
a ktive
heden s
Ġbehand let
âĢĻ ,
Ġs lÃ¦
ĠG re
umb nail
ĠmÃ¸ dt
ĠlÃ¸ fte
Ġ6 7
ĠF la
Ġj Query
ĠRad io
D ownload
tter ing
ĠVer den
Grid Widget
b it
ĠD r
Ġg reen
p ren
Ġindeb Ã¦rer
of ix
V ej
Ġk erne
rÃ¸ rer
med dele
' ;
set Targeting
Ġï¿½ï¿½ï¿½ï¿½ ï¿½
ĠVil la
Ġmen te
Ġindstil linger
ĠMar k
ĠpÃ¦n t
Ġop t
Ġp lejer
Ġfor holde
ord ing
Ġgravidi tet
ĠforÃ¦ld rene
Ġg reat
Ġdef ini
Ġxx x
ie re
ĠAust ra
f amilie
ĠB aby
pen sion
ĠÃ¸ ger
ĠA N
Ġhol det
Ġarbej d
Ġover ensk
ĠA D
lÃ¦g gelse
te gn
um per
ĠStorbritan nien
Ġryg gen
Ġforplig te
Ġb ringer
ie w
Ġly tte
ml Ã¦n
ter ier
Ġkm Hoteller
at o
Ġafspe j
Ġtj ener
im ages
Ġprodu center
Ġliv lige
Ġfe r
Ġundervis ningen
Ġre vision
Ġle getÃ¸j
and s
w a
pres sion
ĠAnd roid
âĢĻ .
skabe lige
room s
ĠvÃ¦sent ligt
h or
A K
ĠvÃ¦r ktÃ¸jer
ĠP or
st on
G od
ken der
Ġstra teg
Ġb ist
ĠhÃ¥r de
Ġdoku menter
Ġindivi duelle
Ġkommuner ne
sti c
Q u
201 0
Ġm ap
far vede
Ġs rc
d isk
Ġkunde service
Ġs yg
Ġf lad
Ġp yn
sbe handling
Ġh om
Ġregi oner
ĠC H
ĠdÃ¸ ds
z in
Ġk ni
Ġradi o
kom p
reak fast
Ġud stil
Ġdags orden
Ġvid under
Ġhalv delen
ĠAug ust
ĠBrÃ¸n dby
in te
Ġd on
ra tive
Ġmange l
ĠHer fra
Ġbeslut ninger
ĠÃ¦nd res
par k
sty kke
ĠM el
in fo
Î ½
ĠM otor
ner ing
C om
ĠN ed
ok sen
ĠHe j
AS S
ĠN orth
Ġele v
ĠvÃ¦r t
Ġfjer de
I P
Ġuden landske
ĠO lsen
ine rede
ĠR os
b as
ĠBar n
dien ser
ar tikler
Ġforan staltninger
org mester
Ġf ing
ĠN ike
Ġdyg tige
Ġf lu
Ġfor fat
sk ode
produ ktion
Ġb akter
Ġg ruppen
Ġop trÃ¦
Ġven til
im age
b und
Ġc enter
get s
ĠT ur
Ġme kan
Ġsk ib
Ġgene ration
L i
somrÃ¥ der
ac he
forman ce
Ġb lade
ĠS Ã¸g
Ġeksper ter
ĠOr d
ĠSp Ã¸rgsmÃ¥l
us h
Ġet abler
Ġs mar
ra ft
Ġ× Ĳ
w i
Ġm aven
Ġp rem
ĠA ma
N o
Ġsna kke
Ġkraf tig
Ġbehand le
Ġfri hed
Ġprim Ã¦re
ĠÃ¥r ene
Ġga ver
sti den
S F
Ġf ugle
Ġkur s
ser t
je g
Ġm und
c an
land sk
lej lighed
b h
ff en
Ġbe spare
Ġkont ant
ĠKri stian
Ġinte resser
ĠbeskÃ¦ftige lse
Ġbe rÃ¸r
re ret
ĠO M
en g
Ġud dannet
Ġvirksom heds
V Ã¦r
z on
Ġuddanne lser
Ġd rÃ¸m
ĠskÃ¸n t
Partner Room
PartnerRoom GridWidget
AR K
Pri celine
B rug
Ġnor male
b ens
ĠpÃ¥ rÃ¸rende
sk ar
Ġf ig
L u
sk ont
ĠFe rie
red ning
Ġfan ta
Ġfor inden
Ġfores lÃ¥
ĠtÃ¦n kte
dk Ã¸b
ha ver
opleve lse
Ġte en
Ġf ans
Ġp al
Ġfal det
Ġf rie
sÃ¦d van
ĠP ub
ade m
St ore
oler ing
N et
Ġu g
Ġu tal
Ġaccep terer
ĠnÃ¥ et
hol dende
ĠT ryk
h istor
AR T
Ġb la
las sic
Ñ ı
m ulti
cd n
ĠL et
ĠPro fe
Ġ6 9
ĠÃ¸ver ste
ant s
Ġord in
ac c
ĠhÃ¥ ret
st ar
ĠRÃ¥ dets
ĠI S
Ġk var
Ġt abe
Ġf elt
Ġkla ge
Ġbe folkning
n sker
br Ã¸d
ĠDan ish
Ġsig t
Ï ĥ
ste s
skra ft
pro jekt
h ouse
8 00
Ġforret ninger
Ñ ĭ
st ran
b itz
ĠS of
"} },"
Ã¥r n
skri v
ve ri
ĠbrÃ¦n de
ĠInd holdsfortegnelse
ĠpÃ¥vir ke
ĠK Ã¸re
komme lse
ĠA lu
H OL
ĠvÃ¦l d
men teret
S kal
bag s
Ġc ont
P a
ĠB re
V ar
Ġanbefal inger
Ġfa ktorer
semp el
ĠindgÃ¥ et
E k
ĠdÃ¥r lige
ĠS var
ot wire
stÃ¸ v
ĠF ire
ĠdÃ¦ kke
Ġ7 9
f an
en te
d ne
ĠkÃ¸kken et
ud s
Ġretning slinjer
ra k
cess or
Ġhu sker
Ġs unde
ĠT eg
Ġdesig ner
(' #
Ġneds at
ber ne
Ġ6 3
ĠN ic
bo ard
Ġb jerg
as on
ĠGo dt
Ġa ssist
ĠVi den
Ġt or
Ġvedt aget
Ġs ens
ĠP RO
L C
ĠlÃ¦ gen
am ily
Nyheder Tilbud
Ġh Ã¦r
pro gram
Ġop stil
Ġdri ve
ra ge
ne w
j Ã¦
Ġb ane
Ġan mod
Ġtil lid
je re
ĠG ent
Ġaftal en
Ġoply ser
m idt
one ret
Ġhe llere
si tet
stil bud
ĠIn de
ri enter
Ġ8 6
Ġp iller
olog y
Ġj ag
K ri
Ġbeslut tede
Ġopbe varing
Ġte mmelig
ĠSe p
Ġk vi
sty ring
Ġred skaber
Ġh Ã¦k
< /
Ġinde holde
ĠDat o
Ġud sk
kom ne
ĠSp ar
pla der
Ġbland ing
ĠF Ã¦r
M a
ĠF ag
Ġkj ole
giv ningen
Ġ Ã¸re
Ġind retning
Ġhjer ne
r l
che s
Ġorigin ale
Ġaf gift
kal d
j et
ĠHelsing Ã¸r
Ġd ynam
n ie
Ġfores lÃ¥r
en a
Ġtil hÃ¸rende
Ġ19 99
ug h
dt ast
Ġoffentlig gjort
la tioner
feren cer
peri ode
ri a
ĠlÃ¦ ger
f oto
Ġbet inge
Ġpe ber
ĠSta tion
Ġbet ragt
Ġst ation
Ġ ult
Standard vÃ¦relse
r te
ra el
ĠTe am
ĠM ont
Ġbe vare
i as
Ã¼ r
ĠU p
Ġtil stede
Ġtus ind
antas tisk
Ġforh ind
li st
ad ing
sÃ¦t ningen
ĠHe le
o be
ĠB ur
H us
L P
ĠG rÃ¦
Ġa spe
Ġan givet
L ED
Ġp unkter
li ster
Ġg li
ĠDe refter
Ġoverord nede
spro g
Ġsn ak
Ġp orn
r ens
Sh ow
Ġï¿½ï¿½ï¿½ï¿½ ï¿½ï¿½
spro gram
Ġperson alet
Dis play
or ge
ĠIn di
Ġang st
ĠAut o
by rer
B l
ĠC amp
ĠJ ap
ĠS Ã¦de
Ġli der
st Price
Ġen ig
fÃ¦r ds
Ġgri ll
Ġbereg net
ast ro
Ġan svaret
Ġsvar ende
C K
ĠvÃ¥ ben
Ġgul vet
tal te
Ġtri v
Ì Ĭ
Ġj akke
Ġaktie r
Ġmilli arder
Ġse par
Ġsitu ationen
Ġ8 9
Ġny lig
ourn al
ge j
ĠFart pilot
Ġkolle ger
ĠBil lig
Ġk ines
c tive
n as
ĠInd ledning
D ire
h et
Ġkap itel
ĠC asino
ĠS he
L ad
Ġmask ine
Ġh ospit
Ġ ulti
ĠA mager
Ġma den
t ten
C ar
Ġengel ske
Ġ6 2
ĠWh ite
Ġover leve
ĠK ors
' )
i an
ig tig
ok us
pe re
ĠHol stebro
Ġst ole
Ġinspire ret
Ã¦ sterne
ĠprÃ¦ m
man ent
Ġforhand lere
Ġforh indre
Ġfly gtninge
ĠH elt
V I
ly kke
d ar
U p
Â ½
ĠI D
Ġbl Ã¸de
a kers
Ġfornu f
Ġl ar
Ġt u
Ġmarkeds fÃ¸ring
rid ge
od ge
Ġbor det
ĠB are
ame ter
Ġfu gt
re rer
Ġutro ligt
ĠHol bÃ¦k
Ġgod kende
Ġoven stÃ¥ende
Ġk ode
Ġsl utter
Ġher til
Ġ8 00
F il
ĠhÃ¥ b
ĠmÃ¥l rettet
Ġthe re
Ġsoci alt
ag ue
on ym
Ġbe svÃ¦r
Ġb ind
k ir
B Ã¸rn
INTER RUP
Ġby de
mo der
ĠHje mme
ĠX box
INTERRUP TER
ob il
Ġaf delinger
Ġeng age
ĠM og
l Ã¦n
s af
ĠlÃ¦re re
Ġover alt
si tes
ĠK lub
Ġsom e
Ġhe re
ven dig
Ġmilli on
Ġfort ol
Ġeks peri
Ġti tel
ĠB ill
Be mÃ¦rk
Ġcent ralt
ĠKar en
ygdom me
k las
Ġbo ede
ĠN em
T ru
Ġind be
Ġma y
le e
ĠtÃ¦n der
Ġtid lig
ĠF un
Ġan t
Ġstjer ne
ĠT al
S kre
Ġrabat ter
produ ct
Ġforbru ger
sÃ¸g ning
K lik
ruk ne
foc enter
Ġr art
Ġm atch
Ġr ene
Ġ9 8
Ġtil rette
ĠV M
bet al
funktions rat
pro ces
Ġopvar mning
Ġfe de
Ġru lle
Ġtekn olog
mm ende
Ġlu ften
ru mmet
Ġfor skere
Ġbe stemte
minist ration
ed ia
ĠM ens
ĠhÃ¸j st
ĠRus land
st ring
Ġrecep tion
Ġfors in
î ģ
ron ik
Ġs old
Ġind komst
skra v
Ġve gne
Ġkri se
Ġ18 0
Ġleverand Ã¸rer
ud lejning
ĠtrÃ¦ nings
af in
Ġstyr ker
Ġind byg
Ġopfyl der
p ul
ĠSc an
Ġ \
h ov
Ġud kig
la dende
sist ent
Ġforen ingen
sti ge
Ġgang en
Ġm dr
ĠB landt
Ġby tte
ĠMand ag
au g
Ã¸rg sel
Ġte le
H ED
Ġdan ner
Ġbed Ã¸
give re
rag te
Ġw ork
Ġp kt
fÃ¸re lse
ad o
ĠN a
ĠO rigin
j an
gel ygter
ĠHe refter
Ġland sby
ĠMe llem
Ġhal vt
Ġalvor lige
ste rer
Skre vet
Ã¸n t
it ch
Ġtry kke
ĠS yn
ĠRo yal
Ġh Ã¦nge
ĠT an
Ġf rÃ¸
N OW
Ġny s
sh ip
Sele ction
Ġerstat ning
Ġsn are
ĠgrÃ¸nts ager
Ġu sÃ¦dvan
ange re
F amilie
ĠC at
ĠOr gan
Ġh Ã¦l
e lle
ĠP syk
Ġform entlig
Ġder fra
Ġube h
Ġvurde res
sk op
besk yttelse
ion s
ak tionen
lÃ¸ g
D anske
ĠMet al
ron ic
Ġfla ske
Ġmuligheder ne
ĠDat a
I mage
Ã¦g ler
ĠE L
45 6
vÃ¦ ge
for valt
Ġfors ende
Ġn on
mÃ¦rkelses certifik
res ulta
Ġsu ch
ĠPla y
l lig
Par lamentet
Ġbook ing
Ġv undet
Ġbe vil
Ġele g
be styrelsen
Ġsej r
mo dt
H Ã¸j
N A
tt o
Ġrige ligt
pol ling
Ġrela tioner
sp lit
Ġet hvert
Ġfyl de
H ol
k valitet
ĠnÃ¦ v
Ġbet yd
Ġdri v
L a
ce ring
Ġprodu ct
G B
il s
Ġsm Ã¸r
ĠG lo
Ġg um
Ġon ly
p ligt
w p
b re
Ġfly tter
S id
D isse
si ze
ven tion
Ġbille d
ĠBru ger
des ign
Ġsk ub
bru ger
ĠEk stra
ine res
ĠGud s
E B
Ġuddanne lsen
ĠSo ci
Ġbille tter
M u
Ġstop per
ri ve
ĠLe veret
Ġopfyl de
Ġdelt og
Ġad sk
Ġaf hent
Ġw ho
Ġmods Ã¦tning
art nere
h yd
Ġg ry
Ġdi agno
Ġser vi
co unt
med ia
Ġf abrik
Ġres pon
Me llem
Ġforh Ã¥nd
ĠL ine
Ġn ar
Ġru ss
ĠW ar
Ġeks terne
ĠE M
ĠLuft havn
Ġsv Ã¸mme
p ning
ĠT Ã¥
Ġse ktor
kt a
ĠprÃ¦ci st
Ġthe ir
Ġin der
Ġud l
ĠG uld
Ġs olid
Ġende lige
gi ge
le getÃ¸j
k ningen
ĠPri vat
ge d
ĠR ob
ti et
ot a
under visning
Ġair condition
ĠEU R
or gen
ner s
Ġrelig i
institu tioner
Ï ģ
ĠJa Nej
Ġforskel lig
ĠH illerÃ¸d
ER S
a ce
ĠM Ã¦nd
Ġter ror
ĠO pe
ape ut
t ok
ĠG ri
ĠÃ¦ld ste
it ar
Ã¦n dene
ĠnÃ¦ ppe
Ġs oli
stjer nede
Ġsyge plejer
u lation
ov o
Ġ} ,
Ġbi virkninger
ĠRÃ¥ det
spille t
Ġinve stere
Ġind blik
Ġtjene ster
sy stemer
lowe stPrice
ĠErhver v
Ġdi men
IndlÃ¦g af
smid ler
E l
ĠSm art
room Selection
Rooms To
b lad
ru der
op dater
sk ning
ĠS M
ĠtrÃ¦ der
Ġk alender
alle rup
Ġsamarbej der
Ġder til
ateg ori
(" #
tic s
Ġe mail
Go dt
R uder
ĠSla gelse
Ex pedia
ĠE ffe
Ġalvor ligt
Ġre par
An dre
it co
on der
Ġn ice
S M
ĠIn st
ĠK ing
Ġv on
Ġko ord
Ġgennem fÃ¸res
lu g
lo ud
Ġvin du
ĠgÃ¦ st
T X
Ġplad ser
ĠSte en
Ġthe y
I SK
Ġmed fÃ¸re
Ġproces ser
Ġsik ret
ail and
Popul Ã¦re
stil lende
cel ona
ĠBr un
ĠF N
Ġperi oder
Ġmin ut
ult s
Ġhid til
ĠD am
up lo
Ġover gang
F ar
Ġe ssen
ĠOver sigt
ach el
klÃ¦ dning
Ġaf fald
c ontrol
ren ge
R ej
ĠâĨ Ĵ
Ġinvester inger
rop per
ĠDig ital
st rÃ¥
Ġf ange
Ġmod stand
Ġkol de
iner ende
app ar
c le
Ġtelefon en
ĠS ur
di d
Ġg ule
se res
w in
Ġ8 7
ĠAn aly
Ġhen vende
Ġunder holdning
Ġp t
ad y
Ġkal de
par ken
Ġb ragt
ĠÂ «
ĠGrÃ¸n land
ĠRo om
bar hed
te lefoner
ĠD ine
ĠSt ort
la ger
ĠH as
Ġreser vere
op Ã¦l
Ġche ck
ĠPro jekt
Ġenor mt
In ter
ĠC al
me de
ĠÃ¸jebli kke
Ġundervis nings
ĠS Ã¦t
Ġc afÃ©
Ġpe ger
vi der
se m
Ġmu si
Ġejendom me
Ġf j
stru kt
ĠmÃ¥ne den
Ġsove vÃ¦relse
cy kel
ĠkÃ¸le skab
Ġan give
Ġ6 1
b k
t in
jene ster
En abled
Ġlok alt
ĠÃ¥bning stider
posi tion
Ġinno va
b ladet
Ġpsyk isk
ĠPar kering
Ġlige sÃ¥
ĠFe r
Ġsli pper
Ġen kle
rem se
Ġsk a
Ġb Ã¦rer
Ġtimer s
Ġy delse
Fa cebook
S L
Ġop fÃ¸rt
Ġbr un
Ġo rien
ĠUd vikling
Ġud stilling
dig heden
te m
ĠCol or
ĠN Ã¦r
ĠD AN
Ġgrund igt
Ġ ger
V al
ue s
U B
om at
Ġch ancer
pro blemer
Ġs varet
Ġop holds
D in
lik ationer
c l
Ġmask iner
afin il
ĠE g
f ru
mismatch Message
Ġkon ver
ro und
ĠFor sikring
Ġnye re
ĠSk y
ĠskÃ¦r men
Ġan sÃ¦tte
ĠJ ava
Ġyn gre
Ġ1 01
red de
O f
IB EX
je ct
ĠB L
îģ µ
stem ning
l unde
Ġt unge
Ġal dre
ĠtrÃ¦ e
b ra
k un
k ing
Ġfly ttet
Ġh enter
Ġm Ã¸dte
Ġst abil
Ġry ger
Ġ7 7
ent al
Ġul ov
Ġud fÃ¸rer
Ġfirma et
um ini
ĠCan ada
I I
Ġe re
Ġf inger
Ġkontrolle re
Ġumu ligt
Ġly kkes
ĠS Ã¦r
Ġhel p
vi ge
kl Ã¦ring
row n
Ġbry ster
Ġvil la
î¥¤ î¥¤
ent ry
rÃ¸m te
ĠÃ¸nske t
Ġorigin al
Ġaf gÃ¸re
ĠG ran
al and
L Ã¥s
ĠVar me
Ġtil trÃ¦
Ġer o
Ġprinci pper
f Ã¦re
Ġsp arer
ta bel
Ġliv sstil
Ã¦tte s
p ot
Ġpoliti kere
far ve
Ġmu skel
ĠI r
ĠSk ive
Ġâ ľ
ĠMas ter
ĠSÃ¦de varme
Ġspe cielle
Ġth an
I A
yt h
Ġforbe hold
kti e
Ġkry ds
Ġh r
Ġstati stik
d Ã¦k
Ġval get
ĠVen stre
Ġplan lagt
prÃ¦ sent
Ġ certi
ve ster
Ġt rÃ¸
ove mber
Ġkor tere
pe s
Ġeftermid dag
syne ladende
Ġinden dÃ¸rs
Ġstil linger
Ġfort alt
al jer
g av
hol t
cent ret
ĠiP ad
od i
ha vet
Ġkateg orier
Ġd Ã¸re
C opyright
200 9
Ġk ok
Ġsamarbejdsp artner
ander borg
d omm
a ktiviteter
Ġse e
ing ton
Ġser ver
ĠN intendo
Ġru mmet
del s
ĠY der
Ud givet
Ġdri ver
log o
ane rne
lÃ¦ s
k g
Ġsk ud
le delse
B ed
Ġinter ne
F ol
i ma
Ġvi ew
a kt
ĠvÃ¦r ste
C an
lo se
u ge
Ġfy si
Ġ1 10
i mp
om a
skabet s
ro ner
st ud
ĠJ ul
b ie
T Y
p iller
ĠNor dsjÃ¦lland
Ġmi les
Ġan kom
Ġtekn ik
+ =
IT Y
ĠvÃ¦relse t
Ġfe stival
lut en
yde lser
Ġnys ger
krÃ¦ ft
ĠP as
k assen
Ġfri s
Ġreser ve
Ġk yst
ĠtrÃ¦e r
mer ne
ry d
Ġbehage ligt
ra p
Ġge ar
ĠfÃ¸l te
Ġfort satte
Ġre elt
ĠKomm unes
Ð ²
ĠDer med
Ġl ine
Ġab onnement
menter ing
ĠZ oom
ĠB on
ule ret
Ġex pe
Ġoply st
ĠWil li
Ġu re
ul stil
P H
Ġ9 2
ĠU ds
ĠRo sen
w ard
Ġc d
Ġbille derne
Ġinte llig
L IG
Ġ7 4
le dere
ĠAl tern
ĠHar ry
ĠJ uni
Ġom sorg
ĠSpe ci
Ġforet rÃ¦kker
ĠS et
Ġoverra ske
ĠplanlÃ¦g ning
Ġovernat nings
ĠF r
at in
f ore
ra a
Ġl Ã¦rt
p unkter
fi eld
Ġplat form
Ġbe gej
Ġ9 6
ĠB Ã¸r
ĠS ven
ab lere
ĠG yl
L ING
Ġt ure
Ġv agt
Op daterer
ma tiske
c over
ve jer
ĠP ati
ĠÃ¸ velser
se le
ĠL ys
i ra
f ir
la vet
ĠvÃ¦sent lige
ĠA P
skin en
Ġafslut tet
ĠB ent
dsp unkt
fun det
last ning
ĠB M
ser en
Ġkir ken
rin ges
Ġop lagt
Ġdyg tig
m ine
ĠD ub
c ast
Ġdan skerne
met oder
Ġal deren
Ġf are
ĠA g
Ġpatient en
":{ },"
Ġprofe ssor
l ok
Ġelektron isk
Ġmed mindre
Ġru st
Ġbu kser
Ġj ub
m ende
ret ningen
Ġty kke
Ġbe rÃ¸mte
Ãħ R
sm and
Ġz oom
hje l
Ġvinter en
Ġbek Ã¦mpe
min al
M L
ent ar
se rier
Ġvide oer
Ġsl ot
Ġra t
ĠK as
indt rÃ¦k
ret nings
H ver
Ġkun net
Ġsmar te
Ġ$ (
Ġan mel
, ,
Ġem net
Ġkv ad
T I
stjer net
ĠS ing
s tig
! âĢĿ
Ġkol dt
sk rig
kra v
re der
yg te
var i
ĠSt Ã¸v
Ġb ur
l on
ĠH vide
ĠÃĺ konomi
Ġyn d
ĠB ran
Ġforn Ã¸jelse
' t
spro du
Ġb ody
Ġstat en
Ġtal te
Ġare al
Ġsc an
ĠgrÃ¸n t
lit bag
Ġs mager
ĠF eb
Ġud sende
dsp unktet
Ġsk olens
In den
Ġdel tagerne
ĠU N
Ġud leve
Ġl ance
ra li
ĠP leje
Ġbeg ra
ol land
Ġglob ale
Ġ ï¿½ï¿½ï¿½
ta lere
ĠOf fice
ad d
ĠSt r
Ġsk affe
Ġsp ons
gt h
Ġfag lig
Ġ7 6
Ġt abel
× ĺ
Ġk old
vi tet
Ġe vner
Ġdu ft
op hold
U ND
ĠH ER
de f
Ġsam ler
ĠBe stil
ĠK ON
B ill
Ġud ste
ĠSÃ¸nder borg
Ġst rÃ¸
p ost
ĠSer vo
ĠK valitet
gu ide
Ġarkite kt
Ġtriv sel
Ġbegiven heder
ĠundersÃ¸ge lsen
j ener
i mer
Ġfly ve
Ġsi ges
dire ktÃ¸r
Ġb ab
ĠprÃ¦ get
ĠD yr
Ġbe en
ĠSt andard
o vet
ac ks
Ġtilla der
ĠT R
ok en
ĠðŁ ĺ
Ð ¼
Ġhove dst
a ard
c ti
Ġselv stÃ¦ndig
ret ten
unde service
Ġamerik ansk
Ã¦n kning
Ġstra ffe
Ġnet shop
Ġkli ppe
ĠI KKE
P rin
Ġ7 8
Ġhjemme sider
Ġbarnet s
sc enter
Ġk atte
B et
Ġb opÃ¦l
ĠS un
ĠbeskÃ¦ f
Ġforkla re
Ġor det
Ġkri st
am i
ĠM ang
vis ningen
Ã¦g te
Ġko ge
Ġte ori
grÃ¦n set
litbag sÃ¦de
Ã¸d ning
Ġamb i
ĠF i
ĠsÃ¦ de
pri sen
\/ \/
Ġweeken den
Ġfors v
mer ter
ĠPrÃ¸ v
Ġbage fter
ĠCh i
plan en
ĠDan iel
ĠUd over
ĠlÃ¦ge midler
ĠBook ing
Ġbe klager
tig heden
Ġm ister
Ġsk ru
Ġs un
Ġnor ske
Ġop stÃ¥
Ġste m
Ġe mp
pe de
fe rien
ĠB jer
ĠD rag
ug ge
Ġsing le
ĠLou is
om men
Ġ8 8
qu i
ĠRes ulta
use et
Ġhum Ã¸r
Ġhun drede
Ġhj Ã¸rne
te x
Ġar m
t or
D A
Ġm ur
undersÃ¸ge lse
ys ning
Ġdet ail
by en
ning slinjer
gre bet
Ġlo ven
Ġbestil lingen
control s
rienter ing
ĠvÃ¦r ker
Ġxxxx xxxx
Ġg ener
Ġru t
Ġs ange
am ling
ĠB ry
Ġaft alt
foren inger
p ine
Ġpe ople
T a
ĠÃĨ nd
ive au
ĠstÃ¥ et
marke der
ci tet
Ġshop s
ĠGro up
Ġarbejds pladser
ĠLou ise
Ġg l
Ġ8 3
al o
Ġe lse
ĠB R
Ġ rÃ¦
ĠÃ¥rhun drede
ĠCent ral
ol in
Ġlo ft
Ġrime lig
ste kn
ĠForen ing
Ġferie r
ar n
ĠT orsdag
b in
k ni
agn os
ĠM ath
Ġnyt Ã¥r
ĠRo ad
Ġte ater
Ġte kster
ch i
Ġbar ne
ĠsÃ¸ ster
vir kning
Ġfrem gang
ĠSp ille
ler ende
Ġprin t
Ġtil passe
Ġind b
ĠTe st
Ġhvor i
H D
kor tet
ĠAf deling
Ġpopul Ã¦r
Ġhand linger
Ġa ppe
Ġt ap
at her
ed c
Ġtilf redse
Ġintern ationalt
Ġinstitu tion
F ran
Ġter m
Ġind hen
Ġneg ative
ard in
sp an
ske lle
Ġbefolk ningen
od bold
ER ING
Ã¸ konom
Ġhen vendelse
ĠP l
% .
Sc ript
ote c
ak a
sy re
ĠR ich
urop a
Ġp ath
t ure
IT E
ol ine
be de
Ġfjer ner
ĠgÃ¥r d
Ġvis ion
Ġh ouse
ĠH istor
tage s
sm Ã¥
ĠÃ¸k ologisk
ĠB ibliote
Ġhas tighed
ĠMob ile
o ft
Ġs ov
ction s
Ġidenti tet
ĠFre dag
F F
volu tion
Ġvil je
Ġperspe ktiv
ĠdÃ¸g net
ĠHu set
ĠM enne
ĠH P
L Ã¦
ĠEller s
Ġtil melde
ĠKomm issionens
Ġarbej des
Ã¸ ge
ĠopnÃ¥ et
Ġb atter
Ġbille t
Ġiniti ativ
B u
Ġingre dienser
Ġlu kkede
Ġbolig en
gra d
ĠRo ck
Ãĺ B
ĠF ir
ĠHol m
ron ning
vÃ¦r dighed
Ġdre je
An tal
Ġd osis
Ġklo gere
ĠOn sdag
ker en
9 00
ĠG l
Ġkomm uni
ĠMin i
Ã¦ ster
f iske
Ġï¿½ï¿½ï¿½ï¿½ ï¿½ï¿½ï¿½
ĠBar celona
stra tion
ret ninger
Ġreser vation
Ġkont in
C U
ĠT irsdag
ĠFa ktisk
L ige
ĠmiljÃ¸ et
Ġgr unden
rer ing
Ġtil syneladende
sel v
G F
ĠWi i
C Y
ĠKri st
yrk iet
Po sted
Ġk nappen
? "
Ġdi abe
Ġle ds
v ing
Ġsty ring
R ed
m as
Af delinger
ĠIn te
ĠL im
Ġkn ow
c ing
T ran
cre me
ch t
ĠF R
Ã¥ et
stati c
Ġvirksomheder ne
Ġw hen
ter api
mer ende
minister iet
j yske
ali e
Ġj ap
M app
Ser vice
Ġstol t
Ġfor sik
Ġforskel ligt
vÃ¦ kst
jo i
Ġd rin
I ES
Ġplad sen
Ġselskabet s
Ġbetrag tes
ĠL ight
tione lle
il Ã¦
v urdering
Ġo li
Ġdan sker
Ġop d
Ġe la
Ġg aden
con fig
Ġp in
ĠF Ã¸de
ĠA U
af delingen
ĠmÃ¦l k
ET S
kont o
Ġh et
Ġher med
Ġh im
Ġtab t
s w
as sistent
Ġst uen
Ġbe der
I joi
abili tet
Ġreg ner
ĠC d
amp en
ĠAl bert
Ġve legnet
Ġlok aler
ĠH Ã¸r
ĠS we
ĠTran sport
pub lik
ĠsÃ¥kal dt
Ġski fter
ti ger
Ġ9 7
Ġm unden
le ks
ogra fe
Ġkon sulent
Ġopford rer
Ġprodu cerer
Ġkil der
Ġop lÃ¦g
de lige
ĠD EN
ĠBor ger
dan sk
ĠFrederiks havn
Ġnord iske
sb or
Â ·
Ġneden stÃ¥ende
Ġp sy
Ġbrand s
Ġk ed
ĠN i
dre j
ĠKir sten
Ġbel Ã¦g
c ens
in n
fice ring
Ġf igur
ĠJu li
bran chen
Spe jle
Ġe v
ĠM ine
at orer
Ġp ande
Ġnab o
Ġaft ens
Ġblo dt
ul Ã¦re
Ġdan s
Ġm ot
E W
Ġl over
Selv om
' '
Ġs vi
ĠL ed
H el
Ġvok se
ĠmÃ¸r k
J ob
Ġbus iness
Ġprodu ktionen
L AR
Ġs undt
af deling
Ġu til
m Ã¸n
firma et
Ġre view
Ġaf vik
Ñ Į
ĠCh amp
ĠRej se
st r
ĠA ller
Ġinstal leret
Ġunderstre ger
Ġdy be
gi e
Ġw orkshop
Ġfor k
c or
ig a
Ġsy ste
o si
ator iske
! .
Ġde kor
Ġbe stÃ¥ende
ser ingen
Ġforven tede
Ġop f
ili e
ĠL ange
U den
Ġge byrer
m il
bili tet
s ag
skri vning
y sten
for stÃ¥
bl og
ĠHe de
sk omm
Ġevalue ring
Ġfo und
s an
Ġ199 8
ĠH avn
Ġsammen hÃ¦n
s sensor
Ġope ra
ĠmÃ¸n ster
ĠLand s
ĠbevÃ¦ ger
Ġbesk ytter
Ġar ter
Ġbri tiske
vis te
ĠÃ¥r gang
ste in
ĠW ord
Ġfot os
C AR
Ġbl u
ort s
ĠBog en
tÃ¸r rer
hotel s
ĠG R
Ġind kal
Me get
as is
all ene
Ãĺ J
Ġbebo ere
Ġaut omati
Ġg ymnasi
ĠKj Ã¦r
st ationer
v ang
Ġind vand
. [
inan sie
ĠLe on
Ġlej ligheden
Ġneg le
Ġkap it
ĠStock holm
Ġfjer net
P ub
Ġ8 2
ĠRe al
analy se
Ġtilf Ã¸jet
Ġhel hed
ra mme
Ġhjer nen
Ġkonta kter
Go ogle
on den
l ens
ĠMu sic
ĠFor slag
Ġsikker heden
fel tet
tok ol
op tion
int age
ĠBed re
ĠO ther
Ġeg net
ĠkrÃ¦ ve
Ġbe des
Ġw ay
ĠL ive
ĠF ast
A A
ĠvÃ¦ ske
K l
Ã¸d der
Ġover skue
gen skaber
Ġlufthavn en
Ġeks amen
Ġkommun ik
ĠfÃ¦r dige
vig il
Ġne ed
Ġet ablere
lan ge
ĠÂ £
ĠtrÃ¦ ne
ĠHvid ovre
Ġg lemme
Ġo d
Ġdownlo ade
m ore
z i
Ġwebshop pen
Ġtal ent
Ġvanske ligt
ges om
Ġfor uren
Ġstadig vÃ¦k
Ġsv ag
kÃ¸r sel
S prog
âĢ Ķ
ĠKon g
Ġprin cip
Ġalvor lig
Ġal u
kti vet
Ġbes vare
Ġly de
× Ł
ĠD I
c lu
Ġvarie rer
la delse
ĠN orm
teg net
b Ã¸
ĠpÃ¥ begyn
ĠH jer
Ġs um
le kt
Ġfore kommer
Ġsmart phone
an en
Ġud valgt
Ġsk Ã¦re
Ġsamtidig t
rÃ¦ ning
Ġc yt
Ġkry dder
!! !
Ġkandid at
Ġtek ni
sh irt
Ġcy kler
Ġprodu cere
ĠHove dstaden
st od
grund lag
Ġudb yder
Ġtil be
te kst
ĠRing sted
sen der
ĠmÃ¥ let
Ġop gra
Ġturi st
Ġpopul Ã¦rt
ĠF amilie
Ġintegre ret
ateg orier
Ġhistor isk
Ġpotenti ale
ĠkrÃ¦ ves
Ġcy k
ĠFjern b
gÃ¥r ds
Ġfokuse re
dition al
le ge
Ġbe mÃ¦rk
b io
ge byr
S port
e vne
ĠtÃ¦tte re
o es
Ġtilkn yttet
be skrivelse
Ġle jer
ven der
Ġsign al
age ligt
Ġmar keting
melde lse
x y
ĠFal ster
ori um
Ġoverra skende
Ġud lÃ¸
ĠvÃ¦r re
Ġindstil ling
Der udover
ĠS or
ĠK ilde
y per
Ġhu sk
ene de
Ã §
Ġforand ring
1 12
Ġdra ge
Ġtilfreds hed
am iner
ĠLe ague
tig heds
Ġgar n
ĠA qu
Ġvirke lighed
Ġstil les
ĠII I
Ġfor sÃ¸gt
h v
Ġfod bol
ĠhÃ¸r te
ĠSk anderborg
ĠSo uth
og t
ret tigheder
Tra velocity
H je
Ï Ģ
Ġr om
Ġeks port
Ġforen inger
B Ã¸rne
Ġfler tal
Ġ rÃ¦kker
Ġd r
ĠM P
h istorie
p u
Ġher fra
Ġgen brug
D el
Ġkraf tigt
hand linger
ĠkÃ¦ mper
Ġindkvar terings
In gen
") [
ĠH ill
ĠU ge
skyl d
Ġopn Ã¥r
Pe ter
ĠLe vering
V en
Ġh ospital
Ġfor holdsvis
ĠEuro pe
ty per
Ġ7 3
ST OR
Ġhjemme fra
Ġder hjemme
Ã¸ e
red te
sl Ã¸
ĠJ ust
Ġge mmer
Ġdyr t
g las
Ġma ler
S A
Ġper manent
ĠVar en
Ġsko ven
plan e
bille tter
ĠH ob
D ag
tidig t
Ġtek sten
ĠV o
M ENT
sl Ã¸s
fon den
ĠW ik
pro grammer
ager um
Ġfakt ura
N intendo
Ġcomputer en
a ste
Ġfa se
Ġf Ã¦n
Ġsna kker
ĠforelÃ¸b ig
lÃ¦ rer
j akke
Ġkom for
Ġforven tet
b Ã¸r
Ġsin det
Ġsalg s
Ġvis it
ĠBeg ge
ĠgÃ¦ ste
ĠM us
se rien
Ġsygdom men
S R
1 01
b lÃ¥
Ã¼ n
Ġ8 4
ĠfÃ¸d der
R igtig
] ]
ĠH ospital
Ġeleg ant
ĠsÃ¸ g
ĠHj Ã¸rring
p age
Ġtrav lt
re st
kon takt
Ġbeste mmer
ĠSa int
is ker
ĠF igur
lem ming
ant ra
D ates
VÃ¦re lser
Ġbli k
Ġsimp le
ĠB ig
ab ase
Ã¥r d
Ġperson oplysninger
ĠMor gen
Ġforud sÃ¦tning
Ġatmos fÃ¦re
Ġc ontent
ĠFe stival
skÃ¦r m
Ġfav or
Ġinteress ante
N yt
Ġstri kke
ĠV inter
g l
som hed
Ġa ne
Ġan komst
Ġarbejds markedet
met ode
H z
Ġtilf Ã¸jer
ĠAlu fÃ¦lge
Ġel ske
ĠPe der
ĠJo se
Ġlu kker
Ġbetragt ning
ĠA u
K un
123 456
Ġr yd
get ar
** **
ĠM Ã¸de
Ġ7 1
ĠHa derslev
Ġbereg ning
our ce
G u
ĠP ia
ad set
Ġund gÃ¥r
sm ag
ĠÃ¥b nede
ĠP olitik
sche f
Ġsen dte
Ġkunst ner
× ¨
: \/\/
ĠvÃ¦l ges
forb indelse
Ġimp ort
Ġher om
Ġ199 0
Ġved rÃ¸rer
unt ry
non cer
Ġbehage lig
date ret
Ġapp s
avis en
Ġbebo e
Ġnive auer
Ġud veks
Ġsk Ã¥l
2 50
A IR
Ġudel u
Ġin put
Ġkla ger
Ġwh at
ĠB lo
Ġtilh Ã¸rer
ĠBir g
ĠBe styrelsen
Ġkomp rom
ĠW al
Ġpakke shop
Ġt av
ĠvÃ¦l g
a per
ĠB la
Ġjob bet
Y G
one de
Ġaut o
Ġi ft
rÃ¥ ds
per t
ĠE li
ĠL uk
net s
M Ã¥l
oug h
fÃ¸l gning
Ġaltern ative
ret he
Ġsp ring
p and
Ġb Ã¥nd
ĠUni ted
AM E
ĠK R
au ti
Ġopfyl dt
1 50
Ġmis te
Ġfa c
in ts
ĠnÃ¦ tter
p apir
yn d
sig ten
KE Y
Ġhar mon
Ġarrange ment
ĠNy kÃ¸bing
ĠHan ne
ĠnÃ¦ vne
Ġs us
stre ret
ĠFor mÃ¥let
Ġfil ter
is tisk
200 8
Ġr un
B L
Ġhav ne
Ġfor uden
Ġordent ligt
ĠAustra lien
opdater inger
ĠH urtig
Ġresulta terne
Ġ _
Ġforand ringer
Ġ ]
ĠPh ili
Ġbran che
Ġny hedsbrev
Ġoff entligt
Ġhen viser
Ġf lag
Ġform at
Ġh yd
lÃ¦ der
B rowser
Ġsk yde
Ġmate matik
ĠJ ames
Ġmodt og
dust rien
ĠWe stern
Ġm om
ĠCharlot te
ĠP RI
Ġre visor
Vel kommen
Ġud satte
ar den
ĠKri stensen
Ġefter som
led ninger
Ġp il
ĠH K
Ġmorgen en
Ġbed t
Ä ±
E vent
ĠjÃ¦vn ligt
and a
f s
G R
Ġ12 5
h Ã¦nge
st ole
Ġkoncer t
b ende
ĠSam sung
butik ken
vis ende
me ret
ĠPoul sen
po int
hand let
Ġv ag
ĠUng dom
Ġfor lÃ¸bet
vi rus
om et
S C
Ġsp rÃ¸j
ĠlÃ¸ st
Ġven inde
p an
Ġsimp el
kla ge
Ġar gu
Ġfjer nes
Ġsam taler
ĠnÃ¦v nes
ĠA mt
e ffe
somrÃ¥ de
ag ner
Ġfor holdet
did as
ĠF ro
ĠfÃ¸r t
Ġvurder inger
f ug
Ġre aktion
Ġcre me
t d
Ġspeci el
" );
H en
Ġre al
Ġg ir
ĠD ist
al je
Ġhe st
W h
ĠAir port
ĠH um
cien ce
Ġry ge
ĠUni on
ĠJan uar
P A
ĠIs Ã¦r
ari tet
Ġg ade
ĠRo bert
Ġstar tet
ĠP oli
Ġinte gration
Ġb orgmester
Ġtit ler
Ġafslut ning
ry ger
Ġforklar ing
Ġta x
Ġom vendt
ir ts
ĠH oliday
Ġmedlemsst ater
âĢ¦ .
ĠAn n
ĠP in
Ġloc ation
Ġs kel
fi le
ĠSp rog
ron g
ge ar
Ġhel d
sk ader
Ġde pression
Ġfo der
ĠJohan nes
ĠUd danne
Ġgeneralforsam lingen
Ġbeh ovet
Ġinve st
Ġlog o
og nen
ĠP u
bru gere
ĠB ou
ven dige
Ġh ot
il a
st jeneste
k ultur
J u
brand ing
ĠP et
umini um
ĠB IL
med lemmer
Ġsm ykker
Ġdu kker
Th is
way s
Or bitz
Ġfiske ri
up d
Ġfore lig
rÃ¥ de
niveau et
s ninger
aben raa
sbet ingelser
Ġhun den
kti k
B i
med lem
ĠD E
Ġfort ro
lig ne
ĠMar g
Ã¸ en
Ġhj Ã¸r
y p
ĠSta ti
Ġ14 0
radi o
ÃĨ G
n Ã¦st
ĠbedÃ¸mme lse
pp ing
Ã¦ kke
Ð ´
Ġaut ori
ord ninger
Ġgr undet
ĠBe sÃ¸g
Ġplace res
for syning
Ġmat cher
Ġkan aler
IT H
ip edia
reg ne
Ġdisk u
ĠfÃ¦r digheder
ti li
Ġsamarbej ds
F E
st Ã¸rrelse
Ġflytte de
ĠVia Bill
ĠH Ã¸je
ĠFol k
Ġforet ager
yt ning
respon sive
ule rer
sminister en
ĠTru mp
plane r
u mer
ry ge
Ġfors vinder
eg o
ĠS ar
Rad io
hand lere
ĠF ru
Ġta kt
i sering
Ġetabler ing
am men
ĠPri sen
N or
Ã© e
ĠUn d
ĠL Ã¸rdag
Ġbred de
ĠIn kl
ĠMiddel fart
Ġudby tte
Ö ¸
____ ____
Ġ1 30
Ġe sp
ĠKar l
Ġ199 7
lÃ¦ t
App ly
S IDE
Ġbruger en
Ġc ur
inde x
Ġkop i
ma ti
De scription
inds til
Ġb os
ĠfÃ¸r te
?? ?
Ġprodu cent
Ġelekt ri
en der
Ġfry gt
ĠrÃ¥d giver
C ontent
vÃ¦r dige
a ften
red skab
Ġfund ament
Ġopdater ing
dt ag
itco in
ĠSk ift
Po ol
Ġleverand Ã¸r
Ġka ste
Ġmod afinil
Ġv acc
ateri ale
lic ation
Ã¸n dag
R es
H istor
ĠÃ¸ en
Ġmedlemmer ne
Ġl un
Ġo ld
Ġforening ens
Ġekstra ordin
dst yr
Ġskue spiller
ĠA ss
ĠJava Script
ĠbrÃ¦n der
O UT
Ġfor ma
ĠTe ater
Ġob ser
ĠmÃ¦r ket
Ġspe j
Ġop lÃ¸sning
Ġsc ene
sp in
Ġinc l
Ġservice s
mme ret
Ġgennemsnit lig
H otwire
ĠV eg
Ġh it
ĠL olland
ĠA pril
Ġvalut a
Ġsek ret
Z W
Ġgi der
ĠC ost
Ġbetyde ligt
Ġ ï¿½ï¿½
Ġbet on
T R
Ġb Ã¸n
ĠI F
Ġmo st
he ader
ĠKÃ¸ kken
Ġiniti ativer
Si ze
skÃ¦r ms
. ).
D ate
bu kser
mar y
fal det
Ġudvikling s
Ã¸b t
ĠAb s
Ġbryllu p
Ġgennem gang
ĠSK AT
ĠK of
Ġaccep tere
Ġan giver
ĠnÃ¦ se
Ġi k
ĠMikke l
ĠFor side
Ġfil osof
Ġs ind
Ġop for
Ġuaf hÃ¦ngigt
Ġta ske
GEN CY
IM E
ĠT yrkiet
fe e
Ġdefini tion
Ġs vÃ¦
Ġkulture lle
ud io
.. ...
g ter
Gennem snit
Ġbe vis
ĠsÃ¦s onen
ĠL Ã¸n
Ġakt Ã¸rer
123456 78
Ġpla stik
k ob
Ġud arbejde
ESS ION
mu sik
Ġhurtig st
t z
Ġtan ken
ti st
s let
Ġpla de
Ġmobil en
ĠidÃ© e
ĠT H
al ske
ĠC i
UR GENCY
T ON
Ġud betaling
Ġbygge ri
S es
Ġforh Ã¥b
ĠI mp
gi ften
Ġva rem
ĠBj ar
Ġp ligt
(" -
Ġste get
ove ret
o ci
ĠT im
Ġopti male
Ġal bum
Ġsh ould
ĠK B
ind hold
li ds
Ġpost date
Ġh ind
reg nes
Ġski ftet
("- ")[
sproces sen
Ġu ro
Ġkomb ineret
ling ske
domm ens
ĠG ren
H T
sy ge
an na
we iz
butik kens
ĠgÃ¦l d
ĠMed lem
L L
Si den
U anset
ĠsÃ¸ ges
Ġci alis
Ã¦nd inge
Ġ$$ $
trÃ¦ k
N ord
ta li
Ġhel dig
af gift
j urs
ĠRe ferat
k amera
ĠC up
ye ar
ad i
Ã¦r en
ĠO pen
Ġbyg nings
ym nas
ĠH T
ĠCar sten
ĠW ater
si tu
Ġind fÃ¸rt
Ġbarn dom
Ġpar tier
Ġfore gÃ¥
Ġste g
ĠO P
pri se
J e
Ve r
ali for
ĠC lassic
ĠOp daterer
ĠJe r
kl in
Ġressour ce
ger ende
Ġsupp le
Ġ9 3
Ġskul der
Ġitalien ske
pro jekter
la sh
k m
Ti me
Ġlige gyl
tt ende
Ġi fald
Ġand res
fag lige
')) "},"
Ġo vn
Ġbol den
\ \
Ġt at
al sk
und borg
ĠidÃ©e r
Ġmen u
Ġi mens
S ch
Ġor g
ti ks
Ã¸ det
f rie
rÃ¦t spil
Ġkrist ne
Ġom sÃ¦tning
ĠL ene
ĠforÃ¥r sage
ĠSp Ã¸rg
ook ie
ĠS alg
ĠVide o
ĠtilstrÃ¦kke lig
ĠhÃ¸r ing
skri ften
Ġsamt ykke
B ri
spe c
lÃ¦ sning
C ES
Ġpres set
Ġi dag
ĠJ en
ĠNord isk
Ġmu st
ĠSt of
ĠH V
Ġbl ande
so ller
Ġannon ce
Ġpsyk iat
ĠtilstrÃ¦kke ligt
ĠKop holder
ator isk
ati sk
ĠSport s
b s
w h
Ġ> >
Ġprofe ssion
Ġkonfli kt
Ġforne mme
der ing
kur ren
Ġcit ron
bor det
un tain
ĠfÃ¸de vare
ven lige
ĠTor ben
Ġp ut
Ġfag ligt
ga in
sk rÃ¦
meddele lse
ĠA vis
base rede
P E
hold nings
sy nings
ĠD ay
Ġfly ver
P AY
Ã¥ ber
Ġer klÃ¦
Ġre m
Ġshop pen
auti ful
Ġz one
ski ftet
Ġsammenlig net
Ġkrop s
Ġsk am
Ġind gang
Ġv ant
Ġop hÃ¦
sam ling
pre vent
R eg
Ġanven dte
ne tte
se g
Ġte stet
Ġfore komme
ĠB ad
Ġblog gen
Ġud Ã¸
Ġrelig ion
Ġvar men
Ġkri ti
b ind
g ig
Ġvoldsom t
Ġro lig
B aseret
')) "}},"
ĠB ol
Ġser veres
men u
Ġforl Ã¦n
os a
Ġg lemt
ĠLe ver
Ġh ost
vit amin
organis ation
r nes
A UT
Ġfors laget
w idth
ĠSÃ¸n dag
Produ kt
ade mi
g mail
d b
ĠstÃ¸rre lsen
ĠB allerup
Ġful gte
Ġk ab
ĠÐ ²
Ġhandel s
ĠMÃ¥ ler
sl und
Ġkvad rat
w n
ĠÃ¸k ologiske
Ġspeciali serede
Ġfrem med
ĠVal by
Ġtv ang
om o
ĠbedÃ¸mme lser
z one
ĠO x
Ġarbejde de
fa ult
ĠD al
k ager
Ġfrem stÃ¥r
M ore
Ġsen ior
Ġfir st
Ġs mel
ĠprÃ¦sen terer
slÃ¥ et
Ġaf ter
Ġt yder
lever ing
ĠIn dien
Ġur in
ĠEk sempel
styr ke
we r
ou ble
Ġmusk ler
B aby
ĠJ ack
im ming
mand s
ĠIn ds
Ġinteresse rede
gj orde
ĠM B
O ther
Ġk reds
Ġel skede
ĠpÃ¦dagog iske
Ġa st
Ġbag age
T U
PAY MENT
Ġforne mmelse
rapport en
ĠS V
ĠK lin
ĠL Ã¦g
Ġl Ã¸d
Ġpen sions
sb il
Ġeng agement
ĠA ft
la f
gi ej
Ġab s
Ġal m
a ktioner
Ġc al
ger ingen
Ġudvi det
Ġoprinde ligt
ĠJacob sen
Tru stpilot
ĠHol land
ĠVi ctor
ph p
Ġti p
K Ã¸
En d
ĠAd resse
al deren
Ġal men
AN G
Ġtru kket
g ode
al lage
ay a
Ġmen stru
Ġfore l
Ġafspej ler
st one
ĠstÃ¦rke re
Comp lete
Ã¶ n
Ġbe retning
Og sÃ¥
Ġkyl ling
Ġdy rere
Ġtime s
ĠDie sel
Î ·
kendt gÃ¸relse
sk j
Ġscen en
u set
Ġviden skab
Ġt rom
Ġo vnen
ĠEng lish
Ġt Ã¦ller
Ġy dre
ĠA merik
Ġno w
sk ap
Ġskrift lig
ĠTw itter
vel op
Ġproblem stillinger
Ġeje re
dra ge
f lo
Ġtil melding
Ġeksk l
? âĢĿ
LO CK
bo e
Afdelinger PopulÃ¦re
Ġmobil telefon
over lay
Ġte ks
Up date
sk al
OT E
Ġdan se
a ir
Ġome gn
Ġg ru
Ġd ry
ĠVar de
Ġinstal lere
Ġs co
Ġopskri ften
arbej ds
un get
ĠD ol
D U
rug ter
rej sende
is tik
ĠM ore
ÃĨR K
Ġmod stan
K ap
Ġoverensk omst
Ġly ser
ĠstÃ¸r st
Ġhi mmel
ole ret
ĠD U
Ġindt Ã¦gter
cer t
Ġhu ller
ĠEnd videre
ĠÃ¥b net
Hvor for
os si
Ġskar pe
Ġan sÃ¦ttelse
Ġs af
amili en
Ġpsyk iske
Ġeks tern
fra struktur
Ġfjern syn
ĠforsÃ¸g te
ĠBud get
D M
ĠF u
I mg
ĠÐ ¿
ĠInst agram
ording borg
Ġher ved
Ġb and
ĠDe svÃ¦rre
Ġom hygge
ĠplanlÃ¦g ge
Ġtil lade
ĠA B
ĠM A
Ġsi tes
Ġp ower
rede lse
Ġk it
S and
sp lad
ĠÃ ł
U rl
Ġb inde
Ġover vejer
Ġban ken
alk redit
Ġover vej
rede s
Ġren se
opro stol
tilfreds hed
lÃ¦ ser
Ġbakter ier
Ġutal lige
be vÃ¦ge
ĠT rÃ¦k
ĠHer lev
Ã¥ ben
ĠSpe cial
Ġst re
ĠM un
ine rne
Ġtelefon nummer
ĠG ade
ro ver
Ġb rÃ¸
Ġtemp o
dra gelse
j i
Ġvest lige
li tteratur
Ġok ay
h ac
Ġmeddele lse
smo del
Ġimm un
in line
Svar Slet
v re
Ġsek und
til behÃ¸r
and ina
au f
Ġhum an
b lan
ĠpÃ¥ ske
sm ar
Ġful gt
ĠN ulstil
ric an
k ontrol
Ġre age
Ġbi ograf
ĠP ic
( ).
Ġunder viser
Ġop h
ĠJ ule
pp ende
aft alen
} }
Ġkartof ler
Ġuni vers
h vor
ĠC l
n Ã¦r
Ġsen gen
ĠHen ning
Ġmoti vation
col or
achel or
sh us
Ġunder sÃ¸gt
Ġulti ma
Ġpa kker
ĠK OMM
J an
ĠskÃ¸n hed
Ġbom uld
ok u
Ġfor lade
ed ie
E FT
Mellem klasse
ma terialer
Ã¤ l
Ġperson lighed
ĠmÃ¦ng den
Ġbl an
Ġaf d
firma e
ĠH r
ĠMan agement
Ġmis tet
ru kket
ter en
Ġc lean
Ġsammenlig ning
ĠV ig
Ġin to
ĠFar ve
ste ds
Ġ1 12
Ġeffe kter
Ġfore bygge
ĠTh ailand
ĠGent ofte
Ġmind ske
gi en
Pe rson
Ġsp Ã¦nding
Ġakti ver
ĠhÃ¦ v
Ġkvinde lige
ĠpÃ¥ pe
p oli
lig a
Ġind bygget
Ġref le
ĠhÃ¦n derne
b j
P U
ĠlÃ¦ ste
z o
ĠF y
ĠAut omatisk
Ġan fÃ¸rt
Ġkal dt
AM EN
Ġpoten tielle
ER E
ax y
Ġregion ale
ĠTh y
EN D
sen ge
Ġsm s
ĠEn ter
Ġfot ograf
Ġske ma
Ġfo ds
Ġto ne
ma j
ĠstÃ¸v ler
Ġinvol veret
arbej dere
Ġaf betaling
" >
ĠE FT
lob al
ĠAndre as
Ġfor vir
ĠJap an
ser ver
Ġeksper t
am ser
Ġm aling
Ġfat tig
Ġte ore
j n
hu sene
mÃ¦rkelsescertifik atet
ĠhÃ¥nd tering
N atur
Ġw orld
Ġban ker
fri hed
ĠWi Fi
Ġpas sage
Ñģ ÑĤ
Ġkri tisk
ĠThis ted
ĠUd v
ĠH R
Ġboo ke
Ġforestil le
are aler
Ġfun ktione
organis ationer
Ġd amp
M and
Ġsal at
& &
Ġbran chen
skil t
pro fil
Ġkla rer
Ġind ik
Ġv s
Ġkn yttet
Ġspur gt
ĠL yd
Ġud vÃ¦l
p ix
ĠH oteller
Ġher hjemme
forsk ning
ĠSam let
Sc roll
ĠLa ke
ĠTy pe
Ġsp ilde
Ġforbed ring
Ġaf drag
sÃ¦ der
f Ã¸
Ġtryg hed
ĠC ir
ĠA li
Ġinfe ktion
Ġorganis ationen
te lig
kant en
Ġb Ã¥d
Ġse le
Ġfel tet
Ġad ressen
os me
Ġn om
ĠF lemming
A tt
st uderende
Ġne ut
Ġhy p
Ġmenneske lige
() {
Ġre fe
f ro
Ġfore byggelse
mÃ¸ det
ĠL as
Ġop bak
Ġ ....
Ġadgang skode
ce lle
ĠS j
dra get
Ġk ys
Ġw ould
b ler
ĠC our
ske d
Ġ, -
k abel
Ġfle st
res und
ĠChr ome
H IDE
firmae r
kt Ã¸rer
k unst
ĠNor dic
Ġfan get
d Ã¸r
Ġkur v
ĠtrÃ¦n ger
iel ds
Ġbehand linger
Ġmon teret
b ning
Ġm onth
kt Ã¸ren
ed t
Ï Ĥ
Ġelektron iske
Ġb ibe
Ġrej sen
Ġfe at
Ġof fici
ĠSpil NyhederTilbud
ĠA abenraa
ĠSyd danmark
Ġmeddele lser
ĠSk Ã¦r
la p
Ġfl Ã¸j
dst of
X X
ĠIs ofix
Ġal ders
ĠProdu cer
Ġdrift s
AND ING
sÃ¦ son
out ube
Ġfrem tidens
Ã¦ sten
Ġb akke
200 7
ite d
ĠreprÃ¦sent ant
dis play
Ġuni kt
ĠAn giv
bed ste
ust ru
Ġsven sk
ĠÃ¸ver st
v let
ĠC ont
na ler
ra ma
Ã¸g le
Se p
ĠGlo strup
1 20
Ġsp in
Ġstud ier
Ġpro vigil
ĠH istorie
Ġ ~
G I
kon sulent
ĠTil fÃ¸j
H ac
ĠBe handling
de vice
bygge de
ĠW ars
ĠÃ¥rs agen
Ġst uden
ra kt
Ġsm it
is on
as a
Ġi b
Ġundt agelse
D I
B eg
s ort
viden skab
Ġly den
Ġforskel len
Ġan b
value ring
ĠIn ge
Ġc ap
ĠHvil ke
sp unktet
ĠS Ã¦l
Ġ7 00
Ġfor handling
Ġhen vender
men ne
B ag
up s
Ġbe ro
ĠgrÃ¦n sen
ma den
l dre
ĠK ol
Ġhjem sted
mperat ur
Ġeurop Ã¦isk
Ġm ission
Ġtilkn ytning
Ġe st
Ġforud sat
Ġa ktion
s agt
Dire ct
fyl dt
Ġr enter
R en
ĠW in
ry ks
ĠV Ã¦k
Ġh oppe
bet jening
ĠSÃ¸nder jylland
X box
Ġret fÃ¦r
n or
Ġmusik ken
ĠhÃ¦ ve
ĠforlÃ¦nge lse
Ġhjul pet
Ġudfor ske
ĠEn delig
IG T
Ġult ra
l ang
ĠmÃ¥l tid
Ã¦dag o
Ġopti mal
Ġan sÃ¸ger
Ġfra drag
PR ESSION
= '
E QU
ĠStart spÃ¦rre
Ġf asc
ent ing
ĠDe j
Ġh is
ĠTid ligere
ab eth
................ ................
ven digt
ĠAn ge
b Ã¸l
Ġind fÃ¸re
ĠF an
Ġdyb de
Ġeks am
Ġhvor fra
Su pp
Ġp m
Ġprinci ppet
ble met
Ġhv ile
Ġben ene
Ġsymb ol
pp r
ĠG reve
sty le
ĠD ET
ĠRo se
îģµ îģµ
Ġbyg ningen
Ġforet rukne
Ġgennem fÃ¸rer
Ġkur set
W ITH
Ġmo tive
ssy stemet
de ligt
p ati
ĠPe rs
Ġvok set
S atellit
Ġforret ningen
ĠBÃ¸rn s
ĠIs rael
rÃ¦ kning
ĠS on
ĠG em
Ġle delsen
Ġfrem stilling
Ġtit len
Ġta ke
ĠIn stitu
gar n
ĠG enerelt
kon stru
has Dates
ĠreprÃ¦sen terer
Ġlig ht
let rÃ¦
Î »
ĠnÃ¦r vÃ¦rende
Ġv ogn
Ġkunst nere
vÃ¦ ret
Ġfly dende
are al
OB IL
il li
Ġplan en
â Ĥ¬
alle ri
ar range
sp unkter
Ġs he
U ser
pri v
M I
ĠEx pedia
ik i
st uen
Ġved varende
Ġsi ze
Ġis lam
sdÃ¦k ken
ĠC it
ET E
ĠS ax
Ġfokuse rer
Ġmods atte
Ġindividu el
ĠB ade
ĠÃ¥ben bart
Ġene stÃ¥ende
be lÃ¸b
Ġvis ning
ĠT v
P ES
F jern
Ar bej
Ġbet jening
Ġje ans
Ġren overing
ik a
ĠÂ °
cel l
H IGH
Ġfil tre
agerum sdÃ¦kken
he ight
Ġkri min
ĠS ha
ĠPri serne
Ġfor skelle
ĠThom sen
ĠMe x
Ġtilslut ning
Ġrek ru
ĠG ode
T oken
marke ds
oner ne
Ġskrive bord
B LOCK
trÃ¦ delse
ist an
Ġb jer
rÃ¥d giver
Ġarkite ktur
ĠEx press
ĠH ard
Ġs over
ĠfortÃ¦l ling
ĠSk i
B UT
v rige
T ree
OM PL
ĠTran s
Ġpla y
ĠSe c
C OP
u c
IT IES
ome rne
Ġ9 4
Ġsa una
Ġdiabe tes
Ġs tige
B lu
Ġbeg r
ĠO d
ir d
Ġp pr
S end
h h
m otor
re k
vej r
C ontrol
jen te
ĠS ted
omm y
Ġtilpas set
spe ci
Ġaspe kter
MÃ¥ ske
ĠSÃ¥ fremt
Ã¸rs holm
Ã¦nd ringer
ĠK vinde
ha i
ĠBl og
ĠKÃ¸re computer
ĠUnder sÃ¸ge
Ġh ow
Ġgave kort
ĠUn ge
BR ANDING
p df
Ġbetaling skort
E E
Ġover fladen
Ġsp Ã¦nd
M on
met al
ĠK je
g ing
Ġfores p
lle rup
ĠUS D
T IME
check In
check Out
Mapp ings
content Id
T ries
Ġudtry kke
Ġaf sk
IM PRESSION
book On
Hac Tries
p umpe
roomSelection Model
polling Enabled
prevent Scroll
hac Complete
contentId Mappings
ib Availability
num HacTries
meta Availability
max RoomsTo
maxRoomsTo Show
is Tablet
EQU ITY
Other OS
device Info
ib Header
ĠOther Browser
bookOn TripAdvisor
ibHeader Img
Ġregi onen
Ġman u
ta cdn
ra pp
ĠlÃ¸ g
Ġadminist rative
Ġg lat
b te
com e
Ġinvester ings
Ġfor stand
ĠvÃ¦relser ne
Ġhav nen
Ġp ille
C ol
Ġcyt otec
ĠdÃ¦ kning
Ġtra k
rien ce
ar tet
ĠI de
ĠSep tember
v ogne
Ġgra v
au x
Ġtid lige
U P
lÃ¸s hed
se vne
ance rede
Ġbel ysning
Ġsk rÃ¥
Ġoverveje lser
Ġakt uelt
Ġvirke de
Ġleve tid
Ġgaran terer
Ġdom mer
m onth
Ġinsp i
ah l
Ġshop per
Ch ri
be varing
Ġ uld
rol og
f ont
Ġp ap
b lade
ĠTe le
im mer
Ġ8 1
Ġher rer
Sp il
byg ningen
Ġk nu
Ġbl andet
ĠE va
Ġlin jer
kÃ¸ kken
s alg
ĠQ ue
Ġrekla mer
Ġ199 6
ST AY
S ite
Ġner ve
b be
vÃ¦r dig
ICON S
Click Token
offer ClickToken
Ġd rop
ken land
K S
Ġme gen
m bo
Ġtur ner
AMEN ITIES
Ġg luten
lÃ¸s ninger
Ġb ob
ĠC A
ĠM agn
ĠopnÃ¥ s
b aner
ĠNav igation
Ġaf dÃ¦
ĠVÃ¦re lser
k op
Ses sion
ĠSÃ¥ ledes
Ã¥l mod
K L
Ġrisi kerer
Ġra m
ĠS ie
n b
c am
h abili
Rej se
Ġevent uel
Ġret s
ĠRÃ¸d ovre
Ġla bor
Ġh ref
ĠFor di
k ring
ĠF A
Ġtry gt
% )
ĠSk atte
Ġhen tet
b ur
Ġ3 50
EL E
ĠHÃ¸jde just
F ri
M y
ler ing
Ġstrukt ure
N BC
Ġansig tet
Ġdo es
Ġindsam le
B U
ĠprÃ¦sen tere
ĠBe skrivelse
Ġrig ht
Ġregistre re
be sÃ¸g
G EST
bille de
Ġkon ference
ĠBer g
ĠKort opdateringer
lo ver
ĠStud ie
N Y
ĠmÃ¦l ke
ras sen
ta les
K ort
ogra ph
Ġhal sen
Ġn ame
Ġforker te
Ġindsam let
pligt ende
ĠK ron
ĠKort Satellit
ĠM ort
ĠPri ce
EX IT
N AME
ĠÃĺ konom
Ã¦tte lse
ĠG iv
k rig
se y
I ST
de lag
ĠUd forsk
ĠprÃ¦sen teret
Ġbry der
W eb
ĠL odge
Ġb Ã¥
ĠA S
Ġforsende lse
il der
Ġbu y
Ġforplig tet
Ã¸mme lse
Ġfol ket
la k
Ġbetyde lig
a ker
far vet
tit le
ĠFin n
ĠR am
ĠK ost
s ne
serva tive
Ġkri sten
Ġsamarbejdsp artnere
Ġmuse um
ĠL es
Ġjub ilÃ¦
ĠT en
ĠSe e
Ġmis brug
v andet
d on
ĠE T
Ġs of
ĠT abel
fun ktioner
c ke
Ġst ab
TY PES
Ġc ity
ĠSocial demokra
ax e
Ġopleve de
ĠGar den
ĠW ash
ĠO L
si gelse
g on
for lÃ¸bet
s is
ĠPoliti ken
Ġk ru
g net
le ar
Ġoptage lse
ind lÃ¦g
ĠL en
Ġhyl de
ĠP art
Ġaf falds
u lere
Ġkon cept
we ar
e e
aut y
gi vne
Ġb ig
Ġentre pren
strer ing
ĠMad rid
Ġ19 95
Ġspid sen
ri m
Ġarbejd skraft
ĠÃ¸ ve
ĠS ke
Ġsty le
alis me
Ġmyn dighed
lu k
Ġvel kendte
Ġdiskus sion
sp lads
Ġanmod ning
kur rence
Ġfore byg
Ġfor ny
ĠFolke parti
ĠfÃ¦ng sel
ĠV ordingborg
ĠTil meld
E d
Ġb ror
! )
Ġbist and
Ġven dte
Ġu over
di stri
Ġp age
Ġinvi teret
fe stival
ĠAn ton
ĠI f
vi le
Ġopbak ning
et ter
for slaget
Ġinklu sive
s g
ograf isk
ĠI b
ĠG old
Ġdyr ke
ĠMog ens
in dustrien
F ort
ĠÃĺ l
ĠsÃ¦r tilbud
ĠH endes
Ġkoncent ration
c at
Ġtyde lig
S ITE
Ġkon s
ĠN ovember
Ġs atellit
G A
Ã¥n ds
ĠIn dustri
ĠI V
BUT TON
T id
we i
Ġnogen lunde
AT UR
Ġfast holde
S V
y stem
QU OTE
smed lemmer
Ġten den
Ġfor lader
Ġb ron
au ce
ĠvÃ¦g gen
skift ning
at ten
Ġ9 1
mÃ¦r kning
G U
ro ugh
Ġr inger
Ġhelb red
Ġt on
ĠOs lo
ĠKon soller
f red
Ġkamp agne
F I
ver sion
Ã¦n der
ĠUd dannelse
Ġindkvarterings steder
ĠLe delse
Ġul ykke
mÃ¸ lle
Ġner v
st rand
Ġs we
ĠAlt sÃ¥
om ater
sing le
2 000
ma skinen
Ġud flu
Ġxxxx xx
ĠprÃ¸ v
f inansie
Ġg reb
ĠFor d
Ġud dy
Ġgammel t
Se arch
ra ksis
Ġklub ber
bet h
ĠAr mlÃ¦n
mp et
P C
Ġhv al
Ġkonkurren cen
Ġyn g
w ar
f abrik
Ġsv ine
m aster
Ġbe mÃ¦rke
Til fÃ¸j
Ġ16 0
Ġbetal inger
Ġfa cebook
MS NBC
Ġproduktion s
ta belt
ol s
klub ben
PRI CES
ĠB liv
OUT SIDE
LAR GEST
ĠGe ar
ap ter
Ġri s
Ġtot alt
ok aler
ĠKal undborg
Ġ19 80
ĠT Ã¸j
spe ri
ĠBj Ã¸rn
Ġin st
Ġvar ighed
sek ret
ĠO ld
Ġhen visning
ĠG uest
Ġforb ud
Ġpol y
Ġres terende
Ġfor me
Ġslut tede
: :
sist ens
ĠK u
B ER
Ġattra ktive
kke lse
Ġcomp utere
c in
Ġfa ktor
vail able
ĠPort ug
Ġgaran teret
OMPL ETE
st av
Ġsandsyn ligt
Ġe s
ĠÂ ½
mp en
ĠPen sion
Ġbr ud
ĠpÃ¥ lide
hver v
n Ã¦ring
ĠfÃ¸l ges
VÃ¦relse spris
amp oo
Ġbet Ã¸d
C over
Ġu Ã¸n
Ġruss iske
Ġkines iske
Ġt ar
ster dam
Ek stra
F A
di ke
Ġvarie re
Ġfe edback
Ġforretnings rejser
Ġbestil t
CT A
uddanne lser
Ġafsla pning
Ġm ont
y alitet
ĠBed st
L A
ati vet
ĠSid ste
sp ligt
ĠGu ide
Ï ħ
Ġce ller
Ġstud iet
Ġidenti ficere
Ġdemokra ti
Ġf Ã¦l
AUT OC
ur ch
ĠDa mer
Ġse g
Ġtab te
uplo ads
hol dere
ĠI l
ĠN ot
Ġtv unget
Ġbeslut ter
Ġop lysning
. ),
Ġaf hÃ¦ngigt
ĠK it
ar hus
F ly
Ġkompon enter
Ġbesk yttet
>< /
dat ing
Ġher pÃ¥
ĠG ol
ĠÃ¥ rige
Ġfor sÃ¸
Ġfor g
ĠO dder
CAR DS
Mere Hvordan
skÃ¦ ftige
ter rasse
Ġfleksi bel
ĠG un
Ġen orm
Ġberet tiget
STOR ED
Ġtil med
Ġtablet ter
Ġinc lu
Ġbeskrive s
AUTOC OMPLETE
ĠT el
, .
Ġt ons
fa ce
Ġu op
ĠsÃ¦dvan lige
Ġstand arder
Ġh hv
ĠH Ã¸
ĠP r
L ej
Ġlige frem
a ct
ĠPar lamentet
CC NAME
ĠSt ats
ĠbÃ¦redyg tig
sp rÃ¸
pe jl
ro se
s gade
Ġhe alth
ĠGennem se
ĠA C
ĠDe cember
si dig
COP Y
lan dene
Ġinvest orer
Ã ¢
Ġsk ygge
til synet
ĠOrigin al
ĠrÃ¥ varer
ĠTÃ¥ gelygter
Ġred de
Ġmarke der
Ġp oster
ĠmÃ¥ lt
Ġelekt risk
Ġp ic
ĠlÃ¦ sning
Ġsk and
Ġmen uen
Ġmang fol
Ġforelig ger
Ġbe holder
: .
Ġindsat sen
rÃ¦ ber
U ni
us sen
Ġst rik
14 0
ĠF lot
lo ok
ĠMari anne
Ġ Ã¥nd
an ken
Ġfor mel
ou ch
ĠZ one
ĠV iew
k ok
ĠbelÃ¸b et
Ġchar merende
an meldelser
ren g
Ġow ner
Ñ ĩ
ĠL ab
ĠG ene
b Ã¦l
Ġinte ressen
Ġgen kende
al minde
ĠgennemfÃ¸re lse
ist ori
vide o
Ġk assen
Ġs ter
Ġmaksi male
gra tis
Ġopti malt
Ġrapp or
ĠprÃ¸ vede
Ġrespe kte
ĠO S
se p
Ġl ug
Ġnu ancer
ĠLu x
Ġfi ber
Ġcir k
Ġhv idt
ris me
e ret
mÃ¥ ler
Ġv ine
Ġmedlemsst aterne
Ġperson en
ote k
ffe ren
ller s
M E
A c
Ġro ck
Ġform anden
Ġalt an
skri dt
Ġinvi terer
Ġunder tiden
sp iration
Ġal arm
Ġrammer ne
')) ","
ĠMulti funktionsrat
p ak
v oli
K ar
Ġkro ppens
men terne
ĠB ack
ĠdrÃ¸ mmer
n ille
Ġaf g
Ġudvi delse
in stitut
n ens
e fter
verden en
Ð ĵ
b rÃ¦n
stra tioner
ĠM es
D ine
Ġspecifi kt
pas ning
Ġfavor itter
Sk riv
ĠL Ã¦rer
Ġforpligte lser
i ter
Ġind rettede
Ġ$ ('#
kar akter
Ġaut en
Ġs andt
Ġbekendt gÃ¸relse
ĠK Ã¦r
ĠUnder visning
sa ft
âĢ¦ âĢ¦
ra te
ĠMed icin
Ġsk jul
Ġdi agnos
Ġopdate re
Ġkil o
Ġvurde ret
Ġjurid iske
Ġfor sker
Ġindividu elt
Ġpsyk olog
Ġ ).
in ing
r m
Ġnysger rig
ĠH orn
X L
Ġta kket
Ġrat ings
ĠG Ã¦sterne
Ġkorre kte
l or
Ġaf gang
ket ter
Ġang ri
Ġeksp lo
Ġto get
Ġklas sen
Ġkomp lek
ĠB ut
Ġat ter
Ġk ey
slÃ¸ sning
lÃ¦ de
M orgen
L and
j on
ĠbemÃ¦rk ninger
of tet
Ġtru ffet
l ars
cessor ies
ĠS MS
Ġsyn lig
Ġco lle
N S
Ġkj oler
Ġpr om
Ġturi ster
ĠimÃ¸de kommende
ĠD F
IN D
ĠTo y
Ġb lad
G ER
Ġgenere l
Ġc ase
i ds
h Ã¥r
Ġfleksi bilitet
Ġforud sÃ¦tninger
f inde
c ket
Ġk up
Ġbeslut te
fla der
Ġgevin st
Ġfar lige
ĠProdu kt
stÃ¸v ler
Ġform Ã¥let
Ġpar ad
fon d
Ġansvar lige
ĠN Ã¦ste
Ġforbed ret
oks ne
st Ã¸j
ĠF RA
ĠH Ã¸rsholm
styrre lser
sh a
la v
ĠnÃ¦r ings
Ġkni v
Ġm Ã¸d
Ġsyn d
Ġforbed ringer
ĠSt ad
Ġunder sÃ¸ger
ĠUden dÃ¸rs
Ðµ Ð½
Ġde ci
Ġforsikring s
re prÃ¦sent
De suden
ĠP olen
Hu sk
ĠpÃ¥vir ket
Ġweb steder
Ġtil delt
ĠK bh
Ġoply se
Y R
ĠC amping
da get
Ġob je
Ġspeci ale
ĠÃ¸nske s
Ġbru ser
Ġblo det
l od
Ġkomprom is
et y
ĠAf rika
Ġgu itar
Ġindsam ling
Ġde jen
Ġlin ket
ĠbesÃ¸g te
by e
Ġkrav ene
Ġu en
Ġs Ã¸r
ĠstÃ¥ ende
Ġf rÃ¦kke
Ġc and
lag de
Komm entar
Ġhold ninger
Ġtraditione l
Ġu sikker
ĠBille der
ï½¨ ï½
ĠSan ta
no vation
Ġvar sel
Ġbeg re
ĠF iske
ĠLe der
sk valitet
af taler
te tet
for retning
st ination
Ġb row
Ġe sti
ĠAn vend
hÃ¸j de
ĠMed ia
ordin ator
asin et
ent re
Ġfor kÃ¦
orien teret
ĠâĢ ŀ
KÃ¸b enhavn
ĠTi ds
Ġm undt
Ġpa kket
ĠL E
Ġs ande
ĠF L
ĠR Ã¸r
Ġide elt
Ġso ft
ĠService s
ri ck
Ġti de
ss ag
ine ring
A U
N iel
ĠT rin
Ġhun dre
teri or
ĠMin ister
ard o
del te
Ġnav igation
ane re
ti se
Ġkv inden
fe rs
Ġmaskin en
len gth
Ġj uster
Ġb io
ĠKas per
Dis ney
ru rg
Ġbe r
ĠPla ds
Ġneg ativ
ĠO l
h vis
ĠA st
b ne
s vej
Ġva sk
Ġklas ser
ĠlÃ¸s ningen
ĠPro jektet
ĠLÃ¦ ge
ma p
ĠNo get
Ġbry de
Ġder ude
ĠK ob
ĠvÃ¦g ge
ĠBer lingske
Ã³ n
M AT
Ġing enting
ĠElekt ronik
Ġr an
ĠH ot
Ġfar ven
1 10
Ġsku ffe
ĠR at
Ġa gain
Ġoplysninger ne
og h
ĠOp ret
Ġordent lig
vÃ¦relse t
In dtast
it ation
lig genhed
Ġro s
var d
Ġredu ceret
Pri sen
Ġudb redt
e u
Ġland skab
Ret ningslinjer
Ã¦r ende
Ġe ven
feren cen
vi v
Ġdigit alt
se ktoren
ĠR Ã¸nne
ĠFrederiks sund
Ġdis cip
Si kker
Ġdel vist
res sion
Ã¦ le
Ġmon tering
ĠD C
H elt
Ġor dning
Ã Ł
ĠBri an
spe jle
Ġs ul
Ġtilfreds stillende
Ġ19 70
ĠD BA
Ġthe m
ĠHel digvis
per ne
ĠT otal
Ġfor deling
ĠT ing
ĠS L
Ġfar ligt
ild ing
men terer
ola j
rib landt
Ġ= =
Ġu lem
ĠGyl den
Ġrela teret
ĠovervÃ¥ gning
ĠB od
sl Ã¥n
T S
Ġfil en
var sel
j orden
op p
Ġfor vand
z ed
V AL
Ġblom st
for um
Ġd own
ac ing
Ġs lik
y o
Ġf ull
Ġmed fÃ¸lger
200 6
age lser
a met
Ġo st
med icin
ce an
Ġet age
Ġmake up
la mpe
ĠvÃ¦gt tab
Ã¦r te
P ay
som kostninger
fl Ã¸j
Ġu und
Ġk ran
Ġp od
Ġanaly ser
ĠP res
re al
Al der
ĠPerson lig
ĠA rne
Ġu m
ri ller
ĠForen ingen
vÃ¦r digt
g isk
st u
ĠHob ro
lads axe
Ġsv ampe
Ġplace re
Ġdie sel
flu en
Ġrapport en
Ġintrodu ktion
Ġge mt
Ġli fe
Ġte ste
ĠGal axy
Ġ199 2
ĠK rÃ¦
li ance
Ġmedicin sk
bar n
ĠbÃ¸rn s
Ġaf holder
ĠÃĺ nsker
jene sten
Ġom t
L ego
Ġsk um
ry kket
ĠHje m
Ġare aler
ĠP ala
Ġu ret
Ġfing re
ĠÃħ rets
Ġop stÃ¥et
ĠS ogn
ĠTa astrup
Ġmenneske t
ati ske
ig heds
Ġskri v
Ġop bygge
Ġkri gen
Ġsk ille
Ġsyd lige
ber ry
h j
ĠF red
ĠIn focenter
ĠsvÃ¦re re
Ġanaly sere
s vin
ĠT it
Ã© n
ĠTe chn
ĠLÃ¦der rat
ĠE st
ĠBu tik
po se
Ġnord lige
Ġuaf hÃ¦ngig
Ġyder mere
% ,
ĠS af
ã ģ
ĠtilgÃ¦nge ligt
Ġuden rig
ak terer
im od
f ron
Ġc over
ke lse
Ġop vaske
rik anske
Ġin se
Ã¸b et
cel on
ud sigt
ĠFinan sie
Ġo range
Ġgri be
Ġfjerne lse
dig heds
our s
Ġven lige
Ġsol gte
Ġâľ ĵ
Ġp api
Ġpor tion
rig ent
Ġrej ste
Ġarbejds pladsen
De j
Ġaf delingen
Ġregn skabs
Ġ199 4
ĠJe an
Ġforbru gerne
ateg ory
Ġtusind vis
Ġsold ater
ĠVej ledning
ĠSk revet
ĠKnud sen
hÃ¦n gige
Ġbl ok
Ġfl Ã¸de
Ġklin iske
St ar
dk valitet
A ut
rev ne
H ans
Ġet ager
mer ing
Ġvin kel
sp ring
tione l
ĠB all
Ġny hedsb
ĠKap itel
N Ã¦ste
ĠSer ver
Ġd revet
iel d
OBIL E
Ġfor um
or f
I k
Ġny hed
Ġk am
×¢× ¨
ĠmÃ¥ne ders
\" \/
! "
Ġri de
ĠdÃ¸ den
Ġpar k
Ġefter Ã¥r
Apply Control
\"\/ >
plo rer
ru r
Ġ" /
ĠS end
Ġid rÃ¦t
ser ings
s op
ti ce
Ġkredit kort
ĠPer nille
T ic
ograf iske
Â ©
ĠS ite
Ġsupp lement
ĠBil en
ĠskrÃ¦ dder
Ġ Ã¦re
I ds
ile d
ĠS Ã¸lv
yth ing
Ġk Ã¦l
ĠA v
u ret
Sam men
Ġa ction
Ġf on
spro jekter
Ġhal s
ĠS C
Ġvand ret
st ock
ĠB os
Ġmis oprostol
Ġspille s
P akke
ĠSt ri
ĠHe alth
ĠIn trodu
Ġinnova tive
Ġkan ten
ĠlÃ¥ net
ent arer
16 0
T ube
ct o
pro grammet
ĠCo un
L ight
Ġom handler
Ġfornuf tigt
ild ren
ĠÃ¦ndre de
Ġindsat ser
Ġg n
R C
ti an
Ġsnare re
ĠS tig
uri ty
Ġhu kommelse
Ġop en
Ġt old
Ġkri terier
Ġ& &
ch o
ĠH U
ti mod
b Ã¥de
ĠMa ke
ĠNe der
Ġle gen
ĠfÃ¸ ds
u a
ĠGrÃ¦ kenland
Ġye ars
I i
ĠprÃ¦ g
Ġjournali st
sret ten
ĠAir bags
Ġsti mu
Ġhen vises
V ir
Ġw here
Ġopret holde
ĠC ast
Ġprofessione lt
ag a
Ġ( )
k redit
Ġned bry
Ġfe rien
Inter net
ĠJ un
z ing
ĠB ody
I E
Ġudfyl de
Ġu ende
ĠTi me
w ich
c n
Ġefter t
Ġmilit Ã¦r
ymnas tik
ox id
ĠR Ã¸de
Ġsepar at
Ġinternet adgang
ĠCy kel
Ġsli m
Ġsk ra
Ġb ager
ĠB lan
Ġafsla ppende
itz au
Ġre ally
Ġst rÃ¦k
ti m
MA X
Ã¸ erne
Ġsen d
Ġ9 00
Ġfart pilot
Ġfanta si
Ġwh ite
Ġful dk
Ġc l
N ET
d ocument
in stru
ni ke
G Ã¥
ĠS Ã¸b
Ġindbyg gere
Ġstyr ket
Ġglob al
ĠVÃ¦re lse
Ġkon ven
cla imer
Ġbaggr unden
ĠmÃ¸n stre
En gelsk
Ã¸r t
ĠDe sig
ĠDire ctor
jo y
ĠspÃ¦n der
av g
ro d
7 00
Ġfot ografe
ĠJ ane
ĠSus anne
Ġanmeldelse Mere
PR OM
ĠL os
Ġpoliti kerne
P ASS
ĠJ ournal
Ġfuld stÃ¦n
Som mer
ĠP orn
loc ation
ĠFor sÃ¦de
Supp lier
Session Id
ĠU r
Ġteg ner
ĠVer sion
ĠH on
ĠNor de
Ġreser va
ĠJ ord
ĠJon as
Ġvi fte
ÃĨ S
Ġb ac
ĠS lip
M D
ĠreprÃ¦sent anter
Ġinstal le
Ġrespe ktive
ĠAl lan
k ilde
R oman
Ġsv Ã¸
lig nende
Ġop holder
ĠÃ¦ ble
ĠC alifor
sk ib
Ġal uminium
D ata
sk lasse
Ġtilh Ã¦ngere
Ġte lefoner
ĠRe f
Ġk ager
Ġdan net
do or
ĠivÃ¦rks Ã¦tter
Ġsk idt
Ġforb liver
M it
ĠBjar ne
rÃ¸ de
oc kt
Ġeksis terer
ick ly
ĠÃ¦gte f
Ġredu ktion
T orsdag
ĠN R
ĠG ames
ĠhÃ¥n dklÃ¦
Be st
u men
d c
Ġvel komne
ĠH all
ĠL idt
Fre dag
he im
Ġro d
Ġl oftet
c al
ĠFrem ragende
ĠD elt
ro t
ĠV are
me st
Ġde sk
ĠLe v
olo ger
dklÃ¦ dning
eten ce
Ġskrift ligt
M OBILE
f elt
lat or
ĠWilli am
Ġkollega e
ĠR on
I t
ĠK Ã¦re
g ardiner
mp el
ĠFÃ¸l g
ores til
Ġmenstru ation
# #
S und
ok ale
fÃ¦l de
ĠE s
n ia
ĠS Ãħ
inds ats
ye ster
ĠW o
Ġfo od
Ġre com
kter ne
f jer
Ġw alk
ĠbevÃ¦ge lser
ses se
spro jekt
dri ft
Ã¥ det
Ġbesk at
A ction
g s
d sel
A s
fil ter
kÃ¦ der
Ġforbinde lser
ĠB is
one re
ĠDa hl
Partner s
ĠComp uter
t rin
b ureau
ĠB reakfast
Ġarbej dst
Ġ199 3
ph ones
ak i
E jendom
Ġbo et
Komm issionen
ĠL one
la des
P ort
Ġsal get
Ġud kom
ĠL Ã¦r
Ã¦ ger
a ks
Ã¦n ker
Ġla mper
ĠIn tel
ĠRig tig
K NOW
Ġoverra sket
Ġferie bolig
Ġudgang en
tere st
Ġf ad
ma e
ĠSp litbagsÃ¦de
itt le
Ġstof fet
F ull
f Ã¦
ĠN ov
lever and
Ġvari anter
ĠbegrÃ¦n se
Ġtema e
K ont
HOL D
Ġskar p
fli x
ĠN avne
KNOW N
che ster
tic al
Ġkor n
ad ditional
ped i
Se e
Ġep is
k asser
Ġadsk iller
Ġfal ske
Ġfe min
ĠpÃ¥ krÃ¦
Ġof fer
st atte
Ġhj alp
Ġla k
Pro vider
Ġh or
Ġco ol
Ġrob ot
Ã¦l k
Ġtemae r
le ksi
on n
krÃ¦ ftelse
Ġnet vÃ¦rks
ĠVÃ¦k st
Att ribu
Ġerfar ne
ri ca
Ġgra vide
Ġsp ro
Ġn ation
Ġdisk utere
Ġlokal plan
Bil lig
Ġse jl
ĠCent re
ĠS qu
Histor ical
Ġfem te
Ġp us
aller y
Ġforb rÃ¦n
ri l
w ell
Ġsam les
Ġdag penge
Ġpi zza
Ġrepar ation
Ġa vailable
v ag
ĠUd valget
Ġopfor dre
ĠA x
vari ant
h m
Ġsmukke ste
cep tet
Ġpro filer
S Ã¸g
Ġre ference
Ġ q
ĠselvstÃ¦n digt
Ġven dt
ĠIn dstil
Ġopdage lse
ĠbegrÃ¦n sninger
Ã ±
ĠT DC
ĠK amp
ĠG L
ot her
ma tion
ĠL ise
av ail
or tet
op tions
yl d
ĠV alle
e ligt
f Ã¸dte
Ġvanske ligheder
d og
Ġch ancen
ĠJe rn
ight s
dom me
ĠÃ¦g ge
W ORD
yn de
fu sion
in di
Ġskabe s
ĠM ode
Ġenor me
Ġ{ },
Ġbl Ã¸dt
Ġy oga
r d
ĠT jek
ĠMÃ¸ lle
ĠSe arch
Ġomfat te
ĠFa x
& #
gul v
Ġklub bens
Ġapp ar
Ġ18 00
Ġregistre rede
Y D
Ġvo or
ti que
fi cer
Ġvoks ende
ĠSo und
Ġma in
Ġid rÃ¦ts
ĠB uk
Ġeffe ktivi
sh irts
On sdag
PROM PT
Ġhil sen
M T
Ġstart spÃ¦rre
Ġaf bry
ĠN ote
Ġto uch
ue de
Ġfa ktiske
ĠF ashion
ri sik
Ġkunst ne
Ġtw o
W F
ĠbÃ¸rne have
Ġdis play
Ġw indow
Ġbe teg
bo ur
prÃ¸ ver
ĠlÃ¦se re
Ġsw imming
Ġhal ve
ose ks
ĠL ink
ĠÃ¸de lÃ¦gge
Ġg re
ks pejl
posi t
Ġteknolog ier
show All
ĠvÃ¦rdi en
Ġj us
ne l
od a
see More
cla zz
lowe stMetaPrice
tracking Tree
highestMetaPrice Display
Content Ids
avg Historical
Supplier Direct
showAll Rooms
sty kker
ĠN yd
Ġevent s
Ġg Ã¦ng
ĠGe orge
Ġtil lids
De c
Ġbeg rebet
Ġlig gende
Ġhove dk
F ryg
y k
reg net
Ġde les
de rede
ĠmÃ¥ne ds
}, {"
Ġk vik
h jer
Ġgar der
= >
ĠAll Ã©
dra gt
ĠÃ¸konom ien
ĠtÃ¸r t
Ġsm ide
Ġre da
resulta ter
Ġkollegae r
ab at
ĠbeskÃ¦f tiger
ĠA ssist
ĠÃħ R
Ġst aff
Ġvit amin
Ġmel de
Ġfri st
ri um
sÃ¦tte lsen
f os
appar ater
Ġsn it
Ġma de
C a
ur ren
Ġmu ch
Ġd ress
ĠKvinder s
trÃ¦ ning
ĠB ak
ĠR um
k Ã¦r
lÃ¸b s
U C
36 5
2 10
ĠOver sÃ¦t
Ġhy per
Var me
ĠJe ppe
Ã¸n s
ĠJ or
ĠÃĺst jylland
AL E
ud get
y es
ĠÃ¥b nes
Ġkomplek se
kÃ¦ mpe
ĠBer n
ĠtrÃ¦ de
ĠLi gesom
sÃ¸ e
Ġfakt um
Ġfri tid
Ġop daget
Ġfrivil lig
Ġe der
Ġfysi oter
Ġc la
ma te
ĠLi fe
Ġal mene
ove d
Ãħ r
Ġultima tive
Ġdebat ten
Ġsp anske
e cu
Ġren gÃ¸r
sik re
Ġtrus sel
ed s
ĠmÃ¸r kt
m ont
Ġud fol
ru l
ons ul
Ġi lt
Ġsv ing
Ġop stod
ĠFin land
PASS WORD
Ġbe styre
ĠkÃ¦ ledyr
ati vitet
stemme lser
ap s
Ġfolke skolen
Ð ¹
ĠTra vel
con om
ser ve
ĠopmÃ¦rksom me
c lick
Ġkommuni kere
ich ael
Ġover komme
ĠCam illa
ĠsmÃ¥ t
Ġhvor ledes
Ġopleve s
Ġferie boliger
Ġf rede
af stand
Ġly tter
Ġfor delag
ĠB T
Ġst res
ti p
Ġkron isk
Ġin forme
ce des
Ġkvadrat meter
Ġn atte
Ġhel lig
Ġfjern b
u sen
vÃ¦r ktÃ¸j
à ¹
Ġtri ves
Ġman y
ĠArk ite
ĠWash ington
ĠW ith
j k
ra ler
sÃ¸g te
ĠSE K
A ir
ockt ail
Ġk ult
Ġstil lingen
ĠRegn sensor
ĠB io
Ġtilt rÃ¦kke
sm ission
ĠG ymnasi
Ġklin isk
ff el
Ġapote k
Ġviden skabelige
ang reb
i di
s li
Ġet n
Ġetable res
plig tige
ĠCom fort
Ġele vat
Ġrep are
ĠlÃ¦ge middel
Ġli tt
Ġnavn lig
ĠI kast
Ġtemperat uren
Ñ Ī
Ġri d
Ġi st
Ġindkvar tering
ĠPrem ium
Ġde but
Ġfast sÃ¦ttes
Ġeffekt en
ĠsammenhÃ¦n gende
k ry
be f
SÃ¦r tilbud
bru gt
M ens
Ġma ter
Ġsammen hÃ¦nge
in av
ĠMo der
ĠF U
al len
Ġopd ager
and o
ER N
Ġordin Ã¦re
Ġd ocument
ĠFor lag
sk ontrol
ĠC ru
Ġg lemmer
Ġk amme
O fte
H P
ner en
Ġsm age
Ġstor m
Ġmodel len
Ġch o
Ġover v
Ġmod ul
ĠN OK
Ġm iner
c ause
ĠnÃ¸je s
Mand ag
Ġm ix
fo x
ĠSt ruer
Ġf rÃ¥
ĠDet ail
US D
T v
orte fÃ¸l
forvalt ningen
ĠAn den
an satte
ĠSta te
Ġmus lim
Ġhemme lige
Ġare a
Ġkomb inere
ĠBill und
Ġoven nÃ¦vnte
ĠD ar
ĠRi ver
ok se
ĠE ast
ĠV it
ĠV id
Ġg lem
ĠÃ ¶
ĠÃ¥ re
Ġ Å¿
ĠA ren
sm Ã¦gler
ĠSp ring
Ġinspire re
ĠEm il
ĠSax o
Vi de
Ġud v
Ġgen stande
Ġhypp ig
oner ing
Ġh ustru
for bruget
si sten
Ġkry p
Ġudbet alt
ĠV ED
Ġlide lser
Ġborger en
Ã¸rer ne
Ġfly t
ĠApartment s
ĠM ik
ste gn
ĠS ub
Ã ´
ĠÃ¦ ste
F ields
2 30
Ġp lu
sprodu kter
J un
ï ¸
Ġra mte
ĠSammen lign
ĠfÃ¦n omen
Ġfri end
s her
Ġvi k
Ġsin ds
h Ã¸
Ud over
Ġvand re
ĠA mb
bri ller
ro b
Ġstra f
Ġgen i
u sik
ch ar
Ġuger s
ĠE p
ĠÃĺst rig
h ow
f Ã¸dt
Ġten nis
vid de
Ġvirke lige
Ġfig urer
ĠWik ipedia
pro jektet
Ġ15 00
Ġreserva tioner
ĠDis claimer
Ġk rÃ¦n
L ink
Ġf jen
Ġkat astro
Or dre
ĠI shÃ¸j
Ġar me
Ġvi b
Ġbade vÃ¦relser
Ġv ent
Ġessen ti
OT O
Ġp au
Ad dress
Ġfar vel
age lig
ĠG as
n yt
Ġforvalt ning
ĠNor den
ach ing
ĠV all
Ġper formance
ĠmÃ¥l tider
Ġregering ens
ĠFeb ru
fi ed
Ġre dige
T irsdag
tran s
ĠLand brug
Ã¦n kt
Ġoverord net
Ġsik res
ĠL oc
te ms
Ġtil meld
Ġb ryg
Ġvidere gÃ¥ende
dri vende
Ġbort set
Ġomkost ningerne
ĠH ud
Ġover f
Ġsav ner
Ġkonto ret
St art
ĠEx plorer
B el
ĠF jord
ĠSam t
Ġk Ã¦lder
ĠsÃ¸ gte
Ġmas s
ven ligt
k ore
ĠdrÃ¦ bt
ĠC ross
Ġgra fisk
ĠS Ã¸rg
Ġud lejning
Ġspe jl
ÑĢ Ð°
Re view
Ġsk ibe
skrive s
Ġ Ñģ
ĠMikke lsen
Ġlang sig
Ġmag ne
Ġtilbud t
sm Ã¦nd
Ġdetalje ret
Ġdel vis
Ġover n
ĠT ang
Ġ gel
Gennemsnit lig
Ġjob s
andina vi
Ġskab te
Ġvit aminer
ĠV ind
lÃ¦ ger
Ġsove vÃ¦relser
Ġevalue ringer
des ig
Ġattra ktioner
lass isk
ĠAqu a
Ġer statte
Ġaf kast
ĠF antastisk
Ġeksklu sive
ĠU K
Ġvel fÃ¦rds
Ġfa cili
k Ã¥l
Ġg lim
h od
Î º
b ul
ĠK ey
Ġpri ce
at sen
L Ã¸rdag
n am
ĠSm ith
sele cted
vir ke
Ġur l
ĠK ig
ĠHan del
SK AB
je l
regn skab
ĠforstÃ¥ s
Ġs org
Ġli cens
Ġny tte
ulle t
Ġg lip
Ġfinan s
c co
Ġet t
Ġkandid ater
Ġform Ã¥r
ĠAm sterdam
bo y
ĠHer udover
Ġkon sul
sti ger
Ġref lek
ĠFran ce
ĠTi voli
Ġgennem sig
Ġopr indelse
ĠbedÃ¸ mte
ĠSh ow
k ene
Ġdi ameter
Ġout lets
ĠSk j
Ġnum re
mÃ¸ ller
12 5
Ġce lle
Ġav ancerede
ĠAn der
mme re
Ġ Ã¸r
lt ra
Ġc en
Ġvid ner
ĠspÃ¸rge skema
cep tion
Ġhalv del
Ġlang som
ĠE ge
til lÃ¦g
Ġforud sÃ¦tter
ĠA udi
sÃ¸ gere
ĠvÃ¦re lses
ĠFl or
ĠG ladsaxe
res ter
b and
hÃ¦ng ighed
om b
Ġaner kendelse
ĠJu lie
ĠH otellets
D EN
ï¸ ı
ĠsÃ¥dan t
St or
Ġmaksi malt
forb inde
avail able
Ġtyn de
ĠvÃ¦rk sted
un gen
Re staurant
ĠFil men
ĠSt Ã¸
Ġaller gi
Ġ[ [
ĠSof ie
\"\/> "}
Ġamb iti
In tern
T ro
e vent
sende lse
Ġtra vl
Ġaftens mad
met oden
Ġin frastruktur
ug ler
j our
Ġsu re
Ġbebo erne
ĠM T
Ġop bygning
St ock
Ġpro p
Ġforb udt
Ġsupp lerende
on line
us ind
c s
Ġstrateg isk
ĠdrÃ¸ fte
yg gen
h of
ĠDis ney
Ġfinansie ret
ast ron
lever ne
], [
am per
ĠgÃ¦ng se
ĠV ik
lation s
ĠÃħ ben
ĠT Ã¦nk
stil lingen
ĠP rag
Ġdol lar
ret urn
Ġmel der
Ġp ak
sk omp
ĠLa ur
af rika
Ġtilslut tet
ĠprÃ¦sen tation
auf fÃ¸r
Ġr Ã¸dt
Ġ( +
ĠD NA
Ġad resser
Ġno ter
ĠkÃ¦r ligheden
Ġc are
Ġt allene
ĠN ak
Ġerhvervs livet
Ġd Ã¥
us s
ĠR ibe
Ġover tage
ĠkÃ¸ret Ã¸jer
Ġhvid lÃ¸g
kur sus
Ġbyg ges
Ġanvende lsen
ĠFrederik sen
Ġte lt
Ġis olering
n ye
ho sp
On line
ĠLeg al
Ġform ue
Ġben zin
Ġreg ning
ĠM ind
te in
K omp
cen teret
Ġgrund ig
ĠSk agen
ing ent
Ġfor fÃ¦r
Sam tidig
Ġvaret age
Ġpri sbil
M P
ĠG ir
Ġinspi rerende
Ġbor de
ste mt
ĠbrÃ¦n dstof
Ġkal k
dsp il
h ul
multi PartnerRoomGridWidget
single PartnerRoomGridWidget
ĠÃ¸ ges
L o
Ġufor pligtende
Ġorgan ise
Ã¦dago ger
ister ne
sp rin
Ġa way
da hl
ĠS ant
k vens
Ġpatienter ne
he ad
ĠPrin t
Ġind rÃ¸mme
Ġmis tede
Ġkal orier
Ġim age
d nings
ĠV VS
sdÃ¦k kende
ange l
B en
ĠlÃ¦ ses
Ġl ot
ar ma
gig anten
yg ning
× ľ
Ġteg net
produ kt
ĠR uder
ssy stemer
Ġu sed
ĠsÃ¸ gt
o ung
Ġfakt a
xe lles
ver dens
ĠbekrÃ¦ fte
e f
Ġmedier ne
Ġta ber
Ġane lse
m rer
e rs
Ġkan al
Ġalu fÃ¦lge
Ġleve de
g iske
Kri mi
ĠParkering ssensor
ĠFor uden
Ġom tr
Ġirri terende
Ġch amp
Se rie
Ar k
FÃ¸r st
Ġrisi ci
Ġreg ulering
ch a
Ġoply ses
un ity
le menter
Ġaner kendt
Ġbek lÃ¦
rÃ¥ der
Ġhorm on
ĠA a
ĠYder ligere
ĠÐ ½
J ul
Ġan tage
Ġw a
Ġindstil let
ĠtrÃ¥d lÃ¸s
all s
Ġpro perty
AG E
ĠS AM
arbej derne
Ġelekt riske
hold te
Ġudford rende
Ġth umbnail
Ġafsl Ã¸re
ma li
Ġdel taget
ĠhÃ¥r tÃ¸rrer
gro und
le deren
Ġfor rige
ĠOp lysninger
ĠVe jen
Ġmarke ret
Ġlog ge
f yr
Ġter api
ĠAme rican
H O
Ġforbru gere
ĠT u
ĠKla us
ĠM eg
le gne
ĠEurop as
be hov
Ġsv age
Ġr yt
ĠMex ico
ud by
red skaber
Ġfar ma
tekn ologi
Ġsam vÃ¦r
Ġtekni kker
H old
Ġt ung
sk an
G enerelt
c it
ĠNew s
ĠE j
Ġ3 65
Ġfart en
ĠM oms
ler s
ĠSt Ã¸rrelse
sk u
ĠskrÃ¦dder sy
ĠSe rier
Ã© t
Ġsy net
Ġbetrag te
sfor hold
Ġforsig tigt
Ġudtale lse
E lekt
Ġdri kker
ĠTe x
Ġ$ ("#
up pe
he s
Ġsyge hus
spro blemer
Ġredu cerer
av y
Ġseks uelle
ĠChristian sen
H and
ĠF irma
Ġaf sÃ¦t
mae r
yn der
D AN
Ġide el
con d
Ġkoncer ter
ĠW ell
te kster
Ġtje k
Ġind by
Ġitalien sk
a way
ĠrÃ¥ der
An d
ĠoptrÃ¦ der
smed lem
Ġjurid isk
kl us
Ġdrikke varer
s ur
ĠV Ã¦gt
ĠL ib
ĠM r
j ysk
Ġudvik lede
Ġdol lars
Ġudl Ã¦ndinge
Ġude fra
Ã¦n de
oli s
Ġaf hen
Ġt ast
Ġgra fik
ĠAL T
k as
": -
Ġsty res
ĠStat ens
st ationen
Ġ% .
ĠMa il
Ġover holde
Ġch ok
Ġafsla ppet
ĠB ladet
ott om
F C
h ide
ĠbÃ¸rnene s
Ġbeg run
b ror
olog ien
ĠJ im
18 0
ĠSm Ã¥
ĠBy en
gr Ã¸n
Ġgu i
Ġkomfort able
Ġreg net
hove d
ĠlÃ¦ng st
Ġbekym ret
Ġw ar
Ġind kom
Ġt oner
Ġfor holds
Ġforvent ning
ĠF Ã¸
ut ure
Ġfli ser
ĠBl omster
H al
Ġrek ord
Ġlar ge
Ġb old
ĠGra m
Ġtje kker
Ð ¶
g ument
Ġn ul
Ġpar alle
lan s
tu res
p rop
Ġk aster
ĠStati stik
ĠH jÃ¦lp
Ġtidsp unkter
ĠStÃ¸v ler
ĠSil ver
ĠselvstÃ¦n dige
ĠbelÃ¦g ning
Ġassist ance
ut t
ĠH ow
Ġgennemsnit spriser
Ġanbefale de
b ibliote
tige de
ĠG PS
ĠM all
r und
Ġor der
ĠG et
ĠR un
Ġf it
ĠAl m
ĠGam mel
lin je
ĠMar y
Ġl ong
ĠK le
ĠR ikke
Ġstandard vÃ¦relse
Ġst j
ib ar
Ġvel be
M ay
alie r
re ady
ul in
bygge ri
Ġve jer
ĠnÃ¦r mer
ymna sie
Ġsp ot
n ar
Ġg ad
Ġde stin
Ġre aktioner
Ġe vnen
ĠF lat
ĠÃ¸ rer
Ġfl ok
en ce
tic le
k irke
Ġp umpe
Ġt Ã¥lmod
Ġd l
Ġhvor ved
ul Ã¦r
Ġty k
ĠP artner
Ġlov givningen
In dtjekning
Ġoli ven
Ġw ant
n ov
min ar
Ġbespare lser
Ġ 000
ko der
Ġcom fort
Ġopti mere
si t
ĠSe a
ĠFor um
Ġfort jener
klar ing
ĠArk iv
Ġop fat
rit z
Ġod ds
i ser
lej ligheder
Ã¸j le
Ġre v
kl Ã¦r
Ġklo ak
Ġsm all
ĠfortÃ¦l linger
Ġven tede
Ġbevidst hed
is ning
oten ti
sm Ã¥de
k ater
ver t
ĠAlbert slund
Ġforhind rer
le ft
ĠgÃ¥r den
Ġsk it
Ġsp ist
giej ne
Ġr Ã¸re
k lima
Ġp Ã¦ne
Ġkunde tilfredshed
Ġkost tilskud
ĠD rift
mÃ¸ der
Ġvarie ret
P en
Ġpar at
Ġud taler
Ġmed b
Ġregistrer ings
s orden
dom men
ĠYou Tube
Ġskade lige
Ġtus inde
Ġser verer
c et
N G
Ġeftersp Ã¸rgsel
d d
ĠPRI S
Ġord ningen
ĠD A
g ren
ĠAl tid
Ġfa ir
Ġv ort
j ak
stit utter
ĠPro gram
sti dspunktet
b rev
Ġmellem rum
Ġdoku mentere
x ic
ĠAl ligevel
Ġra ce
ĠT oe
Ġindhen te
ĠGam le
Ġsandsyn lighed
ĠNÃ¸rre bro
ĠpÃ¦dagog isk
Ġindt Ã¦gt
Ġsig te
ĠSch weiz
Ġkonfli kter
Ġnor sk
Ġd vd
vand s
se ri
ĠGeneral forsam
Ð ¿
rÃ¥ dets
Dan marks
ĠUd mÃ¦rkelsescertifikatet
ĠC ra
ĠD ort
lÃ¦ ne
F L
Ġexpe rience
ĠM os
Ġweb sites
com s
u tion
Ġfej re
0000 0000
ĠPor no
S ci
ĠTra fik
fe ktion
Ġred skab
ver set
ĠAltern ativt
ĠE dition
Ġdag tilbud
p ille
ra tiv
ĠCh at
Ġfro st
Ġsofa en
Ġd av
ĠAn t
ĠIn stal
pul ver
Ġsp iste
Ġmed fÃ¸r
Ġkra ftige
Ġgene rationer
ĠF is
ĠEx cel
am ar
Ġblodt ryk
f ang
Ġz o
Ġ ler
Ġu kendt
AR CH
Ġelever nes
ĠK lasse
Ġhoved pine
ĠforstÃ¥ et
Ġs gu
ĠtrÃ¦ kkes
Ã¥ le
Ġlang var
ill s
ĠInd farvede
Ġrest au
ful gt
kre ds
Ġeffe ktivitet
ĠEle ct
ĠChrist ina
ĠBe skÃ¦ftige
ES K
Ġbeste mmelse
ĠgennemgÃ¥ et
Ġklin ik
ĠY our
ĠSt and
ĠA BS
g am
? .
ct ure
Ġdy bere
tis me
Ġund skyl
ĠB red
Ġkal dte
ĠK lar
Ġb it
ĠAd ministration
P ress
ĠDe c
byr des
Ġop hÃ¸r
ĠSte ph
Ã¦r ket
f inger
S et
ĠHver t
ĠÃĺ r
Ġhim len
asin oer
ĠD ri
in dk
Ġhum or
p ige
amp ton
Ġlevering stid
sÃ¸ gende
Ġkonstru ktion
ĠfÃ¸ res
c ur
Ġan al
Ġbygge riet
MAT CH
p il
op gave
ĠK ry
ĠOrgan is
ecu tive
den hed
IV E
ĠP M
Ã¦r k
Ġtra iler
Ġy des
Ġregel mÃ¦ssigt
Ġop p
yg ger
ĠMo z
ĠVester bro
ĠFor skel
ali stisk
ĠAt lan
Ġfor siden
Ġo rientering
ĠM ol
stil le
ĠR ol
ĠprÃ¦m ie
Ġblu etooth
Ġco uld
ĠsÃ¸ en
m Ã¸bler
Ġb Ã¸l
Ġpi gerne
Ġman i
lÃ¸s ningen
Ġbegiven hed
Ġpar terne
ĠVer dens
hal len
Ġhon ning
ry l
gan te
Ġover sv
Ġop fÃ¸re
99 9
Ġop bygget
ĠivÃ¦rks Ã¦tte
Ġ2 20
grÃ¦n se
Ġbenytte de
ĠFor mÃ¥l
Re gi
Ġhvor pÃ¥
Te xt
for an
Ġad d
Ġunder skud
Ġc lick
Ġi hjel
ĠLige ledes
Ġar v
li x
P ol
ĠM otel
Ġmus li
om as
or der
ĠT rip
ĠMe st
Ġen ighed
ĠI SB
Ġrej st
Ġud gift
Ġkvinder ne
st k
P op
Ġformid ling
Ġbe holde
Ã¦ der
Ġbe tegne
d le
Ġsn or
F R
ĠIntrodu ktion
Ġkonsek vens
Ġop kald
ĠSch ool
Ġfjern varme
pe rat
Ġvaske maskine
Ġbegre ber
Ġa partment
Ġdesign s
Spe cial
la dning
Ġf yn
Ġbe stÃ¥
ĠD IN
Ġbekym ring
RI G
go dt
Ġom hand
ã ĥ
shop pens
Ġnyt tig
Ġfor dy
ĠQu ick
splan en
Ġg ardiner
Ġidee lle
vÃ¦sen et
M ax
Ġvidunder lige
t form
far ing
gra v
men d
Ġrapp orter
ĠS enere
Ġreage rer
Ġpotenti elt
Ġrime ligt
ĠPer fekt
Ġsyn lige
bili ty
Ġan kommer
Ġtilbud s
Ġvindu et
re l
ste res
ĠUd betaling
Ġproced ure
ĠPortug al
Ġop delt
S ort
ĠlÃ¦r te
net h
F Ã¸l
ĠSo ft
Ġaf prÃ¸
h vid
Ġta kke
Ġser vere
Ġkompeten te
Ġbrede re
Ġforbe redt
Ġteg ninger
ro ne
Ġle s
Ã £
Ġt ank
ti ler
ĠR id
vÃ¥ gning
der iks
Ġs ogn
ss ing
res h
AT IS
pro perty
ĠR oman
Ġdiagno se
ĠW a
mb Ã¥nd
C V
Ġsammenlig n
ĠÃ¦gte skab
O CC
ĠlÃ¸ ses
gr unden
Ġud mÃ¦rket
Ġudvik les
ĠRa pport
ĠComp any
Ġtyn d
sfor slag
sm iljÃ¸
h orn
Ġbog sta
M icrosoft
Ġbe rÃ¸
Ġtil mel
ĠAr ch
Ġsammenlig ner
stre am
ĠBrÃ¸n derslev
ro x
Ġu alminde
ĠM is
f ugle
kk ener
ĠGo od
ĠT and
T lf
vÃ¦re lsen
Ġbe autiful
v Ã¦n
sti kker
re laterede
Ġdenne s
ĠC are
C re
ss a
ener gi
ok al
c ore
ĠBru xelles
ĠS AS
met re
Ġtal ler
ĠL ong
ĠfÃ¸ds len
ure auer
Ġgi ven
ĠnÃ¦ vner
ĠK y
Ġib landt
Ġs ed
Ġvel ly
ĠreprÃ¦sen teret
b rÃ¦t
ĠvÃ¥ gne
ĠsÃ¦de varme
sm anden
r Ã©
ĠAn meldt
Ġind ire
ĠSelv fÃ¸lgelig
EN DE
Ġstat sbor
Ġmob ili
Ġkri tiske
ĠU V
OR G
Ġever y
Ġg un
Ġser veret
ĠTekn ik
un ic
Ġsk or
ĠRy ger
skabe lig
Ġfunktion alitet
Ġpo ker
Ġsyste matisk
Ġal deles
P lan
Ġle gi
d in
ja x
Ġforfatter en
Ġle asing
Ġs ale
ĠD ra
... ]
Ã «
som ware
Ġmateri alet
Ã¦ ledyr
Ġtal rige
si des
til ladelse
ck y
ĠRej sende
Ġservi cen
Ġp ot
sik on
Ġspar ring
Ġmods at
Ġfremme de
âĢ İ
f Ã¦lles
S G
ĠforhÃ¥b entlig
Ġretning slin
Ġanti bio
Ġroman tisk
Ġer ind
k Ã¸d
i oner
sp ark
ĠMar ke
ĠRe vision
Ġen dt
S ol
ro en
sÃ¸ ges
Tag s
Ġkok os
Ġp Ã¸
orer ne
s ma
ĠP op
N ot
ĠRes ultat
Ġfrem byder
ĠAd gang
200 5
ĠISB N
lses be
Ġ19 60
fice rer
w s
Ġtil meldt
Ġsand hed
ĠlÃ¸ fter
ĠRing kÃ¸bing
Ġstu dere
Ġca fe
Ġ5 000
Ġo l
Ġvel komst
ĠFor fatter
ĠB Ã¸
ĠÃĨ ldre
Ġgrund lagt
ĠSk in
condition al
ĠR ou
Ġ3 000
Ġreligi Ã¸se
Ġbud skab
ĠC N
d ll
lÃ¦ gen
Ġsk udt
due r
ĠHvil ken
for uren
ens yn
Ġbest od
dÃ¦ kning
opleve lser
ĠJohan sen
ĠÃ¥r hus
ĠD Ã¸
or ama
ĠHe den
Ġop fÃ¸lgning
reg ner
af fen
Ġsv amp
ĠtÃ¸r ret
Ġa ppen
Ġmas ter
Ġhel dige
Ġb ug
S Ã¸ndag
Ġg ig
Ġkli kker
lis hed
Ġengage ret
ĠUd valg
Ġover holder
Ġufor ligne
Ġbe sid
Ġmedicin ske
sty rer
Ġv Ã¥d
Ġforl od
ly ste
Ġsik ring
Ġtan kerne
Ġ ï
Ġkvali ficeret
one rede
ĠLy kke
conditional Update
M idt
fri st
Ã¦n ger
Ġinstru menter
Ġmoti ver
ĠansÃ¸g ninger
im s
st olen
L ed
ĠH op
ĠIn stru
Ġfra vÃ¦r
Ġmod ne
Ġapp el
Ġresul terer
Ġi kon
Ġradi k
Ġfrem skridt
ĠT ren
Ġsing ler
Ġrob ust
og let
aria tet
Ġsy mbo
b b
ly mp
Ġty pen
Ġla mpe
O k
ĠSen ior
Ġtop karakter
kap ital
Qu ickly
Ø §
Ġ199 1
ĠÃ ī
00 1
ĠÃ¥r tier
Ġflad skÃ¦rms
Ġeftersp Ã¸rger
Ġter rÃ¦n
ĠT ina
B ox
ĠT Ã¥rn
Ch ar
Ġry kker
Ġtrafik ken
n ot
produ cts
tte re
ĠS H
Ġtil kende
Ġbetinge lserne
Ġhemme lighed
Ġb un
sc ar
kir ken
ĠB as
Ġra cer
alen deren
Ã¦t tet
num re
ĠtÃ¸j et
h ome
Ġci vil
ĠFÃ¦lles skabet
gÃ¸re lser
Ġlog istik
ĠKof angere
ĠColle ge
Ġi ld
For side
ĠÃ¸j et
sh uset
Ġkv al
ĠPla ce
ĠPar ad
Ġorg aner
Ġbe stand
Ġ2 30
ple jen
ĠI da
[ /
lÃ¦ se
D Ã¥rlig
Ġmedlem skab
ker Ã¸d
Che ck
Ġkv m
h Ã¸je
T or
Ġaff ilie
va k
Ġimple mentering
Ġbo x
M ARK
R ING
Ġser vo
ĠforÃ¥rs aget
ĠC E
Ã¦l ling
ĠN ap
ĠT ob
okument ar
Ġu sikkerhed
li ch
ĠM ateriale
Ġb Ã¸d
ĠM ak
ĠforÃ¥rs ager
Ã¥ ne
G ave
A ug
ĠD own
ĠEn heds
os y
[ '
Ġp asta
Ġind brud
Ġindire kte
Ġglim rende
H a
200 4
lever ings
ar in
red sen
ytte de
Ġinstru ment
ta tioner
Ġla ser
Ġskue spillere
ster s
Ġbl ue
Ġud form
ĠHil ton
sm yn
ĠY e
u let
ro gen
om kostninger
ST E
yl linge
vi sere
Ġex tra
ĠAd am
Ġbereg nes
ĠSu pp
Ġide en
Ġfritids tilbud
Ġdist ribu
Ġuniversi teter
Ã¦k ken
Ġom tale
it o
ĠK ontrol
Ġoverraske lse
Ġlandbrug s
fun ktionen
Ġt um
ĠÃ¸ velse
Ġd rÃ¥
Ġin f
ĠmÃ¸ bel
S ide
ga ards
Ð ·
ĠkÃ¸b s
ej ser
ĠJ et
ĠW ood
En g
ras ser
urren cy
Ġhenvende lser
u li
ĠDrag Ã¸r
Ġre search
be fal
w an
Ġs Ã¦nke
ĠVeg as
ĠPati ent
Ġvedt Ã¦gter
ĠForening ens
Ġavis en
Ġop sÃ¦tning
Ġproced urer
la gen
Ġun ges
g rÃ¥
lo ad
ut a
ĠprÃ¦ci se
ven tet
sc an
Ġaffilie rede
sm an
Ġhus dyr
Ġskil t
Che ap
Ġgod kendte
Ġfla sker
Î ¼
-------- --------
ĠsÃ¦ be
tr Ã©
1 000
sk olens
Ġdi vision
tter ne
la vede
Ġbestil te
ĠÃ¸de lagt
ĠF okus
Ġa viser
IN SE
CU RE
I O
d rup
Pakke tilbud
ĠSh oes
rÃ¸ je
Ġdi pl
ĠMort ensen
Ġkar akterer
Ġ10 5
Ġp let
Ã¸r sel
sb ille
en hed
Ġspe kt
Ġsam vit
Ġbli v
Ġniveau et
gy p
pl ant
skaffe lse
Ġsk rue
ola i
z h
H C
Ġpla der
Ġru der
Ġbibliote k
u alitet
Ġfrivil ligt
ĠGymnasi um
den for
Ġeg entlige
c as
Ġspeciali seret
× ł
fun gerende
Hje mme
P i
2 20
Ġmedvir ke
ĠK undeservice
lig ning
Ġkun ders
ĠFran cis
Ġligegyl digt
Ġye ar
Ġoven pÃ¥
smid del
Ġbeg reb
G ro
ĠL O
ĠJ orden
Ġg ader
ĠMarg rethe
T RA
ĠL ager
ĠA th
Ġth rough
ĠB rÃ¦tspil
af fel
Ġinde holdt
Ġtrus ler
ĠScan pix
ĠT own
ĠÐ ¸
ĠB ibe
ĠNet flix
Ġre alkredit
W V
ĠtÃ¦ ppe
modt ager
Ġomtr ent
Ġl an
ĠProfe ssion
ĠbÃ¦redyg tighed
Ġli k
ĠR oc
Ġhav n
ve rede
ĠtrÃ¦ffe s
ĠGrÃ¸n ne
Ġpas sion
1 30
ĠB ob
brud t
ĠAn meldelser
Ġr ens
Ġ| |
Ġbudget tet
ĠÃħb ning
Ġin n
Ġneder st
p al
Ã °
Ġna ar
Ġxxxx x
ĠPri ser
part en
ven til
ĠLÃ¸ kke
Ġf ib
Ġski bet
ĠH au
ĠL asse
Ã¦ ret
Ġnet t
ĠO R
Ġafhent ning
ĠHvor nÃ¥r
Ġgen an
kendt gÃ¸relsen
ĠSimon sen
ĠL an
s um
Ġind ledende
ĠsjÃ¦l dne
a wei
ĠâĢ İ
B ade
ĠThe re
Ġbet inget
Ġz u
Ġskj ult
forstÃ¥ else
Ġom givet
non ce
reg lerne
Ġalt ing
ĠÃ¦r lig
Ġaf holde
ĠFa ir
bet ydning
op enhagen
Ġud sÃ¦ttes
ĠG ruppe
Ġpas form
Ġhalv Ã¥r
Ġstran de
ĠvÃ¦r ds
Ġud lej
ĠSch midt
Ġuaf hÃ¦ngige
Ġudby dere
P oliti
cell ent
Ġdav Ã¦rende
ĠPri celine
Ġkrimin alitet
Ġp ink
Ġeftermid dagen
Ġop tion
j un
Ġemb allage
fo der
ĠÃ¸ gede
Ġsk ild
Ġsli d
re res
Ġw el
Ġmen ings
Ġdynam isk
ĠlÃ¥ se
ĠH ur
ĠB rown
Ġsp Ã¦r
Ġv ak
Ġbas ale
Ġpresse meddelelse
Ġsammens at
Ġst rej
INSE CURE
Ġstjerner fra
Ġdef ineret
K n
Ġforh Ã¸jet
Ġte xt
ĠbekrÃ¦ fter
Op ret
kker t
10 4
k y
an del
ĠG itte
fo od
for sker
ĠN ok
Ġf abri
Ġforet rÃ¦kke
ĠG lobal
sher pa
Ġfor Ã¦l
sn r
ĠT ab
ĠL Ã¤
ĠSyge hus
Ġ× ĵ
ig ten
ĠTIL B
for handler
ĠFar um
pper ne
Ġforb inder
ĠT ip
fÃ¸r ende
ti ker
K unst
kla p
S varede
Ġval ue
ĠG ame
Ġke r
ĠIn novation
ru de
10 9
Ġb rem
Ġandel s
Ġm alet
Ġi tems
b unden
ĠvÃ¦l dig
ari at
Ġkob ber
Ġm Ã¦g
ali stiske
y delse
sp Ã¸rgsmÃ¥l
lowe en
Ġb Ã¸lge
S en
bet ale
Ã¦n dende
ATUR ES
h at
ĠKommun al
f x
sp oli
ĠL LC
Ġver sioner
k alender
sm Ã¸det
kt at
ĠÐ ¾
Ġhand len
velop ment
Ġfor Ã¸
Ġpar la
ĠP ul
Ġspeciali ster
Ġfleksi ble
Ġsp ins
Ġele ven
Ġattra ktiv
Ġmang lede
ass ad
Ġskil sm
se ks
SE ARCH
pi ger
bet Ã¦ndelse
Ġag gres
ĠkÃ¸ res
DR EN
sel f
ĠA ND
B a
Ġskrift lige
Ġpas sager
ĠjubilÃ¦ um
Ġafsl Ã¸rer
Ġk of
, ...
Ġbag siden
ĠM Ã¥let
ĠansÃ¦tte lses
ara tet
B EJ
Ġon de
S eneste
Ġretur ne
ĠG las
Ġopbe vares
Ġ19 89
enere l
strÃ¦ kning
Ġkvi ttering
Ġl os
Ġudarbej des
Ġw or
A X
Ġforretnings rejsende
Ġb is
Ġopvaske maskine
Ġhovedst ad
Ġforb live
N ye
ĠIn c
Ã¦vn t
ĠEn gel
/ ?
gi o
ĠS ab
ĠM arts
Ġs od
Ġdist rib
un ikation
Ġp igen
Ġbal kon
Ġtil gode
ĠF ej
ĠbesÃ¸ gt
Ġla tin
ĠLeg o
ĠstÃ¸ ttet
Te kn
ĠColle ction
D on
lik op
Ġhospit alet
ĠK rog
Ġinddra ge
Ġdra ma
Ġb undet
ĠAn lÃ¦g
Ġex ten
ĠResulta tet
ali seret
ogra fer
ĠVi be
Ġlyn lÃ¥s
oc o
Ġind sk
Ġpar fume
Ġkre ativ
FE ATURES
Ġende ligt
Ġmist anke
ĠCh ic
Ġli m
ĠD Ã¦
Ġynd ling
fÃ¦r en
Ġkvar ter
lin jen
Ġsty rer
Ġsyn ge
yn t
E m
pe ci
Ġf low
sam fund
Ġmar ker
bo urg
Ġhjemme lavet
Ġf lade
Ġfine ste
Ġbarn s
aba sen
ĠKommun ikation
ap per
af il
stand ard
forening ens
Ġmar gin
sk onsul
ĠS Ãĺ
Ġarrange mentet
ĠE asy
Ġk ing
Ġhoveds ageligt
Ġkli p
Ġer klÃ¦ring
Ġs verige
B Ã¸ger
vÃ¦r d
Ġbatter ier
ÃĨ L
Ġkre ativitet
Ġdu kke
Ġlager status
Ġ= >
ĠF IN
Ġpopul aritet
Ġopdage de
ag nen
Ġfamili ens
ĠÃĺ vrige
ĠBirg itte
Ġforberede lse
ĠklÃ¦ de
Ġsp sk
p Ã¦dagog
Ġb reakfast
ĠBM W
one y
99 5
Ġlu gt
art h
Ġsand heden
ĠFor m
Ġunder holdende
Ġfris Ã¸r
10 5
Ġen den
ĠmÃ¥l gruppe
ĠK am
Ġopret ter
Ġvide oen
Ġbu tiks
pro cent
Ġst am
ĠFor skning
Ġoprette lse
Ġfremad rettet
y ring
M obil
amen te
Ġspiller ne
Ġens artet
Ġeksam ens
ĠKommun en
Ġsm i
Ġuniversi tet
Ġru g
S yd
Ã¸d sel
re la
mo se
Ġre el
CH IL
Ġstrateg iske
ĠimÃ¸de komme
ik o
Ġl omme
Ġdren gene
ĠgÃ¦l de
ĠSol rÃ¸d
Ġst rid
lan ders
Ġan gÃ¥ende
Sid ste
ut her
ori et
give lserne
be vidste
ĠS oph
R L
ĠGe org
B M
Ġsli p
ta ske
ĠL atin
for skel
os h
ĠÃ¥r rÃ¦kke
Ġbri ller
Ġdat abase
ĠAller Ã¸d
Ġbehandling s
ĠprÃ¦sen teres
ĠÃ¸ e
und ne
Ġpsy ko
T ip
serva tioner
Ġmel dt
Ġgry de
O ff
ĠV or
Ġvare huse
ĠEn gelsk
S w
ĠO ktober
Ġe ss
ĠD SB
ĠFor mand
11 1
Ġefter lader
ĠD ate
ĠBo x
ĠFri is
ĠM ate
ĠInd til
Ġbo ks
Ġud sty
Ġe lite
ĠCa fe
ĠD J
F O
ĠFor sk
ĠW ork
Ġsam spil
ĠusÃ¦dvan lig
Ġrestaurant en
ĠRich ard
st ur
Ġnum ber
Ġh obby
ĠSne akers
Ġbus sen
ĠnÃ¦r liggende
Ġs on
pan el
ĠPla za
p ane
ĠA tt
Ġvand lÃ¸b
Ġtri st
Ġp letter
Ġbred bÃ¥nd
Ġkem ik
Ġforb ry
Ġdi am
ĠT ar
Ġkomp li
Ġta sker
sk atte
D ET
ĠF lex
oto rer
AR E
fyl dte
Be liggenhed
Ġudb redte
Ġind le
ĠK re
ĠD ynam
: -
ĠS ign
Ġli tra
Ġsygeplejer ske
Ġop ad
R ub
ĠdÃ¸ mt
Ġch ange
Fol k
Ġo dense
sk l
ĠC ro
ta lerne
Ġud skiftning
S a
reg ister
sfor lÃ¸b
Ġsi tet
sk yttelse
Ġac cept
ste g
Ġsc reen
Ġbor n
Ġve ter
su ger
ĠUni sex
Ġindstil le
sp a
ĠM att
ĠIn dk
ĠStat us
me kan
Ġtemperat urer
Ġkomb inerer
Ġprin ter
Ġk ali
Ġkomfor tabel
Ġtradi tioner
Ġg ame
Ġogs aa
Ġudarbej delse
Ġs ogne
land ing
R ow
ac o
Ġforfat tere
Ġmed tage
line s
pen dent
Ġperfe ct
in st
Ġstrategi e
ĠO range
m useet
Ġer nÃ¦ring
Ġc lose
Ġor gas
ĠfuldstÃ¦n digt
antas y
il je
Ġne xt
me rede
ab it
Ġplan lagte
Ġb andet
ĠY oga
Ġopleve lsen
t ri
ule res
b rid
ĠA z
ytte lses
Ġseri Ã¸st
Ġtom me
Ġb re
ĠanlÃ¦g get
Ã¥n det
s gaard
ĠfrÃ¥ n
Ġsti ftet
Ġom taler
Ġstuden ter
F antastisk
ap os
w ord
ĠD re
k yn
CHIL DREN
ĠnÃ¦ sen
Ã¦ ppe
Ġp ig
ke rede
ĠF rid
Ġsyn ger
Ġkonkur s
Ġscen ar
li ca
ĠgÃ¥ tur
Morgen mad
mme de
Ġunder lagt
spro grammer
ĠstÃ¸rste delen
Ġfe sten
ĠAlex ander
Ġinklu siv
ĠH art
book ing
Ġparti et
Ġeksper tise
Ġinstru ktÃ¸r
Ġover fÃ¸re
slÃ¥ ede
ĠBibliote k
Ġvid ne
Ġav anceret
ĠAlle rede
us se
h d
u tes
Attribu tes
Ġde aktive
ĠH unde
Ġb ir
ende re
Ġaf gÃ¸relsen
ĠN ick
Ġej et
Ġfe ri
Ġen heden
Bil ling
L Y
Ġf rig
ali st
ĠhjÃ¸r net
Can celon
ĠCon ne
Ġind byrdes
Med lem
ĠT ommy
Ġw ater
Ġdagsorden en
Ġre habili
ri get
Ġsil ke
ĠhÃ¥nd vÃ¦rk
Ġforhand linger
Ġnyt tigt
ĠP ink
ĠlÃ¸ ser
Ġjord bÃ¦r
Ġaf kla
ĠI llu
ĠS ony
Comp uter
unkt ur
ĠP ack
Ġstrategie r
ĠG reat
k lo
ĠM Ã¼n
Tic kets
ĠFil ter
Ġfo den
ĠLe if
menne ske
Ġad min
Ġl unge
Ġst und
Ġgodkende s
ĠP otter
Ġhyl der
Ġn ight
S EN
new s
Ġenheder Denne
Ġbef ore
ĠAd minist
v agt
Ġf Ã¼r
Sam sung
ĠJ us
Ġ- .
Ġlog in
ĠT Ã¸nder
ven dte
Ġfat tige
ĠprÃ¦ mis
ion en
Ġme ga
Ġc am
ĠHeden sted
â Ĩ
ĠVest jylland
Ġproblemer ne
ĠW el
ĠKors Ã¸r
ĠBra si
Ġvel fungerende
skrÃ¦ vende
Ġ1 19
ur k
Ġop start
Ġbel Ã¸n
tik ken
holde ne
g lad
Uden dÃ¸rs
ĠGren aa
ĠZe aland
Ġd id
Ġli delse
ĠC afÃ©
ĠvÃ¦ v
has Full
Billing Info
Ġmon teres
ab org
Ġuhel d
Ġsk Ã¥ret
a ske
ĠSt orm
f od
ĠUd givet
le den
ĠgrÃ¦ ske
Ġsti m
P N
Ġlitt le
ĠS let
Ġro ser
t otal
vent ar
sfor mer
ĠÃ ¡
m ord
Ġs ve
ĠM ur
Ġstand ar
Ġeg ner
f ot
V M
Ġab sor
Re ferat
Fryg telig
Ġman agement
Ġdi fferen
Ġhundre d
Ġafhent nings
ĠCh ris
rÃ¦ be
fr ont
Ġre volution
Ġam at
Ġover fÃ¸res
rur gi
cy kler
ĠM ig
ig heden
Ġh k
ĠtrÃ¥ dte
p syk
rÃ¦ s
p ic
P ost
ĠT rine
Ġkonstate re
B Ã¥de
Ġben yttet
Ã ł
Ġ7 50
Ġtit le
sh ospit
av net
s lev
ĠU sed
ĠM IN
U NE
Ġejer en
Ġmed ic
ĠspÃ¦n dt
inde l
Ġformid dag
Ġc ode
Ġbe lastning
Ġan n
sb urg
Ġkontakt oplysninger
vÃ¦rdi e
ac tion
Ġventil ation
Cheap Tickets
st ab
Ġkonsek vent
Ġst abilitet
Ġper le
ĠP il
der i
oglet ag
rÃ¥ dt
Ġp ay
( {
Ġl anceret
ĠF on
D B
AN T
Ġkop holder
ĠÃ¸e r
ĠR ud
m isk
Ġgen re
sen tation
ĠS ind
w o
ĠsÃ¸ge maskine
Ġb ak
Ġfrem trÃ¦
Ġland sdÃ¦kkende
ĠH AR
ĠMobile Pay
Ġaf sat
Ġfal sk
ĠrÃ¸d der
Ġmyndigheder ne
b lo
Ġplace rer
Ġke ram
Ġa si
Ġfast sl
Ġjul en
Ġmen ingen
ĠLi vet
ille s
ĠT vÃ¦r
Ġk rÃ¸
Ġch i
Ġkul hyd
B log
D EL
st Ã¸d
pp ed
Ġtal let
Y T
ri me
Ġchar me
ĠDer til
jÃ¦l pe
Ġc ust
R a
op bevaring
Ġbestil les
lÃ¦g ningen
Ġom drej
l Ã¦ring
Ġkon fig
Ġmand lige
B N
ĠKomm ende
Ġre agere
Ġu ges
u ser
ĠprÃ¦ station
Ġag ent
prin t
ar men
Ġtraditione lt
ĠG ust
ar l
lys ende
ĠL ow
N Ã¥
ĠR ub
ĠF itness
Ġoffici elt
Ġsy mp
vÃ¦rdie r
Ġneder ste
ĠMenne ske
Ġre alitet
Ġu h
we en
Ġja zz
Ġele gante
Ġf amily
ens bÃ¦k
Ġsm ut
Ġv ugge
Ġtyp iske
dt Ã¦gt
ĠÃ ĸ
UL T
ĠC ot
tekn ik
Ġarrange ret
f ac
kj Ã¦r
Ġven inder
stran sport
C A
Ġar ve
ole ster
EN TER
ter nes
ĠDub ai
Ġ19 50
ĠC ore
Ġkem iske
det Ã¸j
hel m
ks on
Ġmu sic
Ġom stilling
Ġgra ve
Ġat om
Ġsom me
ja kker
sk lub
enter ne
Ġc amp
Ġfriend ly
sende s
sfor sikring
Ġ; )
ĠT Ã¸
Ġwell ness
Ġswimming pool
att le
si el
Ñ ħ
Ġet ape
um re
Ġe asy
Ġg yn
Ġfor styr
Ġmodtage lse
Ġfing rene
Ġrut ine
Ġkvali teter
Ġfy re
Ġlig n
llu p
Ġa rab
Ġve get
ĠA V
P P
Ġdri ves
Ġ19 20
Ġsel skabs
Ġud gÃ¸re
udvik lingen
ĠtrÃ¦ et
yg tige
ud byder
ku lation
ĠvÃ¦r ende
Ġby del
set s
ĠtilgÃ¦nge lighed
ĠL CD
ĠA ven
uddanne de
ĠFire fox
Ġre c
y ser
Ġof re
Ġkontra st
for and
Ġoverbe vist
Ġ17 5
Ã¦ng den
Bo lig
kj ole
ĠSk olen
Ġair bag
ĠL Ã¥n
Ġamb ul
ĠFinan s
Ġin fluen
Ġpro vin
person alet
Ġsp rÃ¦n
Ġinter val
Ġdi rigent
ly d
Ġaner kendte
ĠO li
Ġar mlÃ¦n
mine lle
Ġne dt
ud der
M od
Ġopdater inger
an noncer
Ġud give
Ġpassage rer
is men
Ġdan nes
ĠlÃ¦r ings
Ġch ili
Ġn ationalt
ta sker
ktie r
Ġre ad
ansvar lig
Ġre elle
il t
Far ve
s vis
k amme
Ġtand lÃ¦ge
ĠC L
Ġbereg ninger
Ġejendom s
Ġfor tid
firma tion
ĠA la
Ġv ali
Ġbeh Ã¸
la vning
Ġb Ã¦l
Ġha ver
Ġstoppe de
ĠFri tid
ĠTripAdvisor s
ĠKont or
ĠN Ã¥
Ġslan ke
ĠK h
ĠE K
en on
x i
Ġhard ware
Ġnew s
Ġkontant hjÃ¦lp
Ġven d
rik ansk
ĠU dklÃ¦dning
mar gin
Ġelektri citet
ner gi
Ġkartof fel
ĠMang ler
ĠkÃ¸re kort
J ule
ĠLe m
Ġs ame
ĠK ategorier
fel d
Ġt arm
Ġrefle kte
13 9
Ġju letrÃ¦
Light box
ĠF x
Ġ11 5
Ġhverdag s
Ġn akke
Ġover tog
ook ies
Ġthe se
Ð¾Ð ²
Ġst rÃ¦kker
Ġdri ften
Ġt rop
ĠDist ri
ĠG Ã¶
var ings
Ġkn og
Ġindi kerer
for retninger
Ġaner kende
Ġ4 50
que s
pp y
undersÃ¸ge lser
Ġra ting
AV N
L oc
ĠBag agerumsdÃ¦kken
ĠCharlot ten
Ġfac ade
Ġda ys
in ner
Ġsat ser
ĠIr land
produ cent
Ġte l
ĠRe search
ĠB N
i pping
ĠðŁĺ ī
Ġlov ligt
F AV
mail s
Ġbeboe r
ĠKomm entarer
ci um
ĠHol ly
Ġfag folk
ĠF ot
ode ller
Ġland bruget
ĠSÃ¸b org
ĠVaren ummer
bet jent
ĠVictor ia
Ġsi derne
Ġb oksen
ĠbadevÃ¦relse t
Ġ lighed
ĠH F
Ġku ffer
ft ens
Ġgen stand
Ġ< /
Ġsammens Ã¦tning
Ġarbejds opgaver
Ġformid le
regi strering
Ġgravidi teten
ĠÐ ´
L ar
c are
ĠM S
Ġtak ne
institu tion
Ġskjul te
ĠF ood
Ġord res
ud gift
i ver
Ġar ran
ĠVest sjÃ¦lland
st res
Ġvel fÃ¦rd
Ġfore gÃ¥ende
ot he
Ġre kre
ti sh
Ġom bord
Ġmig ht
ines isk
Ġfuld tids
Ġny ligt
ĠsÃ¸ skende
f rÃ¸
Ġla ks
Ġf rugter
ab inet
Ġsla p
ĠRe siden
ĠF O
Ġved hÃ¦
Ġrabat kode
Ġfly billetter
Ġter min
lÃ¸ ber
Ġgum mi
Vir ksom
Ġreger ings
vis nings
Ġra sk
Ġover fÃ¸rsel
Ph otos
rig tige
ĠValle y
Ġvir kninger
ELS ER
ĠS ara
eken d
for mere
Ġfly tning
Ġbekym re
art en
ub a
sp raksis
ĠBir kerÃ¸d
Ġerhvervs drivende
Ġac cess
Ġvarem Ã¦rker
Ġa mt
Ġe in
Ġbestemme lserne
Ġfast sÃ¦tte
ĠHer under
ĠIn fo
Sp ille
sv ing
ĠhÃ¸jde just
Ġb arer
Ġklo kkes
Ġtilbud det
P rÃ¦
Ġ× ¤
ĠPer formance
net vÃ¦rk
Ġsej ler
Ġbry stet
ad vokat
Jo hn
ĠSy rien
FAV ICON
ĠU kra
Ġsyd vest
br un
te k
ĠE lse
ĠD ronning
Ġv rede
Ġne ar
Ġ12 00
Ġro oms
Ġma ske
Ġliv skvalitet
Ġu gens
resund by
P RO
ĠpÃ¥krÃ¦ vet
Ġkommunik ations
is sen
U K
Kommende Top
sk Ã¥l
AC K
Ġ; -)
"] =>
pa kker
m ir
kro e
o ven
vi c
lÃ¦ re
ĠlÃ¦ng den
is en
+ +
Ġsoli dt
vir ker
ye rs
) ),
bille t
ĠkÃ¦ de
ĠAn det
Î ¯
Ġa mp
Ġfor p
11 5
Ġkvalitet sbe
Ġudpe get
Ġ19 00
av s
h yl
ELE CT
mid let
Ġle dig
S il
ĠTe kst
ĠAma zon
are d
Ġkonkurren ced
Ġb aner
Ġud lÃ¸b
Ġgaran tere
ĠEl len
Ġbade kar
ĠK ru
Ã¦nd ring
Ġren overet
fe b
st jerne
Ġemb ed
Ġsp ansk
ĠAnti spin
Ġkende tegnet
ĠU ltra
ĠCas a
kke l
Ġspille aut
Ġo ste
Ġhinan dens
ĠPar fume
Ġbar sel
virksom heden
Ġintern t
b red
Ġstor by
Ġprivat liv
kon cer
d own
ĠOG S
ape u
Ġ17 0
Ġfor vÃ¦r
lu f
ili pp
Ġvok sede
Ġover stiger
Ġtran spor
ch ange
fag lig
kroe r
Ġindt aste
ĠprÃ¦ st
Ġindt jekning
Ġev igt
Ġsyge pleje
min ton
Ġen joy
Grid Row
GridRow Widget
room GridRowWidget
mismatchMessage Lightbox
ĠX xxxx
Ġgr in
: )
Ġman uelt
Ġfyl dte
plan ter
o let
k vali
a ktÃ¸r
Ġ12 8
ĠK affe
ri ll
le b
va sker
Ġmenneske rs
ĠK urt
Ġsag sbehandling
o va
Ġlu kkes
ĠF ull
m um
Ġba kker
Ġsne akers
Ġar gument
ame rika
ringer ne
ĠIn vest
Ġdra ger
M ichael
k in
Ġc ou
ĠSikker hed
ĠF odbold
nu ller
Un g
ĠCe r
ĠN ight
p ra
ĠBag grund
m ist
Ġdu e
ĠLin ks
ĠberÃ¸r te
ĠBang kok
Ġmin us
ĠK UN
ĠViden skab
Ġud sp
ĠDAN SK
f ler
Ġcor ona
Ġtra ppe
m d
ĠtrÃ¦ ffer
spar ing
Ġgi v
ĠB iler
ĠC R
Y ou
fa sen
Ġfor ank
Ġforud sige
ta tive
v as
Ġla tter
ĠP Ã¦dagog
... "
ne b
Ġord rer
ĠK lo
T eg
ĠOle sen
Ġud gaver
Ġbe ach
Ġop sige
at ret
Ġdem ens
Ġflytte s
Ġkra vet
ĠIn tet
klas sen
Ġkvik lÃ¥n
fi les
Ġpro cess
lighed spolitik
fel dt
Ġ' ';
P V
Produ ct
Ġelektron ik
Ġreali stisk
ald o
Ġtilla dte
ĠShop ping
ĠR itzau
ĠNak skov
ĠUddanne lses
Ġudn yttelse
til lid
ag tt
Ġkende tegn
ĠPo sted
Ġvol umen
Ġmusli mer
stra kt
ag ent
Ġforbed rer
Ġaf ske
Ġud lejer
SÃ¦rtilbud Pakketilbud
ĠbeskÃ¦ftige lses
ĠH it
Ġsp redt
En delig
Ġhuset s
K ur
Ġven tet
Ġfe ber
Ġsig ni
Ġvel holdt
sk amp
Ġe vig
Ġhotel s
ĠC ur
ĠFe st
Gen rer
um ber
ĠkÃ¸le skabet
ĠPrem ier
Ġï¿½ï¿½ï¿½ï¿½ï¿½ï¿½ï¿½ï¿½ ï¿½
v ognen
Ġse vÃ¦rdighed
Ġhval pe
ĠR E
ĠM Ã¸n
10 6
Ġle dende
Ġfor synet
Ġforebyg gende
Ġbetinge lse
ĠmÃ¥ ling
Ġfa ca
Ġkamera et
far ver
Ġj ac
h ur
ĠEurope an
ĠE ver
or ie
Ġh Pa
net tet
ĠEner gy
t own
Ġstats lige
Ġforsv andt
ĠL ud
Ġsko lerne
e lement
ĠafgÃ¸re lser
ve lsen
Ġfel ter
ĠB amser
ĠNik olaj
K re
Ġnet to
Ġredige ret
t Ã¦gter
ĠnÃ¸ gen
Ġli lla
Ġde di
vent ure
Ġcon ne
Ġvurder ingen
Ġsu ver
Ġud leje
Ġk ysten
ĠChar les
I talien
Ġbeslut ningen
ĠSe ries
Ġt yrk
Ġmo den
V aren
Ġdimen sion
Ġp our
ĠFÃ¸de vare
B D
sic s
s ser
al at
ĠEd itor
ĠmÃ¦r k
Ġskar pt
ic tion
g ru
ĠD ia
Ġn ikke
Ġfan ger
bid rag
minister en
g no
ĠS Y
ĠI rak
net Ã¸j
m und
Ġbetyd ningen
Ġudstil lingen
ĠSan kt
abe lt
Ġknap per
hÃ¦n ger
Ġse arch
ĠOr dre
ĠBal ance
Ġpo se
L ine
od ay
Ġfort rin
Ġ10 4
L ang
ĠHvil ket
ĠS ale
betal inger
Ġvedlige holde
b orde
Ã¦g terne
ĠO N
ĠVan lÃ¸se
ĠH Ã¦
Ġin spe
Ġk Ã¸l
Ġf rÃ¦k
ĠkÃ¸re computer
Ã Ĺ
200 3
ci ppet
" -
ders dal
G O
ĠB EST
Ġk ast
part nere
ĠB ul
ter ingen
D rop
d l
ĠS O
ĠA ri
op s
reg ulering
FÃ¸r ste
Ġkomp liceret
Ġreg len
Ġsi m
ĠP ay
Ġynd lings
Ġom by
mÃ¦r kes
ĠIS O
rit ten
dre vet
Ġ ÏĦ
Ġpub lic
Ġdimen sioner
Ġfol ks
vÃ¦r dien
ste st
ĠN Ã¦sten
Ġter rassen
T O
Ġst ude
sÃ¦son en
ĠhÃ¥nd bold
z ar
P rÃ¸
rin gelse
Ġskj orte
Ġse mi
E ks
ĠMan chester
ĠFr ont
ĠbÃ¦redyg tige
Ġu bet
Ġmellem store
im um
ĠR Ã¸
mor y
Parlamentet s
dk lub
ĠIn dtast
T y
ĠbekrÃ¦ ftet
Ġdat abe
ĠDy b
Ġkomb in
ĠSt Ã¸rre
Ġringe de
ĠhÃ¥nd vÃ¦r
Ġmoder ni
gÃ¥ et
Ġl Ã¤
Ġti dens
Ġm ul
Ġb ragte
ĠB ach
Ġbyg her
ĠSti ft
Ã ī
Ġmine raler
ĠKomm uner
ĠHa w
ve y
Ġse rier
p arts
Ġunder ligt
ĠH ou
ligheder ne
sm Ã¸der
ar ing
ĠHen tet
Ġspe ed
K e
Ã¦l ger
Ġmaksi mal
Ġtr ygge
ĠL EG
ĠDy re
Ġju stere
Ġfin ish
Ġpro vide
i ker
g lÃ¦de
Ġbruger navn
Ġgr ine
Ġsm itte
ĠfÃ¦r digt
H vil
EL L
ĠPsyk iat
regn skabet
Ġgevin ster
ĠN O
Ã ª
Ġtyn dt
am o
D ig
ĠDag sorden
Ġnab oer
k ul
Ġ} ;
Ġv ul
Ġudgifter ne
Ġmed bringe
Ġ ??
Ġy t
Event yr
s merter
Ġst ring
lle de
Ġer kende
Ġro llen
Ġhen tes
Ġoply ste
Ġwe ight
ĠO cean
ĠEjendom men
ĠD TU
line r
ord net
Ġbet y
Ġs lÃ¸
Ġind betaling
Ġs qu
G et
ĠUnd gÃ¥
ĠVall ensbÃ¦k
k ol
T D
e rnes
ĠFor enede
Ġro ller
Ġc ocktail
Ġfor holder
Ġtilpas ses
Ġb ili
Ġlang tids
Ġsommer ferien
Ġp ast
Ġrute vejledning
C ent
Ġd rev
ar up
ĠO VER
F eb
ĠBru un
Ġfornuf tig
bor der
Ġh ang
vÃ¦r n
ĠhjÃ¦lpe midler
ab onnement
ĠslÃ¦ gt
Ġyder ste
Ġle ger
Ġanbef alet
che rs
D rama
Ġak adem
Ġsag ens
ĠAnaly se
sÃ¦ k
ĠPala ce
sm agende
kÃ¦mpe lse
De sig
Ġp anden
ĠO tto
ĠLis beth
AT O
ĠA ften
ĠF ig
r re
p in
Ġbegyn delse
Ġt antra
ĠT je
k ron
et ent
Ġtest s
ĠSel ve
ĠOp dateret
Ġvaret ager
ĠfÃ¸d derne
Ġhold barhed
Ġhe riblandt
ĠEksempel vis
Ġa round
Ġb ath
ĠtrÃ¦ ningen
ĠRe ad
Ġop gÃ¸r
ĠP ak
Ġve der
Ġst ater
Ġapote ket
sÃ¥ ret
ĠSk at
Ġan lagt
Ġa go
ĠHer til
ĠCost a
ĠKon gens
ad ow
Ġtil sammen
w orld
Ġstop pet
ĠPo int
Ġarbejds tid
veks ling
bal ance
vÃ¦r t
ĠTra velocity
bÃ¦l t
Ġklokkes lÃ¦t
St op
ĠhÃ¥ bet
ĠV inder
ĠLin ked
C or
d jurs
ĠH ong
Ġsm agen
ĠI m
ĠB and
get Element
Ã¸ konomi
Ġglob als
Ġfa get
An meldelser
ĠvÃ¦sent ligste
sk ind
Ġhand let
ug o
Ġmag ten
ange li
Ġgarder obe
Ã¸ mt
la mper
Ġb reve
olester ol
b undet
M al
Ġsv ig
of il
over sigt
ĠTil gÃ¦nge
Ã¶ l
Ġbe vise
B or
IGH ED
H um
ĠnÃ¸jag tigt
anlÃ¦g get
ĠfÃ¸le lsen
Ġkoste lige
ite ktur
Ġher for
u ration
An ne
Ġb remse
ly se
Ġop hav
Ġoffentlig heden
al ph
Ġst Ã¸d
Ġse c
B B
Ġlig ne
ban ken
Ġbru se
f inder
ĠtÃ¦ pper
Sk Ã¸n
Ġind vi
und ation
k nappen
kurren cer
Ġind virkning
ĠUd bud
ĠKOMM UNE
Ġbetyd nings
F ragt
m useum
Ġhensigt smÃ¦ssigt
Ġmidler tidigt
ĠStor y
Ġfast lagt
Ġfar lig
ĠE C
andid at
ĠsÃ¦r skilt
Ġelevat or
a ktivitet
Ġind beret
ĠVirksom heden
ĠIn ger
Ġredu ceres
l ygter
Ġsp ringe
ĠAn sÃ¸g
ĠklÃ¦ dt
Ġtilstede vÃ¦relse
ĠId rÃ¦t
ĠN ogen
Ġis oleret
ak ul
Ġb Ã¸de
Ġsig naler
um mi
ĠRe st
Ġneder lag
Ġbe viser
Ġ19 88
Ġcon ta
10 8
ĠBrÃ¸n shÃ¸j
Ġbe last
OL D
c ode
H US
ĠBjer re
ob bel
ser vat
age lsen
Ġa ust
H R
posit um
las si
c il
ore re
partner s
ĠSpilNyhederTilbud KommendeTop
Ġbet Ã¦ndelse
Ġse mester
ĠmÃ¸ dre
I tem
Ġingen iÃ¸r
ĠmÃ¥ les
ĠÃ¦r ger
ĠudfÃ¸re lse
Ġmedlems stat
IGH T
10 7
Ġj ack
ER NE
vn s
ĠCol umb
Ġf and
ĠÃ¥ rig
Ġud kommer
} },"
Ġskri ves
ĠA sien
Ġli be
ĠK m
Ġ ì
":" //
mpt omer
Ġv aner
du c
Ġfeat ures
Ġbru ne
b Ã¸lge
Ġkol on
risik o
a im
ĠNem ID
spro get
Ġpol yester
mer ce
Ġlig get
ĠvÃ¦ n
bu ffet
ĠvÃ¦relse spriser
Ġdi lem
of fee
ĠSqu are
Ġ10 9
Ġbetale lige
ĠDe f
Ġhom oseks
Ġtidsp unktet
IN E
Ġcon tact
ĠOx ford
stit ue
ĠÃ¥r lig
ĠVi et
Ġj or
ppe de
Ġfryg ter
ĠMake up
ktioner ne
Ġud ad
Ġr ange
Ġst abili
ĠP EN
Ġprodu ceres
stre rer
p lus
ĠB und
Ġetable rede
Ġskand inav
ĠAf g
Ġhe gn
ĠRis skov
Ġlet kÃ¸b
Ġs ult
Ġg ymnasie
J es
ĠStof indtrÃ¦k
Op lysninger
inde de
bet ingelser
Ġe ti
Ġco untry
ĠS alt
Ġretur nere
Ġopgaver ne
ĠRÃ¥d hus
att r
Ġor dene
fe rne
ĠTekn isk
Ġst a
Ġanbefal ing
Ġansig ts
ĠLe e
Ġprisbil ligste
Ġbab yer
Ġsk yder
de bat
Ġh at
Ġind skud
c ler
familie r
clu sive
klÃ¦ de
ĠAnge les
ĠansÃ¸g ningen
arbej dning
Ġsp rede
D ato
Ġcent re
Ã¥r den
Ġpl ant
D r
jen ingen
Ġp ilot
r unde
ali teter
ĠmÃ¦rke ligt
ap ore
og ni
ĠAn y
ori seret
Ġbryllu ps
P olitik
Ġblo ds
ĠKrist us
f ry
Ġop kal
ar te
ĠEm ma
Ġman ager
L y
H A
ĠTÃ¥rn by
lat form
om fru
V iew
t agen
Ġbet Ã¦n
ko lle
Å ¡
b akken
C ode
ch at
tra fik
Ġfal dende
t ot
Ġhand lede
foran staltninger
Ġ! =
ĠFÃ¦r Ã¸erne
r ste
ĠHe el
Ġk ugle
G reat
Ġstri kket
ĠS lut
ĠKat rine
Hotel Quickly
Ġambi tioner
ĠSk ulle
Ġfor skerne
Ġan mode
Ġp Ã¦dagoger
ĠOp lev
proces sen
k od
ĠBel gien
Ġ19 87
tione lt
edc media
ĠLa ce
forb und
Ġb ly
ĠhÃ¸je st
1 19
ĠSundheds styrelsen
ĠNorde a
ĠGR ATIS
fi ber
Ġu k
Med ia
Ġlu ks
Ġsun dere
Ġ4 000
Ġshop pere
Ġudste dt
Ġi gn
ile p
Ġ19 86
Ġmedarbej deren
ĠtilfÃ¸je lse
lig gen
Î ¬
Ġin ge
R ou
Ġs Ã¸rg
lys nings
de res
Ġkonkurren cer
} .
ĠL Ã¸s
stem perat
person ale
Ġfrem mer
m Ã¦ndene
Ġkun dens
Ġmuse et
ĠMer cedes
Ġforuren ing
ĠfremhÃ¦ ver
ĠHal v
grund laget
ĠU lla
Fa kta
Ġudnytte s
ĠSF O
ĠhÃ¥ be
one rer
ĠG EN
ĠNÃ¸r gaard
Ġt sk
Ġcomm ents
ĠFa ce
ĠL otte
Ġtra de
Ġm ht
rin k
ĠCo untry
splan e
or ca
for Ã¦ldre
ĠDort he
Ġuds agn
mÃ¥ ne
ĠFir st
ĠAl minde
Ġvirke ligt
i us
ĠB link
ar ning
F al
Ġlege plads
ĠA re
ont o
Ġgrund laget
ĠN an
Ġledelse s
ĠB om
Ġskin ner
f tig
ĠKon cer
lis abeth
ĠWord Press
ĠbÃ¦r bar
sp leje
Ġgro v
Ġmidler tidig
Ġforud gÃ¥ende
Ġforhandler en
Ġ24 0
ĠM Ã¦rker
ĠP akke
":{ }},"
ĠNÃ¸r resundby
H jÃ¦lp
Ġvari ation
Ġjap anske
ĠpÃ¥vir kning
ĠM EN
ĠTe ma
Ġfokuse ret
ĠB itcoin
Ġli ster
ĠIntern ationale
y re
ĠrÃ¦kke fÃ¸lge
Ġhel lige
Ġindt rÃ¦
ĠPen ge
ĠkrÃ¦ vede
T re
Ġkval me
or ies
b om
jen dommens
Ġho ste
Ġdom stol
ĠS in
EG N
ĠÐ º
mb ran
teri alet
vi ron
Ġtom mer
kan aler
ĠSu pport
Ġw omen
ti ver
End nu
Ġfore gik
Ġklo ge
m ie
ari um
ĠBra brand
ne serier
h ost
ĠW atch
Ġgu ider
h ard
ktor atet
Ġrisi kere
n t
li delig
ro e
be ck
Ġfolke skole
ĠlÃ¥ g
ver ter
art in
ĠI ran
ĠHas lev
ud gave
ĠFa ciliteter
ĠMat as
Ġski ver
Ġafleve re
M ag
Ġin fla
Ġverden skrig
Ġm ene
RC MS
ĠFor retnings
200 1
o i
ĠIn vester
men terede
Ġbe cause
Ġkommer cielle
ĠSpe ed
Ġsm id
kre di
Ġsamvit tighed
p api
ĠMagn us
om sten
ĠH J
ĠJu ul
Ġslut te
ĠB RU
Ġop gÃ¸relse
Ġyng ste
Ġla bel
ĠA didas
ĠD obbelt
ĠBel la
ĠRet ten
u red
it Ã©
Ġattra ktivt
af fald
Ġbu k
byg ger
Ġindt ager
is olering
Ġinstal lationer
ĠBe ch
ĠP alle
12 8
Sid st
K undeservice
ch ild
ĠP U
Ġa alborg
n avne
for deling
ĠFri tids
Ġmal ware
gyp ten
Ġkomb ineres
ter apeut
Po int
Ġh vede
Ġom givelserne
ĠN U
shop pen
Ġty ve
Ġf is
bille det
Ġbogsta ver
Ġvolds omme
Ãĺ S
hal v
ĠN ice
ver n
ĠT O
Ġop tager
ti al
Ġtil lykke
Ġcur rent
Ġafslut tes
ath rine
ot ten
ĠKje ld
Ġ/ >
Ġbygge markeder
Ġm ik
ĠM iss
yl inder
g al
Ġud sendt
ag tig
Ġomkost nings
Ġh ac
ĠB ull
S ty
si dige
ĠIs lam
ĠAL LE
selskaber ne
in dustri
ĠFor ord
o z
ĠS cience
ĠtrÃ¥d lÃ¸se
at re
Ġfe el
ĠAut hor
Ġkvinder s
rÃ¸ der
be k
ĠKen neth
Ġc ome
Ġpara metre
ill on
Ġu ser
Ġmid ter
te mperatur
Ġud sol
Ġplat forme
orm al
Ġkonstate ret
S us
ĠSor Ã¸
Ġe sk
organis ationen
ĠFl ens
ĠMin dre
Ġp ur
Ġhundred vis
vidi tet
ĠF ug
Ġmuse e
Ġmod uler
Ġbag ud
Ġgro ft
Ġ19 85
Ġtest oster
Ġfleksi belt
Ġmen inger
ĠGol den
cover y
B I
IG E
pro fe
Ġneg ativt
Ġsn y
ĠT Ã¸r
ĠS agen
P re
Ġk ind
Ġin focenter
Ġsty ret
ud ing
af snit
ĠmÃ¸ del
Ġsej le
he st
ĠB ow
ĠEx ecutive
vÃ¦ v
Ġbutikker ne
Ġakt uel
ĠsÃ¸ e
Ġstat sminister
ĠJ ag
se jendom
ĠJ Ã¸rn
ĠVil lage
ĠSo ftware
te am
Ġdanne lse
Ġprakti serende
ed an
cel Ã¦n
W R
app y
ine e
Ġmil d
ĠB rÃ¦n
Ġsocial demokra
splane r
Ġtenden ser
Ġh enne
st rong
G V
i ro
SÃ¦r lige
Ġvig tigere
P ower
ĠHenrik sen
3 50
rat ing
ĠF Ã¥r
ĠUd vik
Ġbetal ingen
st Ã¦rke
ĠLeon ardo
Ġualminde ligt
Ġsommer huse
d de
ĠpÃ¥pe ger
Ġforestil ling
ant al
v b
Ġinfe ktioner
Ġbron ze
Ġmusee r
shospit alet
ark i
ĠtÃ¥ le
sh as
v amp
Ġcyk len
Ġind lagt
Ġun Ã¸d
W indows
ab et
dag penge
F ile
Ġgen veje
Ġbe varer
ĠnÃ¦st formand
Ġgar age
ti tu
Ġufor gle
Ġb ladet
S til
ĠBo ots
run way
in c
com merce
ĠL A
Ġc iga
Ġhjer ter
Ġsu ite
Sh op
ĠB ridge
ĠFinansie ring
LED NING
D okumentar
an get
in as
10 2
Ġsan ger
sc en
Ġb ureau
Ġla y
ĠD or
kj oler
ĠJust in
Ġminister en
Ġmo tiv
ograf ier
ĠN Z
ffe kt
ĠP ier
ĠF el
Ã º
Ġ12 7
en heder
id o
Ġow n
Ġdriv hus
ĠCo ol
Ġhje l
Ġfun ktionen
ĠK OM
ager ne
st Ã¸rre
Ġaltern ativer
ke ster
19 9
ĠA h
ĠRu dersdal
Ġdesig ne
Chri stian
p ons
ĠFor bruger
Ġ: :
Ġja kker
Ġlige stilling
Ġvin den
ĠS av
Ġkomp ati
v ene
re place
ortefÃ¸l je
Sta te
Ġbesk adi
ĠÃĺster gaard
N ike
ĠK il
ĠpÃ¥ stand
Ġt able
que st
Ġbe mÃ¦rkes
m asse
ĠlÃ¦ ber
Ġsyn spunkter
Ġbeg Ã¥et
Ġneds Ã¦tte
f fi
Ġcit ater
Ġunder sÃ¸ges
L ou
vok ater
ĠG la
ĠPi ger
Ġan delen
ĠFÃ¸l gende
ĠJ yske
Le getÃ¸j
Ġfortol kning
Ġp Ãĥ
ĠFor be
ĠsÃ¸e r
Intern ational
Fe rie
Ã¥r ne
te borg
ST ER
Ġty kt
v oks
Ġpoliti ker
Ð ±
ĠAren a
Ġto ur
Ġ ze
ĠBil lige
c ss
ĠHÃ¸j bjerg
Ġsy re
Ġgammel dags
an ia
Ġregistre res
11 7
Ġl ind
ĠkÃ¸r ende
Ġimp ro
Ġa ve
Ġkol oni
ĠKar sten
ĠVÃ¦r lÃ¸se
ĠI gen
Ġd am
Ġac c
Ġta pe
F ER
d oc
Ġsyn te
ang st
sp Ã¦nding
H vem
ĠnÃ¸g len
se bÃ¦r
g ner
sÃ¦t nings
ĠC and
Ġvel smagende
ĠStud io
Ġ2 25
N O
Ġy d
Ġaftal te
Ġnord isk
ĠSpil Tilbud
Ġvanske lig
EN ING
Ġk asser
dk unst
ler en
ĠHam borg
Ġovervej ende
ĠK astrup
Ġder nÃ¦st
Ġram men
Ġseks uel
Ġbibliote ket
ĠG ang
Tid ligere
Ġarran gere
10 3
li on
Ã¦n ket
ĠuÃ¸n skede
ĠB E
st rik
av and
Ġkvali fikationer
For fatter
V and
Ġc asinoer
ĠSt rÃ¸m
ĠR avn
si dder
di a
O ne
ur gte
ĠOpe ra
Ã£ o
ĠS uede
Ġtil sendt
st rÃ¦kke
ĠD okument
d Ã¥
ĠV R
ĠSe bas
Ġforholde ne
Ã¦s on
Ġrespon si
h enter
Ġro lige
Ġfrem lagt
Ġk osme
Ġper ler
Ġup date
men te
ĠVi lle
p op
indstil linger
Ġbestyre lses
Ġaf hjÃ¦l
ore ret
Ġis ofix
ĠAr tikel
ĠSt ine
Ġkomp etent
ĠkÃ¸ det
ĠanlÃ¦g s
bu y
lig ende
vi ty
Ġsag s
Ġbe sig
Ġkamp agner
n Ã¸d
ĠGylden dal
form Ã¥l
ĠJo nes
Ġs ans
ĠH ammer
Ġtry kker
Ġud sigten
ĠAndre a
ĠJe ans
Ġforn ye
Roman tik
ĠmÃ¸d tes
reat ment
ĠW all
ĠlÃ¸ ft
Ġbegra vet
ĠSk ib
Ġkem i
Ġspro get
sid dende
c b
Ġsk ruer
ch ine
ĠRe m
Ãħ L
lig aen
Ġfol low
Ġdig te
Ġnet butikker
ĠNet to
skÃ¦r me
Ġn Ã¦re
stil let
Ġte gning
AL L
ER ET
ĠK AN
besk at
Ġru ten
ĠC ry
oo ter
sv urdering
ens ation
ĠL ast
B ogen
kur ser
f ur
Ġhypp igt
indt Ã¦gter
Ġhoteller Se
f ing
Ã¥r net
Komm issionens
ĠmÃ¥l sÃ¦tning
Ġbe und
ĠHe ad
Ġfunge rede
Ġbegej stret
Ġn akken
ĠLig nende
ĠStra tegi
Ġkit chen
: "
Ġudtry kker
24 0
Ġpro tokol
ĠDi verse
Ġven ligt
Ġf ron
ĠChristian sborg
ĠHo stel
st rÃ¸
Ġret tes
ã Ĥ
ffer ent
p ly
fun ds
ĠFort Ã¦l
ĠKa j
AT A
ĠInternet tet
Ġvel vÃ¦re
Ġret ro
p ack
Ġtap et
tids pension
ĠHotel faciliteter
ĠrengÃ¸r ings
ĠKi ds
R ing
ï¿½ï¿½ï¿½ï¿½ ï¿½ï¿½ï¿½ï¿½
Ġover sky
Ġpul je
Ġbe slag
ĠF M
st ang
' ]
ĠB O
omrÃ¥ derne
Ġsommer ferie
ma ds
p akken
Ġa ge
ĠtilfÃ¦l digt
ĠÃĺster bro
ĠÃ¥rhun dre
Ġdes sert
if y
ĠH amb
i os
ĠM icro
Ġsk ind
Ġfy sik
je ri
in spe
K Ã¦re
ĠG ave
ĠSar ah
Ġpro gres
rem ove
Ġfar vet
EL T
Ġdyr ene
Ġan grebet
opleve lsen
i tet
Ġin tens
Ġof tere
Ġfe ster
Ġpe ge
Ġudleve ret
Ġtil sk
ĠDig it
F in
Ġu hygge
kom sten
S ony
b lock
ĠAn g
timer s
T rin
Ġth en
Ġkont ro
Ġfor synings
Ġre vet
Ġpo sten
Ġgul ve
ĠsprÃ¸j te
Ġtri cks
ĠpÃ¥ klÃ¦dning
ĠlÃ¦rer ne
ÃĨ K
ĠKÃ¸ ber
Kom edie
Ġan tik
D og
ru t
Ġst ren
ĠEd it
Ġpul ver
ĠFa aborg
lses dato
skaber ne
Ġmet ro
ĠDag ens
den sborg
Ġlo vet
val d
Ġfor kÃ¸
P G
Ġdi v
Ġud kast
sti gt
Han sen
Ġefter fulgt
NING ER
Ġback up
ta jn
Ġgyl dne
ĠfÃ¦lles skabet
Ġj Ã¸d
a ppen
ĠkÃ¸ret Ã¸j
Ġsnare st
ĠW alk
Ġglob alt
ĠLe je
Ġbin dende
ĠNorm alt
Ġro se
Ġh op
Ġtun gt
i ses
ĠI M
Ã¨ s
c ou
Ġbetyde lige
ĠÃħb n
Ġdist ri
Ġind holds
ĠN Ã¸d
Ġomt alt
Ġaf viser
ĠTil lÃ¦g
a des
Ġp ant
ĠChri sti
produ center
Ġsi del
Ġfors vare
Ġkir ker
Search User
Ġva sket
Ġindby dende
B Ã¸r
Ġeftert rag
Ġout let
ĠMich el
b ok
lÃ¦ k
Ġal verdens
ĠEn tre
13 5
Ġdrin k
ĠR od
Ġflo den
Ġtekn ologiske
ĠRej ser
De sign
Ġhe ri
o net
lowe r
in stitutter
ĠSp ise
Ġreview s
ĠD un
zz i
sa ktioner
ĠFebru ar
Ġspilde vand
ĠT ol
ĠGe or
Ġkontin uer
ĠId rÃ¦ts
ĠL ittle
T H
over vÃ¥gning
ĠS A
Sta y
Ve ri
ĠS um
V in
Ġsid det
S im
Ġr and
Ġmed regne
ĠTe ch
tal ende
Familie r
let al
ĠRe la
ĠCar oline
m angel
Ġskilsm isse
e mail
Ġnar ko
ĠGer man
B liv
Ġre ma
ĠC over
Bu y
ĠEnd nu
Ġst ryge
Ġmad lavning
ĠÃ¦gtef Ã¦lle
S alg
Ġefter lÃ¸n
og sÃ¥
sc ape
Ġfin alen
Ġkomp leks
sb Ã¸ger
sm y
ĠM OD
ĠÃĺ k
ĠVÃ¦r ktÃ¸j
Arbej ds
am linger
Ġmod i
Ġbrow sere
Ġgo ogle
ĠnÃ¸jag tig
Ġforbrug slÃ¥n
Ġsidst nÃ¦vnte
Tran s
Ġkost umer
ĠHa ir
W i
ĠH Ã¥ber
ĠÃ¦r ligt
Ġud lÃ¥n
Ġskil te
Ġer go
j ar
ĠG el
S ELECT
ĠSt op
Ġbran cher
ile y
Ġc ra
iet s
Pri vat
H L
st ave
ĠfÃ¦rre ste
Ġindt age
Ġvide os
ĠSikker heds
vÃ¦k kende
ĠSi mp
Ġforbe holdes
ĠJ ette
ĠS D
Ġud leverings
ing o
Ġkines isk
ĠFor Ã¦ldre
ar tede
ĠP ress
ĠLinked In
Ġyde evne
sig ter
7 28
ĠSÃ¦r ligt
R yd
Ġc as
ĠT ok
Ġfarve rige
ĠF od
rÃ¥ dte
Ġse lect
Ġsp ringer
Ġover greb
Ġfag lighed
L in
Ġrumme lige
200 2
Ġsku ffet
lik ation
Ġhelb reds
Ġkro ne
Ġolie r
K O
ĠvÃ¦gt en
Ġgla tte
Ġg lide
si um
Ġcook ie
ĠMil ano
ĠF av
ule rede
ĠF lo
b ue
fi cial
sp o
ĠMar ina
Ġskj ule
ĠL ie
i ble
Led ige
ĠS ov
Ġcan cer
Ġl ommer
j agt
ĠDan ce
Ġbetal te
Ġspeci fik
ĠM AN
il lo
me rer
Ġdisk ret
F ore
ad ministration
ĠSoci ale
b redde
vil ling
ct ors
ac tive
!! !!
rin t
Ġma ks
Ġo x
d Ã¸
ĠdÃ¸r ene
Ġ20 21
in ens
view s
Ġover stÃ¥et
11 6
Ġju ice
te gning
Ġmilit Ã¦re
Ġvan vit
be spare
ĠKvalitet s
st rÃ¦k
vin den
um pen
Ġsol skin
h ler
staur ante
Ġsam leje
ĠSyd afrika
ĠR and
ĠS ang
Ġin va
Ġli st
Ġtre at
Ġhalv leg
vÃ¦ gelse
die r
Ġref unde
V illa
ĠhÃ¦ vet
Ġry kke
Ġl ow
ĠEnheds listen
Ġb all
M ine
ĠD ark
Ġn az
Ġgo ds
L av
Ġi agtt
Ã¸n de
ĠF em
Ġned ad
B E
ĠJylland s
Ġbru de
âĢ ³
Ġb achelor
Ġcomfort able
Ġudveks ling
Ġreg nes
ĠC ab
Ġom gange
ĠE gen
Ġkry stal
po ser
Ġbeske der
Ġgr un
Ġafsnit tet
ÑĢ Ðµ
Ġd ys
Ġbekym ringer
ĠHand icap
Ġeksis tere
Ġkommer ci
j ack
Ġomhygge ligt
Ġbygge centre
B ro
Ġde rover
Ġhjer tes
Ro ck
w aren
Ġf lit
Ġfor re
Ġru ter
k nings
ÃĨ T
Ġri b
viden skabelige
Ġkont orer
Ġdemokra tiske
Ġwh ile
Ġfast sÃ¦tter
ĠE V
io rer
Ġfrem for
12 9
tu al
Ġkont ingent
sour ce
sb u
Ġka stet
ci lie
( $
ĠRe publik
Ġvelly kket
St ud
Ġt ang
un en
Ġbe byggelse
Ġde te
les vig
ĠR ide
ĠOm rÃ¥det
ĠÃ¸jeblikke ligt
K ON
Ġu kendte
Ġfordel ene
ĠMu lighed
Ġover trÃ¦
Ġfarver ne
v aner
ĠVÃ¦r di
Ġsid dende
grÃ¦n sning
Ġmed ium
Ġ' ?
ĠA nette
ĠAn vendelse
Ġair bags
Ġger ning
ĠGre y
Ġud stillinger
IN T
ĠJakob sen
Ġcerti ficeret
? ',
Ġop lag
C R
Ġulem per
Ġgrad vist
Ġreserve dele
ul ds
jÃ¦ le
ret tes
ci o
Ġjournali ster
stekn ologi
fi x
model len
ĠB ab
mel delsen
Ġkoncer n
Ġover fÃ¸rt
× ¡
Ġtra vel
Ġan ony
Ġstri be
Ġanmel der
Ġst ate
ĠM au
Ġdokument ar
ĠhÃ¦n delser
Ġc our
k sikon
Ġindik ator
com ple
b Ã¥d
Ġpriser Se
ta tionen
Ġup lo
AfdelingerPopulÃ¦re Genrer
ĠCharlotten lund
Ġsamt alen
Ġstabil t
h avne
Ġsp ray
Ġmin ibar
C e
g is
men teres
ĠtrÃ¦t hed
alen dar
but ton
Ġkog ni
H S
Ġud strÃ¦kning
Ġle ktor
Ġopdate res
ol ske
ĠtÃ¦n dt
Con tact
lan ger
Ġny heds
Mu sik
mode ller
ĠR io
Ġgir l
ĠF onden
Vide o
ĠHjer te
for sÃ¸g
ĠL ag
an terne
sie r
Ġteks til
Ġbet ween
Ġsympt omerne
Ġmenneske ts
ĠD rive
Ġn it
ĠsÃ¸n der
ul der
v ine
ĠSE O
u xe
Ġb Ã¥l
m Ã¦g
Ġsm alle
ĠCalifor nien
Ġstra mme
bevÃ¦ge lsen
Ġmenneske rettigheder
ĠSy nes
Ġorgan iseret
ut s
k irt
S Ã¸ren
Ġleve rede
splad ser
ĠPart y
c os
spri sen
Ġp ane
Ġaf give
ĠD isk
ĠW ild
Ġtilpas ning
T Z
int her
an ie
af spiller
ĠBen te
12 2
ĠTechn ology
Ġwith out
Ġtren ds
k os
Ġtea met
st ro
ĠTex as
ĠF RE
Ġsw inger
Ġentrepren Ã¸r
Ġvej ledende
Ġr omer
We stern
ĠbÃ¥ den
Ġsm idt
h oteller
va ler
sty per
Ġma a
ĠrÃ¦kke vidde
Ġ[ ...]
Ġbetrag ter
Fil m
Ġfilosof i
Ġtur nering
Y der
berg s
co lle
Ã¦nd ret
Ġforel sket
m agt
ĠFrederiks vÃ¦rk
ĠSt rik
Ġflu gt
Ġulov ligt
ĠOp r
Ġvari ant
ĠAme rica
t ryk
fal der
Ġp ist
un ter
ĠE vt
sÃ¸ en
vivl somt
sp ire
mÃ¥ ling
ĠR yg
ĠK ÃĺB
ĠB our
Ġaltern ativt
Ġforestil linger
Ġdyr ker
id rag
gen Ã¦vnet
li tter
sh all
Ġtilb Ã¸je
ĠPri vate
fÃ¸r ings
Ġm d
Ġud g
Ny hedsbrev
ĠSam me
mme lighed
e ren
ape uter
Ġkede ligt
sk ultur
sp ot
Ġadminist rerende
Ġju lem
Ġkon tekst
Ã¦v ner
ĠSel skabet
ĠS Ã¦
Ġover taget
Sp Ã¸rgsmÃ¥l
Ġr yn
ite m
ĠkrÃ¦ vende
m ur
Ġ10 8
ĠB BR
Ġtur de
ĠE mp
kamp en
V IS
ĠFa ctor
Ġfordy be
Ġ19 84
ĠAr n
ĠJohan ne
Ġar men
Ġdel te
ĠdÃ¥r ligere
ĠP opul
li ss
Ġworkshop s
Met te
ĠÂ Ń
KT ION
ĠP A
sp ul
Ġkl Ã¸
um ps
Ã¥ dets
ĠB ase
Ġfor sÃ¦de
ĠSpilTilbud Top
ĠMÃ¼n chen
11 4
J E
Ġan st
Ġbar ber
ĠMo untain
Ġve ks
ĠCH F
Ã¤ tt
ĠfÃ¦r d
Ġbegrun delse
Ġinds lag
semp ler
ĠLÃ¸ be
T C
ĠE ro
ĠO ven
med ie
Ġdestin ationer
sb yer
Ġjern bane
is Meta
Ġsmart phones
ĠE ne
ffe rs
r f
ĠtrÃ¦ tte
a det
Ġmateri al
A goda
sministeriet s
du ktion
Ġtil sat
fe ct
Ġqu ality
o id
Ġk aka
Ġkvalitetsbe vidste
Ġmand s
Ġud gjorde
ĠSand aler
BOOK NOW
Ä Ĥ
Ġg rus
Ġbac on
Ġu sing
Ġafhentnings sted
ar v
ov ens
m Ã¸r
Ġrede gÃ¸relse
Ġny d
St ra
ĠS ik
S an
sk Ã¦ring
ĠgrÃ¦ sk
AR D
Ġford ob
smo dt
hÃ¥nd tering
F lot
Ġsygeplejer sker
sk Ã¦de
sc ore
P oli
Ġapp likationer
n atur
11 3
ri x
ĠSel skab
ĠR O
Ġ ÏĢ
Ġeg entligt
He le
ĠO me
c ap
H r
ĠKun ne
Ġnerv Ã¸s
astron omi
one l
ss var
ĠBrasi lien
vil lig
Ġ16 00
pat roner
Ġde stination
ĠvÃ¦ kke
Ġrecep tionen
Ġc at
ĠSk ate
z onen
Ġryg ning
ri te
Til meld
Ġde raf
Ġfasc inerende
By Id
Ġvil lig
bu mmet
Ġsv agt
Ġsymb oli
n it
Ġd un
Ġmulti funktionsrat
ĠDe ad
Er hverv
we ave
ĠFor ud
T P
ĠV ent
Ġfrem sk
ĠskrÃ¦ mmende
Ġrabat t
ĠDi am
ĠT ryg
Ġudtale lser
aim assage
se lect
Ġli cen
v urder
Ġb oth
Ġp le
Ġ13 5
Ġf ile
h und
Ġbl ind
Ġforplig ter
ĠFa kta
Ġsp ir
digheder ne
Ġteore tisk
ĠChe ck
me stre
J ac
ri dt
ĠOp gave
rÃ¦ ling
Ġkontakt en
ĠKo kke
u mmet
Ġsi des
bor ger
L Ã¸
ĠNed bl
li fe
ĠSk Ã¸n
p isk
So cial
Ġunder try
bet alt
ĠO scar
ĠÃħrs rapport
ĠP age
ab ine
ir s
til stand
enere lle
Ã¸b ende
Ġenergi forbrug
si ger
AR AN
pe g
H K
ĠJose ph
Ġi OS
ord fÃ¸rer
Ġen ter
ĠN V
ĠDen nis
Ã© s
Ġkont anter
ĠB ind
Ġform Ã¥
Ã¸b enhavn
ĠU RL
ĠSty le
C y
Ġan onym
Ġnord vest
ĠL Ã¸g
Ġkri sen
Ġmail s
O ps
Ġmiddel alder
ĠR h
ka stet
Ġoptage s
ĠsÃ¸ dt
Ġdetalje rede
ĠD vs
Ġsp ore
f jord
Ġc ost
Ġudt alt
RE AM
in ar
Ġb ik
dÃ¦ kket
Ġfor men
ĠSta tes
Ġi den
Ġorien teret
ĠÃ¦r mer
ĠX P
up per
getElement ById
Ġs ay
Ġeks pedi
Ġan gives
ĠslÃ¥ s
Ġakti vere
le vende
rÃ¦kke t
} ;
Ġudfor dre
ĠVerden skrig
Ġpla kat
Ġe u
Ġpo olen
H vid
ĠFor ce
ĠusÃ¦dvan ligt
st Ã¸rste
ĠE lement
Ġdist ance
N ov
Sp ise
Ġkoncent rere
Ġkonklu sion
Ġredi gere
Ġlivet s
Ġovern atte
11 8
ĠSh are
Ġsuc ce
spri serne
Ġh istori
ot land
ĠS eneste
xx x
Ġinvi tere
Ġe ye
Ġk ejser
ĠhÃ¥nd vÃ¦rker
Ġsk ove
sc ri
ĠLau ra
ĠfÃ¦r ge
Ġfinansie res
Ġoff en
ĠKar in
rÃ¸ mmer
led nings
To ol
ra ften
( ),
Bar n
Ġte orier
Ġur ter
fru gt
ĠSK AL
Ġha der
f ran
sek Ã¸d
Ġkomm and
t jenester
Ġn iche
Bru ger
T ax
s sel
B landt
ĠAD HD
g g
yr en
Ġfin ale
Ġdaglig dagen
Ġgennem fÃ¸rte
Ġformid ler
ĠOGS Ãħ
ĠFrancis co
H ome
ansvar lige
B lack
Ġhove dstaden
Ġindvand rere
Ġm enes
Ġbutik kens
Ġin je
Ġst ave
Ġpub li
ĠCoun ty
ir k
Ġpas sede
Ġbespare lse
Ġd Ã¸mme
ĠE lite
Sm art
Ġl Ã¦n
Ġmed delt
Ordre status
Ġsli dt
eten cer
Ġopret tes
let t
Ġmor s
Ġinte gra
Ġkar rie
Ġas yl
Ġmat che
Ġg Ã¦r
re det
ĠMon te
Ġvan ilje
comple te
E ller
Ġmedvir kende
ĠF rÃ¸
Ġdef inere
ĠtrÃ¸ je
F V
Ġe ach
a ktiv
ag ni
Ġfrem tids
ang ive
Ġefter Ã¥rs
ĠD ream
Ġkon g
Ġrecom mend
at on
ĠV AR
Ġpar ken
Ġbaggr unds
Spe ci
oo ds
Ġlast bil
ĠhÃ¥n dkÃ¸b
ĠSv Ã¸mme
Ġbidra get
Ve st
u kker
z el
Ġakti veret
ĠFilm Kommende
Ġwebshop pens
st ine
Ġf ix
Ġkunder nes
fice res
I X
ad ige
3 23
Ġmusi kere
Ã¸ sten
ĠPe ri
Ġbeteg nes
Ġau f
Ġtom ater
ĠM C
Ġan ser
ie ce
onder ful
y se
Ġfy ret
Ġkons ulta
Ġhe sten
Ġbin Ã¦re
bru ge
Ġspise steder
ĠM ade
Ġbehage lige
ĠbekÃ¦mpe lse
Ġstrukt urer
ĠUkra ine
Ġt rip
Ġut vivlsomt
Ġ ???
Ġbase d
tili tet
e se
| |
gr unde
Ġudbet ales
itter atur
li ke
ĠO B
Ġfol der
et t
Ġskul de
ali sere
orte res
L Ã¦g
ĠP ass
b ureauer
ich t
Ãĺ nsker
Ġover skri
ge ret
ĠT ouch
Ġom talte
ĠR ay
Ġk abler
Hen rik
G T
ĠAnne tte
ĠPerson ale
c ost
ĠlÃ¦ser en
inter weave
ĠRegn skab
Ġko stede
Ġpo e
ĠFlor ida
Ġb j
Ġinds ende
d ale
ĠPro blemet
gen cy
Ġste l
ĠE AN
ĠE leverne
ĠG O
Ġ19 79
KK ER
T om
kt aten
Z K
Ġsh ampoo
yl or
Ġaf sender
sp i
en able
Dej ligt
ĠbegrÃ¦n sede
Ġfinansie re
Ġst ak
rurg isk
Ġin formere
urde ret
Ġindust rien
ĠS S
Ġbesid delse
ĠÃħbning stider
Ġtjeneste ydelser
s gebyr
uri st
Ġrust frit
ĠComm ents
Ġres ter
ĠAd ap
ĠGar anti
kt ryks
ĠKur sus
ĠA ktiviteter
V E
ĠSy dsjÃ¦lland
ĠForsk nings
Ġbu ffet
Ġfortry delse
pla den
ad or
in el
Ġprodu cts
ĠP resse
B og
Ġhus leje
ĠbÃ¦r bare
Ġu pp
ĠF le
com mod
res ultat
stati stik
Ġind greb
Ġfor ladt
ĠopnÃ¥ ede
Ġaf gjort
ĠS ER
ĠkÃ¸ber en
M X
ĠMed dele
ĠK amera
sti kken
l ge
ĠhÃ¥n ds
Ġher inde
ĠI C
Ġaktivi tets
Ser vlet
Ġmale rier
Ð¾Ð »
spro ced
Ġbe la
gi an
ĠNord fyn
Ġvej leder
Ġindsam ler
ĠNav y
Ġhe ad
ĠTil melding
Ġp ossi
Ġkla p
Ġe lim
Ġmanu skri
ĠTekn iske
Ġ19 0
Ġaf slag
ĠK li
Ġeg o
ĠMath ias
Ġvi dende
luft s
Ã¦t ningen
Ġregi ons
Ġslet tet
d Ã¸re
j se
ĠM ove
Ġkan ter
Ġmin utes
Ġaf bud
u tions
ĠAfg han
fe sten
mer s
Ġprojektet s
Ġafslut te
Ġ10 2
ĠLang t
In de
ĠdÃ¸gn Ã¥ben
st jenester
Ġspons or
Ġess ay
Ġmateri als
Ġaf stemning
Ġkul de
Ġspeciali st
Ð ³
z d
de mar
Ġtil skue
Ġforkla rede
slÃ¸s ninger
skil te
strukt urer
Ġfast satte
be grÃ¦nset
ci r
vÃ¦re lses
ĠSt yr
Ġstem ningen
ĠSc reen
u ma
Ġlabor ator
E uropa
orien terede
Ġdiagnos ti
b ring
Ġforesp Ã¸rgsel
b ent
an meldt
in kl
ĠHol ger
Ġsn acks
inde s
ĠL ande
Ġvirksomheder nes
cent rum
ĠC ontrol
ĠN il
fro kost
Ġangive ligt
j ed
Ġom gÃ¥ende
Ġomkost ning
Ġa ct
w at
ĠforeslÃ¥ et
Bed ste
Ġord bog
ran chen
Til behÃ¸r
Ġtry kt
Ġde g
Ġven skab
Ġg lu
F ir
ti le
au ff
Ġklima anlÃ¦g
Ġbet Ã¦nkning
skriv ninger
12 1
R J
lse a
s re
ĠtÃ¥ gelygter
gul ve
ĠafhÃ¦n gige
b f
Be skrivelse
For slag
fin alen
.... ..
Ġla det
vie r
sÃ¦ det
Ġsp Ã¦d
Ġch auffÃ¸r
Ġud skifte
ĠE mb
Ġfamili es
ĠSh ang
ĠhÃ¦v der
Ġparla ment
ĠV irke
ĠNic olai
ul aren
Ġ10 7
Ġafslut tende
Ġdom inerende
Ġspi rit
Ġloc ated
Ġs orter
ff ende
ĠbÃ¸n ner
x f
Ġweb stedet
Ġsand aler
ali ster
vÃ¦rk sted
la us
oc key
udby dere
ve ler
e c
Ġfuldk ommen
on enter
Ġ11 4
Ġmeter s
Ġfryg te
c ard
ri ster
ĠgennemfÃ¸re lsen
ga den
ĠHolly wood
Ġtu risme
Ġ14 9
ĠK ai
for svar
Ġskal a
Ð¾Ð ¼
Å Ĥ
Mar ie
Ġfattig dom
Ã¼ ller
ĠA ne
Ġfore x
Ġal s
Ġuniversi tetet
ĠR ot
Ġgymnasi et
ĠMet ro
af fet
Ġgent agne
ĠKonge lige
Ã¦r sk
ĠsÃ¦d celler
ĠL am
b ade
ny tter
Ġbrug s
pens ation
ĠCent rum
ĠÃħ by
stat en
men sioner
ĠMed lemmer
NyhederTilbud Top
Ġappe tit
Ġangri ber
Ġst reet
Ġcol or
Ġtids rum
Ġinter iÃ¸r
ĠEn hver
Ġleg al
Ġinde klima
Ġ- >
ĠBa kspejl
ĠFolketinget s
sam fundet
ri ott
forme de
ĠmÃ¥ned lige
ĠÃ¦ bler
our cer
Ðµ ÑĤ
ĠVi rum
for fatter
ĠV EL
for holdet
fal dende
ĠEffe cts
Ġdobbelt seng
Ã¸konom iske
ĠL P
ssi kker
uddanne lserne
Ġdag ene
Ġin cre
Ġin stitut
it ure
ĠW ind
Ġresul tere
f amilien
Ġuden landsk
J ensen
Ã¸v rigt
Fa ciliteter
e xe
* ,
Ġc ons
ĠCar ol
Ãĺ N
Ġbest rÃ¦be
Ġluks uri
Ġh oris
Ġd rej
W W
udvalget s
Ġa ma
Ġpatient ens
ĠA kt
Ġerhver vet
ĠBet al
spro cent
li ci
Ung dom
ĠJuni or
cto ber
tu si
ĠC li
ĠundgÃ¥ s
plig te
Ġsammenlig nes
ograph y
ĠpÃ¥ t
ĠChri stop
Ġunderstre ge
ï ¼
c ken
Ġad dress
Ġud ski
ssam men
ĠfÃ¸l somme
L ars
sh ospital
ĠO FF
Ġis o
Ġan meldt
ĠW olf
App lication
forbinde lser
ĠH yd
Ġb ore
ĠKj ole
Ġen trÃ©
Ġkemik alier
tegne de
ĠvÃ¦k sten
Ġbereg ne
Ġf isker
Ġaf prÃ¸ve
T han
14 9
Ġerstat tet
Ġklin ikken
Ġcir kel
ma ter
Un d
dt Ã¸j
Ġop rÃ¸r
ĠrÃ¸d vin
ut en
EM ÃĨRK
Ġc ens
Ġaf vist
Ġun ger
ĠDe bat
Ġc opyright
bye r
ĠA K
je de
dte s
ĠAn svar
Ġf am
k under
Ġinve sterer
ĠsjÃ¦l den
Ġf lÃ¦
in al
ĠFilmKommende NyhederTilbudTop
o tiske
Ġre port
ĠAn tallet
ISK E
k ategori
ER G
01 0
ĠRad ik
Ġfores lÃ¥s
Ġar mene
ĠP asser
Ġfirma ets
Ġkup on
ĠNet op
ĠkÃ¦l deren
ĠH avne
vi tra
Ġle vet
ĠomrÃ¥ dets
ĠZ oo
ti dspunktet
Ġstat ens
Ġmotor en
O rigin
For retning
Ġbus ser
ĠlÃ¦ ne
Ġar rang
Ġbl ank
kel te
ĠE X
Ġu kr
Ar t
Ġsymbo ler
orm alt
re rede
ra mte
ĠnÃ¦rings stoffer
ĠUl rik
Ġd as
US B
Ġp ed
Ġspeci fikationer
Ġa jour
Val ue
ver pool
Ġkun sten
Ġkl ogt
Ġc all
Fran sk
konstru ktion
Ä į
sy delse
ĠJa zz
Ġto o
ĠMoz illa
H oliday
ra ce
at urer
gro up
ĠT ry
rÃ¦ tter
Ġbli r
sc ent
ĠC ase
Ġdu ring
16 8
m ob
Ġfand tes
ĠE lisabeth
Ġsh ort
Ġmark ante
Ġprem iere
Ġkult urer
ĠPub lic
lle kt
Ġfores log
ĠVa sk
Ġn ike
Ġtro vÃ¦rdighed
j f
ĠLy strup
ĠSt u
smu lighed
Ġ10 6
la rer
Ġkon ceptet
ĠL Ã¥
Ġunder visere
s agn
L AND
rig tig
Ġp els
Ġv intage
W ii
Ġskal dyr
Ġforsv undet
ĠmÃ¸r ket
ĠudvÃ¦l ge
ĠS ct
in y
ĠD L
B on
ĠW ay
ĠChri sten
e lever
Ġbed rage
Ġomdrej ning
Ġsna kket
Ġski ftede
sul in
ĠK V
ĠM unk
ĠVi sta
Ġlov ens
ĠSp are
Ġbjer ge
ĠlÃ¦der rat
Ġv Ã¥de
G em
Ġhelp ful
u age
Ġst reg
AL G
ĠUngdom s
Ġshop pe
Ġ$ .
del o
ĠAd vokat
sproces ser
Ġ2 10
Ġauten tisk
ĠCla usen
la h
Prin t
ĠP ad
C L
k it
ĠP ed
Ġj orde
For m
ĠBod il
sko ven
Ġvanske lige
st Ã¸r
obbel te
Ġmusik alske
Ġube grÃ¦nset
a iled
Ġsen si
ĠC ons
in ke
Ġcy kelt
pri ori
Ġsm ykke
ĠD ER
Ġsvi ger
ay e
3 20
Ġb ou
ĠunderstÃ¸tte s
Ġkn ogle
S tation
time ter
Ġsi lik
ĠErik sen
Ġment ale
Ġh Ã¸st
s il
ĠF ris
Ġutro lige
ĠB ond
sb og
Ġpyn t
ĠF ry
mu lighed
ore a
vil la
Ġkom pen
ĠMa skin
ĠW inter
Ġbeslut nings
Niel sen
r ud
Count ry
t an
ĠF Ã¦lle
ĠAn gel
St at
lig ion
Vej l
Ġaf lÃ¸
K lassisk
ĠSebas tian
Ġdren gen
13 14
holdnings apparater
Ġkrydder ier
Ġli tter
Ġak k
Ġmom ent
12 6
Ġtilbage ven
ĠBal let
ĠtÃ¸ mrer
Ġfor syning
b remse
Ġd Ã¸bt
ĠEx terior
Ġforny et
ĠGeneralforsam ling
Ġse ek
Ġ' '
ĠN ovo
Ġkolle ktive
in dkÃ¸b
ag on
Ġo z
Ġpar ret
Ġb itcoin
Ġman ip
Ġfor tiden
st rede
Ġ10 3
uer to
ĠnÃ¦r vÃ¦r
Ġp os
ĠM R
be styrelse
S U
17 5
Ġfa ser
Ġhurtig ste
Be r
Ġdoku menteret
Ġp iske
C ap
qu al
for handlere
Ġmobil telefoner
H av
UR L
k len
sp oliti
Ġpus le
Ġlook ing
kÃ¦ den
ĠHer ren
ĠMa in
ĠL ot
der nes
m V
forb undet
KT IV
Ġinde haver
inan s
ende l
Ġaller bedste
Ġkri minelle
ĠAir bag
ab ad
o ke
Ġindt jening
ĠK el
Ġul ykker
mm ing
sp akke
ĠSty re
ag ning
ĠM use
ĠA rab
Ġp lig
Ġsp ont
ĠOm rÃ¥de
Fra me
Ġme g
Ġunder lag
p umper
gÃ¥ s
Ġl ander
Ġincl uding
Ġefter uddannelse
Ġperspe ktiver
ĠmÃ¥ linger
Ġnet vÃ¦rket
d it
T F
ĠMal ene
valg te
ag s
Ġfa der
ĠDi as
Ġskru et
k ven
= âĢĿ
Ġever ything
Ġele f
Ġovernatnings steder
D o
Ġve getar
15 16
Ġfyl d
ĠL ave
ĠSyd dansk
Ġmarke rer
ĠJohn son
Ġerfar en
ĠfÃ¸l g
Ex pand
skonsul ent
Ġsik rede
Ġhold bar
Ġuforligne lig
bl omst
m iske
rÃ¦ ner
Ġle dning
ĠGri ll
ma in
sk ibe
Ġantibio tika
n ic
N l
ron isk
ĠB ryg
om on
Ġre laterede
be skrive
Ġtidsp lan
kt ar
Ġaccep teret
vÃ¥ ben
ĠO F
Ġud talte
ale m
Ġcy kle
17 0
Gr und
Ġmen igheds
Ġkost ume
l g
ĠS ummer
ĠsÃ¥r bare
ĠÃ¦ndring sforslag
ĠG ruppen
91 01
Ġpsyk ologi
ĠvÃ¦rdi fulde
Ġerhvervs liv
ij ing
hand len
ĠgÃ¥ afstand
Ġ19 82
Ġpas sw
ĠP ige
Ġad m
Ġ2 99
Ġdemokra tisk
Ġro uter
Ġb yr
Ġad varsel
for met
yt ten
stem ningen
Ġmuslim ske
ran sport
Ġsk iller
Ġhv a
Ã¤ ll
Ġview s
ĠO w
h ot
dan ske
Ġl en
foruren ing
sk asse
ï¿½ ,
Ġsm al
ĠÃĺl stykke
ĠHav de
Ġfrem kal
Ġkede lig
Ġmas siv
ĠG ad
Ġdi ff
Ġse je
ĠÃ¸v re
Ġop m
dre v
Ġend og
om isk
sh istorie
gi a
Ġinterview s
ygte vasker
ĠG rÃ¦n
Ġmidler tidige
ov s
Ġvis uelle
ĠMa i
ĠO liver
ĠMan u
Ġover flader
vi ders
ĠJac kson
ĠF rom
15 2
lo ne
Ġkende s
Y S
ĠSig ne
Ġundt agen
ĠBall room
K Ã¦ledyr
as iner
Ġma sker
ĠD Ã©t
lo unge
pati enter
ĠRi is
ĠJ ournali
Ġboo ker
Ġtur n
V Ã¦gt
y ret
Ġred aktionen
ĠhÃ¥ndvÃ¦r kere
ĠstÃ¦rke ste
Ġtid skrÃ¦vende
Ġsti v
Ġordin Ã¦r
ren te
Ġmas sive
Ġbetaling smuligheder
Ġsen getÃ¸j
Ġud nytter
Ġsli dst
man i
AT E
Ġintellig ens
M ER
heder ne
mm ene
ĠÃ¸st lige
Ġgodt gÃ¸relse
Ã¸je lser
V EJ
ĠnÃ¦ g
vÃ¦g ge
Ġreg uler
ĠGr unde
Ġbe sidder
Ġdedi keret
ĠS li
Cre ative
H ard
ĠfremhÃ¦ ve
Ġsc ener
Ġforen ings
Ġa sy
ri mod
ĠLa uren
ri ks
Ġforhand lingerne
ĠL ist
Ġcy ber
Ġstud y
Ġdo ser
Ġski ftes
ĠF it
ĠSv ane
ĠCar ls
Ġhospit aler
Ġinvol verer
ĠSn ow
Ġvi dst
ĠHamb urg
v ninger
Ġdansker nes
Ġsh orts
Ġover tager
Image Url
ĠK ul
ĠAvis en
18 5
Ġm ord
Ġkl Ã¸e
Ġejendom smÃ¦gler
Ġpres tige
be retning
si an
Ġde b
Ġbeskadi get
p inde
Ġtav s
Ġsp ild
Ġinddra ges
7 50
Ġ: -
Ġhud pleje
I m
ĠE P
ktivi teten
ĠOk ay
Ġan holdt
Til bage
sbe handler
rÃ¸ jer
sp Ã¥
ĠKe vin
Ġjuni or
Me r
ĠhÃ¥ndte rer
Ġpriori terer
Ġoblig ationer
ĠsÃ¦rdeles hed
ag tige
ĠLaur sen
ĠhÃ¸j den
Ġdi fferent
rÃ¥d givning
ĠAss oci
Ġkrig s
Ġvedt og
af fer
Ġind f
ĠP ap
ĠS W
ĠR SD
ĠPh il
Ġteen ager
grÃ¦n ser
Ġport rÃ¦t
al on
ĠÃ¥n de
Ġover holdes
S ave
timer ing
Ġm icro
rapp orter
the rs
o ste
ĠJ yllinge
Ġind rette
Ġen try
Ġdeci deret
Ġt os
ĠR acing
Ġmilli ard
Bar bie
ĠNy synet
ĠletkÃ¸b te
ĠTe a
ĠAir condition
Ġ Ïĥ
F u
Ã¶ m
A merik
Ġbe mÃ¦rket
Ġud brud
ĠskÃ¦r me
Ġpris bevidste
Ġfar s
c ont
lo ve
Ġskj old
Ġpres sen
b rowser
Ġhard disk
sk um
ĠnÃ¸ gne
Ġind byggede
ex press
p ush
Ġ12 9
or tere
ĠskÃ¦ bne
ĠW ed
ĠMo tion
Ġvi dens
Ġfortry de
Ġordres ide
or p
B ET
Ġkontra kter
Sk jul
k ru
Ġkn ytter
ĠCas per
z I
Ġmet oden
Ġfil t
u an
Ġkar ry
Ġkli ent
ĠSyd fyn
ĠÃ¥re vis
Ġr in
Ġs yl
p el
vers al
Te mp
ĠD IG
Me st
Ġ19 83
Ġbeske den
Ã¦n kte
Ġpro gno
Ġeksis teret
Ġorgan isering
Ġst al
lle y
Ġkonsekven serne
Ġfle ks
ĠC M
kke re
ĠFor b
sp lig
Ġmarke dets
Ġf ashion
g uld
ĠprÃ¦ par
ĠOut look
ret t
Ġpriori tere
Ġ12 3
n ske
ĠLem vig
ĠU dt
m Ã¦lk
je s
Ġsel f
Ð½ Ñĭ
har dt
f alt
Ġbud t
age lige
. *
Ġinds Ã¦tte
osof i
IT ET
ĠrÃ¦ kken
ĠTro els
vÃ¦ ske
ĠTil sÃ¦t
Ġnord Ã¸st
Ġkv in
Ġb um
Ġmani fe
kla gede
Ġin tu
ke lser
Ġhy giejne
op skrifter
EN H
ĠF RI
ĠPro te
B us
ĠE lev
C enter
rÃ¦ dder
ĠdrÃ¦ be
i Ã¸rer
ĠC ri
P ra
ran e
Ġinge fÃ¦r
Ġsan se
sko lerne
Ġlov be
bur ger
Ġsuver Ã¦n
Ġkor rup
Ġad ap
ĠhÃ¥ndklÃ¦ der
ini kker
Ġbr ygge
ĠÃĨnd ring
Ġbet ter
19 99
ĠD orte
ĠP ut
ĠNorm al
ĠR ab
Ġopti mis
Ġth ink
Ġ10 80
Ġcan ad
Ġskift ende
ti o
Ġf Ã¦
ape st
isk op
den stÃ¥ende
Ġal lie
le gen
Ġforsin ket
ĠvilkÃ¥r ene
Ġb itter
skabe ligt
Ġoperation en
t lig
ĠK Ã¸r
has tighed
Ġp y
Ġan givelse
ĠO BS
ĠfÃ¸r tidspension
b ab
ĠdÃ¸ds fald
p unktet
Ġdato erne
ĠUD EN
D T
Ġan fÃ¸rte
Ġg lans
me get
18 9
Ġborger nes
u it
Ġ19 81
c ier
ĠAnder sens
19 5
ĠBru gt
Ãĺ G
Ġte sten
g ger
P lus
ĠPl ant
ĠprÃ¦m ier
Ġkryd ret
Ġprojekt leder
Ġbe tegnelse
ĠIs lands
Ġkonkurren ter
ĠChic ago
12 4
ĠN Ã¸gle
ĠD AG
ĠF ile
Ġsm ooth
ĠB liver
skab ende
Ġgemme s
bi ke
ĠM ission
B are
Ġdrin ks
ĠTo ft
om ens
Ġti men
ĠA sh
ĠCont in
ĠPi zza
Ġar mbÃ¥nd
Ġk agen
Ġse ktion
od ning
Ġsej ren
F ag
ĠLokal plan
in ske
Ġregn skabet
le mentet
th umbnail
Ġinteresse rer
in iti
ĠKom mer
ĠDis play
multi ple
Ġna vi
k lip
bud get
plig tig
ĠD ens
Ï ī
Ġkv Ã¦l
cep ter
ĠM Ã¸l
Ġ certifik
w as
US A
Ġak us
ĠPre ben
IS S
Ġanaly sen
Ġfan en
mar ken
ĠBÃ¸rn ene
ĠTi dende
Ġaf tales
Ġunder skrevet
Ġforsig tig
kost ningerne
Ġfej rer
c ro
Ġnor mer
Ġs ved
ĠA e
m ond
Ġ×Ĳ ×Ļ×
im al
ĠV Ã¦
ĠfÃ¸dsel s
Con text
A arhus
Ġc ell
ĠB org
i tion
12 7
ĠDon ald
k set
Ġbety det
PrÃ¸ v
ĠLiv ing
ot an
ĠW ill
ĠtvÃ¦r timod
9101 112
Ġdistrib ue
U ds
ĠS orte
arrange menter
Ġopstil let
Ġsod avand
n ab
Ġer ob
Ġh orn
ĠÎ ¼
ĠLej ligheden
per ter
ost yring
Ġsm ed
Ġpro fit
fri sten
yt tende
Ġfa ce
ĠNor ds
Ġb ul
v ande
J f
inds igt
Ġmag asin
Ġbi ologiske
mp ty
Ġb ene
fre dag
Ok ay
Ġmet ab
ĠL Ã¸r
ali a
t n
tre me
kÃ¸r ende
Ġafd Ã¸de
ĠB un
Ġ11 6
Ġi phone
fag ligt
staurante genskaber
bor ds
ĠW he
ĠN ina
ĠRob in
Ġadsk ille
Ġpleje hjem
Ġind gangen
is a
Th omas
ĠRe sten
ĠtÃ¦n kes
le ep
Ġfremstil le
Ġb ok
tain ment
mad ras
H or
Ġkli enter
ĠL Ã¦ngde
an as
ĠByg nings
G Ã¦sterne
ĠnÃ¸g ler
ĠTi mes
K rop
Ġste ge
ĠSk andinavi
sy rer
BO X
K ilde
dt aget
ĠA lan
ser vering
ĠR une
ĠhÃ¥nd fuld
Ġv ha
Ġpat ent
V AR
E lect
ade d
ĠAut omati
Ġdistribu tion
ĠPhili p
oug ht
Ã¸j ler
rie lle
K o
ration s
ĠSp i
ĠLe asing
ĠÃħ l
ĠstÃ¸ der
ĠPar tikel
ytte re
ĠFIN AN
+ "
Ġreser veret
Ġb reak
Ġsmi lede
gt ning
tioner ne
ĠN eg
ĠH istorien
Ġjule gave
ĠVibe ke
d h
ED E
k ins
te kni
Ġomhand lede
ĠN Ã¸
he rs
ĠTi ps
ĠMÃ¸r ke
Ġp ix
Ãĺ L
Ġind gik
Selv fÃ¸lgelig
sm inde
Ġkarakter istiske
Ġbestyrelse smedlemmer
c ta
situ ation
Ġci vile
. ;
Ġbag ved
ĠnÃ¸d der
ĠSe vÃ¦rdigheder
H I
Ġkon fir
c ked
Ġhvor til
ĠM ale
Ġer ne
p ande
ĠA GF
klin ik
Ġoblig atorisk
Ġtyde lige
Ġout fit
ĠAn ker
ĠMÃ¸r k
Ġde lik
ori al
ĠOm kring
Ġeksperi menter
ĠSt an
le asing
ij n
Ġaf tage
gie r
ĠBe kendtgÃ¸relse
Ġvi ce
G i
Ġperson data
H otellets
ĠB at
Le der
Ġtilst ande
ĠmÃ¥l sÃ¦tninger
Ġbjerg ene
Ġtredje del
produ ktionen
ĠFre densborg
Ġglem te
Ġland skabet
Ġe ine
Ġro sen
w atch
ĠL or
Ġstatsbor ger
gr ene
ĠF ul
Ġ19 78
ĠkÃ¦re sten
Italien sk
ĠM ike
r yn
ĠC lin
h vi
ĠF ur
3 60
B ra
mo deren
Ġ19 30
Ġsna kkede
modt agere
Ġsyd Ã¸st
l Ã¦ngde
st ok
f arts
ĠpÃ¥ lidelig
Ġunder vise
ĠT og
A rea
ĠAfghan istan
Ġg ren
ĠO lie
ĠC loud
A W
Ġfors vinde
ĠHj ort
Ġkontra kten
Ġl obby
ĠBe ck
J G
ĠH ost
Ġtom at
over inger
Ġforestil ler
Ġ19 45
Ġfrem gÃ¥
Ġlig nede
it u
ĠAs sens
sp syk
Ġselv mord
w indow
en nis
ĠLi ber
lu x
jer en
Ġ );
ĠAf delinger
St rÃ¸m
Ġudbet al
Ġslu kke
kes und
ĠA ge
ĠM ix
ĠO ve
Ġreda ktÃ¸r
Ġf onde
s ygdom
ĠAn del
Ġpan el
ĠAr m
Ġcla im
B udget
H Ã¸r
ĠDetail pris
Ġre stri
klub ber
Ġrekre ative
t ru
gra den
Ġry tter
b is
ĠOff entligt
for mid
s agen
Ġudlej nings
Ġpod cast
Ġafvik les
ĠC LP
Ġs ut
or ar
Ġnor ge
ole rede
Ġbr udt
ĠRe geringen
Ġkonta ktet
ĠHol st
S wi
las ser
te ch
Ġs ummer
ĠKokke dal
Ġob jekter
Ġbet jent
Ġwi fi
ck le
w ater
ĠC amb
ĠD oc
gre en
ĠBirg it
ĠI SK
w al
ss ager
c hed
C urrency
Ġoblig atoriske
Ġudflu gter
G Ã¸r
ĠWh at
/ -
ĠAr tiklen
Ġsens or
9101112 1314
Ġanti oxid
Ġgo ogletag
ĠSten lÃ¸se
Ġud givelse
ND ER
ti ps
ug is
win ning
Ġarbejds marked
ĠSing apore
Ġover skriften
d als
M ac
Ġspi ds
Ġkla t
Ġfornu ft
ĠDan se
Ġmedvir ker
Ġuund gÃ¥
ĠnÃ¸jag tige
ĠP sy
Ġme mber
ĠCop yright
Ġvind mÃ¸ller
Ġaf givet
la b
13 3
reg ningen
bar a
Ġpar forhold
ĠC el
ĠMar ket
Ġst renge
ĠfÃ¦lle somrÃ¥der
ĠrÃ¥d give
ĠBr ygge
ĠberÃ¸ mt
15 1
× ĵ
N B
D k
Sk y
Al tid
ĠB age
per spe
check out
ĠR AM
Ġme et
be ll
um men
ĠF arm
1516 17
ĠO ur
Ġan givne
Ġj ung
ĠPhili ps
ĠHum an
ĠJohn ny
ĠTil f
J ens
Ġkommunal bestyrelsen
Ġforst od
Ġkom mentere
Ġpla kater
ĠF yr
13 6
ĠA pr
Ġsupp lere
vej ende
ar io
H obby
Ġde kore
Ġc ontrol
Ġar kÃ¦
________ ________
skud t
. Â»
Ġborger lige
Ġbygge kÃ¦der
Ġne uro
ĠBou tique
Ġargu menter
h unde
ĠMag asin
ĠbÃ¸r ste
som mer
Ġopford ring
Ġtilslut te
Ġre ce
Ġcomm ent
ĠMo se
SP L
Ġaner kender
Ġrekru ttering
Ġcen timeter
miljÃ¸ et
Ġorgas me
Ġkv anti
Ġt viv
Ġow ners
pri serne
Ġlandsby en
ĠMall orca
ĠnÃ¦r t
Ġbe ing
s and
Ġpul s
il ton
ĠV intage
Ġ19 40
Ġan sÃ¸ge
a ret
ĠTil st
ĠLa w
ĠS lee
Ġof fers
For en
ĠViet nam
2 99
Ġstil l
Ġfremstil les
sk ol
Ġfors varet
giv nings
Ġsp oret
ĠS Ã¸ger
ĠÃĨ gte
ĠHÃ¥nd frit
Î¿ Ïħ
27 0
ĠL inde
Ġbe mÃ¦rker
ĠT uren
Ġegne de
kom pon
og as
N ik
4 50
ĠLej lighed
Ġd ronning
ĠdrÃ¥ ber
Ġst amme
7 00000000
fly tning
Ġslan ge
is teret
ĠgrÃ¦ sp
Ġtran sp
ost on
sene r
ĠG il
bind ing
vind ing
ĠG len
ud dannet
Ġp p
ĠN ame
ĠMarke ds
Ġud gav
pub lic
Ġru ller
ĠFÃ¦lles skabets
Ġruss isk
ĠhÃ¥n dtag
ĠD ress
si li
Ġli kes
Ġindstil les
p ynt
Ġbo ller
Ġbon de
vende s
Ġakut te
Ã¤ t
K ir
par te
ĠblÃ¦ ser
Ġroom service
Ġko den
Ġtredje part
sl ot
ĠkÃ¸be re
Ã¦ ves
ĠSoph ie
Ġstra m
Ġselv tillid
ĠvÃ¦r dig
ĠRe laterede
l os
ad ults
? )
mÃ¦rke de
ĠF ab
ft ende
Ġvente tid
Ġrejse partnere
Ġkon gen
Ġamat Ã¸r
ĠD rop
16 5
op en
ĠHÃ¥nd bold
ĠÎ ±
Ġoversky dende
Ġarbejds markeds
Ġudform ning
ĠSÃ¦l ges
gra der
Ġfinan siel
Ġmale ri
for stÃ¥et
Ġf os
Ġkop ie
de fault
ht m
ment al
sp rÃ¦
an el
T ast
vej leder
Ġb od
Ġac ce
Ġs tive
hjÃ¦l per
ath on
t uelle
Ad d
ĠD O
stre re
ĠtilfÃ¸je s
ĠPo ol
hje mmet
Ġsm ad
Ï Į
iti me
Ġu syn
Ġch ildren
Ġsti e
Ġte ster
Ġmoder at
ĠVi agra
leve lse
ĠMed ie
lt on
Ġkomp ensation
myn digheden
orte rede
91011121314 151617
Ġop sat
kli pper
Ġpri ss
ĠHede husene
out h
Ġkonklu sioner
ta f
ĠMar keting
Ġny re
ban eg
ĠMar riott
bli kket
ĠE ric
Ġtren d
V ol
Ġengage rede
Ġtilb ringe
ĠFjern varme
ĠgÃ¦ster nes
Sc ore
Ġven tes
13 4
Ġteknolog ien
Be liggende
ĠA ktivitet
Over sigt
Ġfor lag
45 8
Ġfe w
Ġmil de
ĠS enest
Po sten
H over
ĠPL N
ĠbÃ¦redyg tigt
ĠSt ru
Ġdi ar
kÃ¦ de
ĠC ZK
ĠL AN
re y
Se par
Ġb Ã¦
fat tet
Ġsilik one
Ġefter retning
Ġk Ã¥ret
ĠSne aker
oc ie
Ġju steres
ĠhjÃ¦lp somme
Ġund vÃ¦re
Ġkat alog
Ġtil vÃ¦relse
I AL
ver en
stil synet
Ġudflu gt
ĠSyd jylland
Ġbe mÃ¦rkelses
ĠCas ual
b ach
sekret Ã¦r
H V
Ġ19 75
Ġklassi ker
s j
Ġe f
R as
Ġkontrol len
ĠtrÃ¦ net
ĠUds alg
Ġseri Ã¸se
ty pen
f its
s ofa
R ET
Ġdyb den
ĠSwe den
iss Ã¦r
Ġudford ret
y on
Ġm Ã¦nds
Ġregistre rer
Ġant yder
Ġminer al
M or
a j
ĠHer man
bli ve
Ġsp litbagsÃ¦de
Ġopbe vare
Ġ14 5
Ġryd de
ĠN OR
ĠsÃ¥ ret
Ġdo or
Ġtyde ligvis
ĠK asse
Ġsag sÃ¸ger
Sk Ã¦r
r r
Y N
l Ã¦r
Ġc u
Ġ25 00
Ġmangfol dighed
Ġform Ã¥et
Ġsyn spunkt
j amin
Ġkomp lette
ĠforlÃ¦n get
ktivi tets
ĠSc ott
Ġtil deler
Ġf rÃ¦
as px
M M
ĠPerson alet
Ġan tages
ĠvÃ¦ sen
va cy
Ġr under
Ġmon tere
ĠPoliti et
Ġsu ppe
ĠJ el
fa ct
Ġmel od
Ġbil ens
Ġvidunder lig
u h
ĠbekrÃ¦ ftelse
Ġla s
Ġindt a
ĠCor por
ĠLi sten
Ġak var
ford ring
Ġan ima
**** ****
Ġslim h
Al ene
Ã¸rg slen
ĠMar c
Ġpo ints
And roid
ree k
Ġc li
AG ER
Ġgu ler
ĠkÃ¸n s
i ger
Ġinformation s
Ġï¿½ï¿½ï¿½ï¿½ï¿½ï¿½ï¿½ï¿½ ï¿½ï¿½ï¿½ï¿½
ĠM ia
Ġmarke re
Ġbesk adige
15 9
ĠOff entlig
Ġst Ã¦vne
ĠsÃ¦t ninger
ĠT ai
Ġ% ,
Ġat le
is ser
ĠAR S
Ġposi tioner
ĠInstitu te
Ġop stilling
Ġkon servative
dre vne
trÃ¦ den
fic ation
ĠV Ã¦g
ĠMi ami
Ġi stedet
ĠGod kendelse
ĠEm ne
ier ende
Ġste mp
Ġbar en
ĠD agen
Ġlay out
Ġgennem skue
Ġsoli de
ĠvÃ¦r ne
O ffers
Ind til
ĠSing le
Ġann ulle
ĠMed ic
Ġlykke lig
ĠMe rc
ĠM X
ĠL td
X J
Ġbl ink
Ġdelt agende
Ġnatur ens
R ob
u si
ĠM ic
ste derne
stan bul
Ġkron iske
Ġle ft
ĠV W
Ġhind bÃ¦r
Ġmodstan der
Ġg ardin
k one
ex pand
Ġle tter
13 7
ĠInter view
Ġerstat nings
Ö ¿
ti kere
we ight
st ant
ĠopkrÃ¦ ves
ĠAr gent
Ġud strÃ¥
ĠL iss
Ġope rationer
Ġid yl
ĠEU RO
ar o
Ġstj Ã¥let
Ġdra b
fo ot
Ġop ry
d oku
Ġal low
no tice
ĠProdu ktet
Le ss
Ġrime lige
ĠChamp ions
Ġsc or
Ġfunktione lle
ĠM ul
ch ens
12345678 91011121314151617
ĠEx tra
Ġfornu ftige
hjÃ¦l ps
Ġhyd ro
Ġfitness center
Ġalle s
Ġbe vist
Ġsat se
Ð¾ ÑĢ
Ġg alle
Ġresponsi bility
Ġr Ã¥de
qu ip
Ġforbru ge
Ġsp Ã¸rg
Ġad fÃ¦rds
Ġcy kli
ĠK unden
Ġ11 1
Ġ6 000
ĠEnter prise
ĠansÃ¸g nings
Ġvideo format
ĠA ktiv
18 4
Ġre form
ĠHelle rup
Pri ces
Ġment or
ote kn
Pri ser
Ġautori seret
Ġg ot
Skal a
urop Ã¦isk
RU ND
Ġkreds lÃ¸b
y en
ens igt
ĠmÃ¦rke s
ĠA ve
Ġgr ene
Gen re
Ġfor fri
Ġscore de
Ġre vis
ag ens
Ġmodtager en
Ġbestyrelsen s
Ġsmit tet
Ġst ock
ĠSaf ari
shop s
bo ller
ĠM EG
Ġek sistens
amb us
. '
ĠF DM
Ġter rit
in j
Ġa e
ĠDistri ct
stitu tion
Ġtema et
Ġfly et
Ġb Ã¦kken
Ġc ross
Ġsk aden
Ġandels bolig
m ier
Tool tip
sti dspunkt
ĠB ron
var ter
re fer
ĠbeskÃ¦f tiget
Ġ/ *
ĠFrid ay
Ġsigni fik
ĠMo unt
Ġi ss
Ġeksklu siv
No get
ĠB ord
IS BN
ud a
sm uk
Ġkolle ktion
G ode
Ġforbru get
ĠDire kte
Ġ uren
rol len
Ġle des
Ġsjove re
ĠLad y
sk ala
Ġnove ller
ĠÃħb ent
15 7
h um
g nings
J A
Ġbog stave
spro grammet
Ġslag sen
Ġud giver
ĠBe styrelse
Ġp ens
ule tte
Ġï¿½ï¿½ï¿½ï¿½ï¿½ï¿½ï¿½ï¿½ ï¿½ï¿½
S n
ĠE ssen
Ġkommuner nes
ac a
ĠFun ktion
Ġin sulin
dire ktoratet
ID ER
Ġfor deles
mail adresse
Ġinte llekt
ĠSp Ã¦nding
Ġkunstne riske
b ottom
ĠvÃ¥ gner
m ig
ĠLEG O
ĠlÃ¸ gn
pol l
ĠWell ness
ĠF ox
ĠBe ijing
olog ier
Ġp s
Ġkomp likationer
min ation
fa ste
Ġman ual
Ġkomp akt
Ġforst Ã¦rke
Ġud arbejder
boe r
Ġteore tiske
delo yalitet
ĠtÃ¥lmod ighed
ELS ES
s ordning
Ġaf kÃ¸
Ret ur
Ġsuc cess
ĠG Ã¥r
Ġsk ral
Ġfunktioner ne
Ġfors varer
ĠMo sk
S al
ĠS ter
histor isk
sh ims
Ġal g
Ġstri ber
ĠSand al
ķ ×ķ
P OL
Ġud lÃ¸bet
Ġa an
ri an
enh av
Ġop fatter
Ġsk ur
Ġm Ã¦ndene
CT S
ĠtÃ¦n de
HT ML
Ġrent en
Ġvide res
Ġm Ã¸b
ĠD ry
ĠrÃ¸ get
Ġsol celle
ĠbegrÃ¦n sning
Ġstie r
Ġop lÃ¸
Ren gÃ¸ring
F ast
speri ode
Ġdy kker
Ġperi od
h vide
Ġi sen
Ġsti kker
St ring
Ġop tions
ĠC u
Ġdi se
Ġpyn te
Ġre ferat
Ġg Ã¸dning
ĠA age
klu sion
b un
Ġpoliti ken
Ġpas si
pp el
Ġsn avs
Ġero tisk
Ġud f
pak ning
fter ne
M B
ab on
b rÃ¸
gennem snit
Ġgennem t
Ġblan des
Ġalle sammen
Ġc el
sc y
EW S
c ies
Ġsm ider
her red
si digt
Ġ7 20
A E
K abler
Ġbl ander
kÃ¸ be
n one
Ġ3 20
check in
Ġjap ansk
s ner
ar ly
\\ \\
ĠMar ine
Ġin ventar
g ener
w all
Ġko sten
Ð° Ð½
sten en
ĠÐ ¼
sc reen
par ent
J Ã¸rgen
ĠCon tact
Ġe jendommens
ĠHen ry
Col or
ĠE gypten
fa ktor
Ġund rer
ri ts
16 7
Ġk alenderen
Ġvandt Ã¦t
Ã©e r
M Ã¸
ĠmÃ¥l gruppen
ĠVal ent
ĠSe j
up unktur
sb en
ti a
finansie ring
Ġ17 00
ĠtrÃ¦n ge
per ten
Ġudleverings sted
M id
L ig
vÃ¦r ktÃ¸jer
Ġtaller ken
tal en
ĠUniversitet shospital
Ġok sekÃ¸d
ĠM om
Ġwith in
op gÃ¸relse
Ġmotor vej
Ġ Ã¦l
Ġal ways
Ġ( "
Ġsk ive
Ġuden om
jen ings
Ġdaglig dag
ĠWilli ams
Ġpoli tikker
Ġl Ã¥r
Ġkun deloyalitet
Ġerstat tes
over skri
ĠC ookie
Ġmikro fon
Ġbag t
Ġre volu
ĠB oe
An ders
ric s
ĠR und
Ġbevil ling
Ġned lagt
Ġs inde
ĠW ien
ĠN ar
Ġspi ses
Ġinds Ã¦ttes
S lot
f low
gÃ¥r de
ĠTen nis
Ġment al
S ig
Ġgennemsnit tet
ĠTang o
ĠivÃ¦rksÃ¦tte re
Ġmag net
ĠjÃ¦vn t
Ġop sam
lo e
Ġfa a
{ \
ĠAf tale
Ġme dens
mme lige
Ġjag ten
3 80
al in
Ã¸je lsen
ĠR undt
lu kning
u w
Ġtom mel
ĠHove dst
Ġvarme pumpe
Ġkonsul enter
Ġk olesterol
ĠV andt
Ġwe ek
Ġbatteri et
Ġh ug
ĠSocialdemokra tiet
ĠÃħby hÃ¸j
sp artner
Ġvel sig
Ġs au
ĠV oksne
Ãħ rets
Ġtal enter
Ġli ft
Ġab onne
ĠD Ã¦k
Ġreser verer
Â º
Ġfra g
Ġs ug
Ġselv fÃ¸lge
Ġse ktorer
Su pport
vÃ¦n get
Ġ Å
m aling
D it
Ġord fÃ¸rer
Ġtil hÃ¸r
ĠT antra
Ġv Ã¥r
ĠvÃ¦rdi boks
Ġseri Ã¸s
Ġudsol gt
Ġfl yg
T rÃ¦
Ġkryd ser
Ġcon dition
ĠM ater
Ã¸d ne
li get
Ġvin en
ĠFla sh
ĠP lease
g at
Ġbe myn
V ig
Ġover t
j ens
Ġalminde ligvis
p oliti
is tika
Ġmasse vis
Ġfre ds
ĠDe sk
Ġste mte
Ġ11 8
Ġ[ +
par ret
Ġm yr
zz o
Ġvaske s
Ġdiscip lin
ĠIn spiration
N yd
ĠR EG
ĠLe veres
Ġforkla ret
Ġby rÃ¥det
Ġind vendig
ĠT r
bo ende
Ġa didas
rom an
ri al
Ġoverv Ã¦ldende
Ġkli ppet
S N
ĠP ET
Ġ* /
Ġomf anget
Ġsh are
Ġimple mentere
Ġaf vikling
over fÃ¸rsel
15 5
ĠEvent yr
an meldelse
va rem
Ġoliven olie
ĠstrÃ¸m men
ĠPol y
ĠKl oster
Ġappel sin
ĠNe denfor
k affe
ĠRos a
EM BER
Ġdra matisk
fra me
ĠT L
n ord
Ġge m
ĠmÃ¥ den
ĠSpilNyhederTilbud Top
Ġab ort
riet te
delse s
sk unst
Ġhorm oner
Ġoprinde lig
ĠS at
Sam fund
b ody
×ķ ×Ł
Ġst olen
Ġreg ningen
k il
ĠJo e
fla ske
Ġsk Ã¦g
le jen
Ġom di
Ġlige glad
ĠfÃ¦r des
gu iden
ĠPat rick
od or
Ġi v
Ġad vent
Ġgennem gÃ¥ende
Ġope rat
Ġteen age
Ġgulv varme
ĠDe mo
For ud
Display Price
ĠC lar
ĠOut let
Ġark iv
Ġlove de
ver sen
Ġdu kkede
inds atsen
Ġd ro
Ġh opper
Ġfor Ã¦lder
ĠGennem snit
ĠSt Ã¸j
Ġshop pens
Ġopti mering
ĠfÃ¦lles skaber
ĠS EL
Ġselv vÃ¦rd
ĠLin ux
ĠL itteratur
Ġfre kvens
Ġere ktion
Ġny synet
Ġtilbage betaling
Ġforpligte lse
le vard
n isk
ic on
Ġu skyl
ĠÃī n
PL AN
w ia
Ġa vl
Ġmag iske
splad sen
ĠS R
g lade
P al
Ġst av
Ġsej re
Ġj Ã¸der
ch et
Ġparkering ssensor
Ġfla sh
O b
Ġan skaffe
Ġos lo
A b
ĠE mail
Ġteam s
sum mary
amen tet
ĠBygge ri
Ġon ds
ĠB asis
lu gt
re me
fre mme
22 5
Ġxxxxxx x
18 7
ĠPlan te
âĢ ĺ
rÃ¸ ret
le skab
Ġk art
Ġste re
Ġimple menteret
vi ous
F ire
Ġsol o
Ġmest re
Ġmini mere
ĠVis it
T it
Ġret ninger
Ġforn Ã¸dne
ĠâĤ¬ /
urn iture
ĠSpeci elt
Ġ cer
lyn ge
politik ken
Per cent
papi rer
ark iv
ĠA G
l li
Ġkor s
foren ings
De svÃ¦rre
Ġu ne
tige lse
ĠIn dt
del sens
Ã¡ n
he de
Ġte mpe
Ġn Ã¥l
ĠlÃ¦ ben
Ã¦ di
ati en
ĠTje kk
Ġad varer
ĠF old
Ġregn sensor
ĠS kt
ĠC ust
ĠChe lsea
leve lser
Ġh ier
Ġgar den
Ġp uder
ĠRe c
Ġm Ã¦gler
le delsen
Ġ19 77
ĠÎ º
Ġkontrolle ret
ĠO ps
fi kke
ĠMik ael
Ġsang en
ĠtiltrÃ¦ kker
v old
Ġomhygge lig
instal lation
Ġaf vise
Ġfry se
Ġs nu
ĠFlens borg
E ne
Ġvej ledningen
ko hol
ĠSi ze
ĠsÃ¦t ning
Ġkon dom
ĠstrÃ¥ ler
FOR T
Ġdan marks
Ġsk Ã¦l
E uro
ĠA ps
V C
Ġover lÃ¦ge
lej r
Ġud lover
14 5
sn Ã¦s
g ge
ĠAc cessories
ĠÃ¥n ded
Ġek stre
Ġmotor cykel
O ct
ĠhÃ¦ fter
stand arder
ud stilling
H VER
um Ã©
L ov
ĠLad da
Ġde ad
ĠlÃ¸be sko
Ġop gjort
Ġte chn
P M
ĠF uel
ĠLi verpool
ktryks mÃ¥ler
ĠKom fort
Ġtrav le
Kap itel
sy ningen
ĠCh urch
Ġsig ht
Ġmellem tiden
la den
Ġomkring liggende
Ġliv ing
Ġge ografiske
ĠI denti
en ds
ĠmiljÃ¸ e
Ġhvor imod
ĠPri x
ĠT ap
ko den
Ġforbinde lsen
Ġopfyl delse
ĠÃ¦g lÃ¸sning
Ġeksemp lar
ĠH in
byg ninger
ĠAp otek
Ñ Ĩ
Ã¸g n
ĠB jerg
Ġsty les
ĠBuk ser
Ġment alt
fi ger
Ġka stede
Ġaf rejse
ben et
l L
Ġan visninger
Ġopfat tes
C al
ĠIn t
Ġk y
Ġa mo
ĠPro ject
J ap
ĠÃ¦rger ligt
Kl okken
Pub liceret
h au
T reatment
ĠSk jern
Ġm os
skud det
Ġingre di
M iljÃ¸
ĠL G
ĠLever and
ĠMed ical
Ġinstitu tionen
ĠdrÃ¦ bte
Ġover holdt
ĠtÃ¦n derne
Ġp ude
ĠAmerik a
Ö ¼
red nis
Ġp ad
ĠTour s
ĠB rev
ĠNÃ¦r um
ĠProfession al
IL L
Ġeftertrag tede
ĠT rol
Ġh ytte
Ġses sion
Ġmar ket
Ġpasse rer
p os
strÃ¦ de
at han
Ġle deren
Ġny begyn
Ġkomp osi
ĠBr andt
ĠsÃ¦ der
dat abasen
Ġroman tiske
Ġh its
r ar
13 2
in ed
Ġver s
ort set
16 4
kn ap
Ġhvor med
Ġgrund vand
A k
imp ression
Ġfors amling
lo vs
Ġbygge de
fe ed
ĠArbej det
Ġsm iler
ĠT itel
Ġaf lÃ¸b
Ġk yn
Ġinvol verede
Ġabsolut te
Ġelekt ro
Ġbro en
tte s
Ġac cessories
Ġudvi der
Ġkulhyd rater
T otal
ĠD jurs
Ġstrukture ret
ĠKon servative
give lsesdato
Ġover h
Ġmed fÃ¸rt
c rip
omst olen
M artin
Ġs lemt
var mer
ĠP uerto
Ġcon sent
ĠRadik ale
ĠF antasy
Ġudsalg spris
K rig
Ġlo yalitet
us sion
bru sk
ĠVol vo
Ġun gerne
b akke
ĠN ow
Ġd al
Ñģ Ðº
Ġbe auty
Ñ İ
ĠPic tures
ut ri
kont oret
ĠDAN MARK
n st
Ġhen over
histor iske
Ġly sten
J w
S Ã¦t
Ġoverleve lse
ĠRen Ã©
ip per
Ġdiskus sioner
Ġind fÃ¸res
ĠJ am
ĠWe r
Ġpen d
13 1
Ġi fÃ¸rt
ĠÐ½ Ð°
ĠFro st
o on
sm od
ĠT ror
sm odeller
Ġope rerer
ĠlÃ¸be tid
di get
ĠHe adset
ĠivÃ¦rks at
' m
K I
cn l
Ġudvi des
ĠAl liance
ĠW ol
To Meta
ĠL yt
B ORG
as je
Origin al
ĠS ygdom
Ġtryk fejl
Ġassist ent
Ġen ty
Ġfestival en
Ġ19 73
Ġgennem brud
ĠvÃ¦g gene
ĠVis ual
Ġprote iner
ĠhÃ¸jt taler
ling ton
sp en
ven ner
ĠbrÃ¦nde ovn
Ġtime Seneste
regi on
liggen der
ĠK os
Ġ12 2
In fos
Re ad
Ġaller mest
ĠSte fan
Ġb ringes
Z SI
sk Ã¸nne
ind holdet
Ġforst Ã¦rker
Ex ist
Ġp lease
Ġoverkomme lig
ĠG enerelle
G enerel
j Ã¦r
i LC
Be stil
Ġskab et
Ġs ene
ÑĤ Ðµ
Ġde p
U mV
Ġw in
ĠD ays
S ub
Ġled ninger
rette lse
Separ ator
t arget
un ch
teri et
undersÃ¸ge lsen
Ġt Ã¥rn
Ġin t
ĠInd lÃ¦g
ĠmiljÃ¸e r
Ġbeskrive lser
vÃ¦r ke
Ġkoncent reret
ĠDesig ner
ĠindlÃ¦g Send
Ġpassw ord
? !
ofil m
ke e
O ffer
A pr
Ġferie hus
Nl Ii
Ġkon firmation
Ġtrans fer
E qual
ĠGust av
ĠK em
Ġkur ve
ĠT onede
ist and
we gian
Veri fy
B EST
det ailed
fÃ¦r dige
Ġer gon
ĠudlÃ¸ ber
ĠBar net
Ja zz
ĠShang hai
strukt uren
ym obil
Ġcont in
la u
m am
undt vig
ĠM Ã¸d
Ġirri tation
ĠE v
ER T
Ġbal ancen
ha ir
Ġd Ã¥b
LP F
c tic
ia bel
ĠÂ£ /
E gnet
T WF
ĠAc tive
yl ling
hand sker
Ġregn vand
un available
Ġstad igt
Ã¸n ner
k lasses
ĠvÃ¦ kker
Ġe tiske
ĠMan den
Ġliv moder
Ġunder liggende
Ġred nings
ĠC F
Ġkede lige
Pro viders
Ã¦n en
Ġac ti
Ġkonge lige
bid o
d iske
vir kende
Gr Ã¸n
Ġforbe holder
Ġinforme ret
Ġfly rejser
otenti ale
ili ty
ite ret
Ġtablet s
Ġind gÃ¥ende
red aktÃ¸r
Ġs yr
Ġ11 7
ren ch
sk assen
Ġa gen
Ġsympt om
Ġpal Ã¦st
hand le
ĠPo ker
Ġgen sidig
ove re
rus alem
Ġfor leden
Ġre qui
ĠkÃ¦mpe de
nings lovens
15 6
l cm
ĠR UB
Ġbeskytte lses
location Id
Tax es
Ġlegen dar
Ã¸je de
Log in
Ġg ymnastik
N vb
Ġkon sistens
ĠÃ¸de lÃ¦gger
Ġarrange rer
K R
Ġl oppe
Ġtran spar
Ġte ch
Ik h
t nings
p bk
che aper
ĠFuld aut
ĠM ors
ĠT on
ĠChrist ine
z abeth
Ġaf gÃ¸r
histor ier
Che aper
sub string
Ġrespe ctive
ĠG T
ey J
ĠT ine
ĠNY HED
Ind hold
show Price
Ġlov forslag
at orium
b GV
Ġlej r
Ġkon fron
o ti
RJ T
refer ring
Ġsp lit
Ġkompetence udvikling
Lej lighed
= ","
is Booking
Ġover trÃ¦delse
Ġmater iel
en ix
I Frame
a WV
FV Q
Time Of
zd GF
Ġeksemp larer
zI jp
u lat
Priceline Com
Ġarbejds liv
hotel Name
Less Than
Or Equal
rooms To
gen New
ZW xf
Nvb W
c ara
entry Price
LessThan OrEqual
Sy I
can Expand
selected Room
form Key
iLC Jw
price Drop
ĠAven ue
PV EV
poll Count
is SupplierDirect
is PricelineCom
use SupplierDirect
Book State
At Click
mismatch Check
hotel Photos
has Special
tracking Context
show Provider
Booking SessionId
QU lL
nav Area
Availability Key
partner Infos
meta Offers
All Partners
Header Message
wi QUlL
SF Jf
lowestPrice Partner
roomSelection Key
RoomsTo AllPartners
entry Currency
Ijoi SG
Ijoi SFJf
more Providers
Ik JG
additional Partner
additional ContentIds
Provider AtClick
seeMore Message
seeMore IFrame
trackingTree Id
avgHistorical Price
avgHistorical DisplayPrice
booking SessionId
total Media
WR zIjp
commerce ContentIds
Stay Taxes
TZ XJ
isMeta Cheaper
enable LPF
express BookState
multiple Partners
Swi ZW
winning ProviderAtClick
Hover Tooltip
expand RoomsToAllPartners
notice HeaderMessage
Prices Exist
wia WRzIjp
impression Key
cnl TZXJ
NlIi wiaWRzIjp
detailed AvailabilityKey
TWF pbk
lcm NlIiwiaWRzIjp
Ikh PVEV
cheaper PricesExist
eyJ zdGF
showPrice HoverTooltip
referring Servlet
isBooking LessThanOrEqual
TimeOf StayTaxes
roomsTo Verify
genNew BookingSessionId
ZWxf UmV
canExpand Rooms
selectedRoom Key
iLCJw IjoiSFJf
priceDrop Percent
useSupplierDirect Treatment
mismatchCheck Model
hasSpecial TimeOfStayTaxes
showProvider Separator
wiQUlL Ijoi
IkJG SyI
seeMoreIFrame Message
totalMedia Count
TWFpbk NvbW
IkhPVEV MX
isBookingLessThanOrEqual ToMeta
iLCJwIjoiSFJf TWFpbkNvbW
Ġ8 000
rte minde
ud bud
ĠU dstyr
ryg ende
Ġty veri
K affe
ĠB U
A ST
B ut
van ced
ri tu
Ġplan et
Ġudgang spunktet
ĠPers oner
Ġud smy
ise rede
ci ent
ĠE valuering
ĠPort o
13 8
isk y
Ġudb redelse
ĠV EJ
Ġkla ret
F ro
ĠnÃ¦r ing
H U
ĠsÃ¥ gar
Ġd ru
PH OTO
byg ges
ĠNy hedsbrev
Ġse hr
Ġhandicap pede
Ġblog s
ĠDer ved
ĠsovevÃ¦relse t
Ġfl od
kla me
ĠMog ensen
ĠS ogne
Ġbe varet
cer inger
E P
E rik
Te r
Ġop varme
ĠResiden ce
Ġ19 72
ĠB B
Ġubeh ag
Ġph otos
Ġme ssing
G am
ge vin
ĠI tali
i sten
ĠHel s
see ing
ĠIn dre
Ġaff Ã¦re
Ġp lug
a mel
af delinger
ĠoptrÃ¦ de
Ġforan stalt
zh ou
Ġigang vÃ¦rende
Ġexten sions
Ġudfor met
ron ningen
man dens
Ġan sÃ¸gere
ĠLind a
Ã¸dsel sdag
is mer
Ġmed fÃ¸lgende
ator en
la bor
Ġgent age
ĠAx el
m assage
ĠH otwire
ĠmÃ¥l ene
ĠK abler
ĠdÃ¦ kkes
ĠKle in
ĠVi dere
gre e
ĠLe ge
Ġmo untain
Ġsv in
ĠforsÃ¸ get
Ġstab ile
ĠMellem Ã¸sten
ĠF at
w ik
hol dige
Ġby erne
ĠgÃ¦l ds
ĠD ouble
Ġel sket
ĠTrÃ¦ ning
ĠO h
ĠEdit able
Ġlige til
ĠÃ¥ben hed
Ġsa id
Ġfol keting
Ġu hy
Ġh ash
ĠKri sti
forvalt ning
ĠrÃ¥d givere
fl od
Ġbagage opbevaring
ĠSec urity
Ġrejse mÃ¥l
Ġta kker
Ġhellig dage
Ġpra gt
s loven
Ġero tiske
or vet
Ġsin ce
Ġla m
P age
ali seringen
tte de
on na
ĠQue en
kyn dige
Ġk os
middel bart
ĠvÃ¦r ket
ind retning
Ii wiQUlLIjoi
ĠH ad
Ġaspe kt
ĠAa B
ĠEditable Fields
Ġk inder
Ġsch ool
Ġgyl digt
h ing
fÃ¸r ste
ĠsammenhÃ¦n gen
Ġsl ots
Ã¸mme lser
Ġinse kter
ĠY oung
Ġlangvar ig
Ġha ppy
ĠJor dan
sty kket
ĠHe idi
ĠJ une
Ð» Ð¸
f ine
ĠVirksom hedens
ĠJ Ã¦ger
Q L
Ù Ĭ
Ġs ays
Ġsv indel
Ġtro en
Ġseks uelt
Ġsk Ã¸d
Ġvar ierende
re staurant
Ġuund vÃ¦r
Ġ12 6
person en
ĠK rig
mar ker
in ta
ĠNok ia
Ġrelev ans
Ġtag get
Ġkon ferencen
Ġlangsig tede
ĠArbej de
ĠS ens
D VD
Ġhe art
ĠSe kret
fra vÃ¦r
ĠH ay
ĠL il
ĠnÃ¦r hed
ĠR ap
Ġ19 76
Ġfu sion
o ller
ĠR ent
Ġregel mÃ¦ssige
ĠMas s
Ġpo sted
Ġfor styrre
ĠV ild
ĠberÃ¸r t
Ġv red
Ãĺ st
vi es
Ġnot at
Ġp et
Ġintellig ent
Ġs ats
Ġimp oneret
trÃ¦ kning
Ġop lagte
Ġa us
ĠO il
Ġoverf lÃ¸
ĠskÃ¦ res
port al
Ġâ ĺ
ĠSte det
Ġbrun ch
Ġdu m
Ġmoder n
Ãĺ D
Ġbe styrer
Ġkir sebÃ¦r
ket ten
Fir st
Ġs vej
B Y
For di
AL ING
19 0
Ġtoilet artikler
Ġbe vidste
ĠM ateri
ĠJes u
Ġinteressen ter
smar ke
ĠS jÃ¦l
ĠS lo
ĠMo dt
Ġpar tikel
Ã¸re telefoner
G iv
ĠLiv sstil
Ġtv inge
j us
duc ation
Ġintrodu ceret
Ġmand ler
ĠSal sa
ĠprÃ¦ sterer
indk omst
lige holdelse
Ã¸ret Ã¸jer
: -)
ĠK ategori
ĠVÃ¦re lserne
Ġhove dte
Ġtil sÃ¦ttes
== ==
f jorden
ma terialet
Ġfry ser
Ġra te
Ġsammens Ã¦tte
h istorien
Ġunder tÃ¸j
ĠN ETS
Ġmind ret
Ġbe redskab
sk or
Bille der
D AB
set rin
sket ball
Ġopbe varer
mester en
ĠI KE
ĠAlex and
Ġtran saktioner
ĠHer rer
ĠGem te
ro lighedspolitik
bo oks
Ġpl anten
Ġâ Ļ
Ġnu tidens
ĠA ars
g ud
ĠBo y
mid dag
Ġinterview et
Ġg ay
o ds
For mÃ¥let
Ġw idth
ĠD ur
ĠCarls berg
Ġtoilet tet
v h
ĠTok yo
ĠDef ini
Ġbi j
Ġtru et
fug l
Ġglas set
ond o
Ġan komme
ker nes
ĠindkÃ¸b skur
Ġro sa
ĠS IDE
ater ing
Ġhensyn tagen
ĠN yg
Vil kÃ¥r
Ġforhandler ens
Ġtil deles
Ġbe sat
ĠT ablet
behandling en
Ġpartner skab
ĠFran sk
Ġde spe
ĠInd one
meld inger
Ġom deling
ĠVis ion
ĠÃĺkonom iske
( [
ĠR d
Ġinddra gelse
c ene
Te st
ĠLok ale
Ġvenner ne
Ġtabel len
ĠBe auty
Ġpor celÃ¦n
ob i
ĠDet aljer
ĠChri stoffer
ĠlÃ¥ ner
ĠTH E
ĠD age
Ŀ ¤
Ġlove ly
v r
v art
ĠK redit
ak se
kob ling
ĠB ah
Ġn Ã¸r
Ġfrem m
Ġre ferencer
ĠDe ut
yg get
ĠNet work
Ġ$ ('.
Ġ× ŀ
kom met
A H
Ġ2 60
Ù Ħ
ĠMate matik
ĠAT P
plejer ske
li an
Ġbegyn dere
Ġsyn ligt
Ġgen vej
Ġpludse ligt
Ġamb assad
Ã¸nt gen
em bourg
el low
ĠBibe len
ov l
Ġregion al
urop Ã¦iske
Ġ1 Â½
ĠSÃ¦l ger
be vidst
Ġover fÃ¸r
Ġb inder
ĠF amily
ĠGar n
Ġinden i
ĠMenne sker
ĠS I
ĠLim ited
ĠDej ligt
Ġ Ø
ĠklÃ¦ der
Ġkvali ficerede
h k
ĠbÃ¸rne haven
Ġcomp any
Regi on
ĠKON T
abler ing
mel t
* .
udse lig
ĠS ande
Ġkom pri
Ġlog get
fÃ¸ lelse
ĠkÃ¸ e
Ġgyl dig
H F
s ygdomme
Ġhel heds
vi serne
ĠCe cilie
ke a
Ġvide ok
hol delsen
Fe edback
ĠRa in
ĠFy si
22 8
Ãħ h
Ġvedlige hold
ĠK rag
Ġul y
ĠtrÃ¦ nere
b oksen
or det
Ġhv iler
Ġres ults
Ġob servationer
Ġbet jene
Ġmenneske lig
ĠbÃ¸ gerne
h vad
Ð½ Ð¾
à ¤
Ġu Ã¦ndret
ĠÃĺ re
B r
Ġstad ion
be handlinger
lan der
Ġforg Ã¦ves
ed ig
ĠLe o
vo ice
Ġhen vist
Ġtilb aget
"] ;
ĠÃħ B
Ġforhand le
Ġa ar
Ġres pons
ĠC lass
Ġhen vise
ĠStÃ¸ tte
de c
ĠAst rid
ĠMo derne
ĠV IL
Red u
Ġkan el
Ġbath room
st ate
skÃ¦r men
Ġland mÃ¦nd
Ġan kla
gang s
ag ten
ĠIn dkÃ¸b
Ġmodt ages
Ġgr and
ĠT rÃ¥d
Ġvaren umre
Ġli bido
Ãħ rs
am as
Ġnetshop s
Ġer kender
hol denhed
ret ch
ĠSag snr
Ġekstraordin Ã¦r
Ġsku ffer
ti mi
ĠnÃ¦ gter
fa x
ĠS oc
Ġka os
ĠSov jet
Ġfornye lse
tran sport
ĠK atte
Ã¥ den
ĠR Ã¸n
prÃ¦ st
Ġsl Ã¸j
H Ã¥r
Ġtrade marks
Ġmed itation
Ġsk rÃ¸
ĠSc and
ĠAc cess
ĠEfter fÃ¸lgende
ĠkÃ¸e r
Ġu rime
z oner
g de
Ġun a
Ġkun stig
Ġnavi gere
Ġry kket
ĠTIL F
Î ³
U X
14 6
ĠUn garn
Ġdrikke vand
Lu ft
ĠRen a
Ġkla ver
ite ch
Ġirri teret
U dstyr
Ġkort var
Ġmo ney
god kendelse
Ãħ D
Ġprem ier
ĠM atch
ĠA ction
ĠkÃ¦r lig
Ġra ske
d Element
Ã¦ kket
ĠprÃ¦ ste
ĠFa xe
v ale
ent a
N T
ĠnÃ¥ s
Ġskel ne
Ġarbejdsgiver en
Ġj yske
N ER
und skab
k tes
Ġpro stat
v sti
svÃ¦r di
stemperat ur
Ġhyd ra
Ġaut om
Ġop fÃ¸rer
ĠD ue
ĠT we
Jac ob
Ġadskil t
ade my
h ug
Ġfamilie vÃ¦relse
Ġsj ette
ĠH ed
beret tigede
stan der
dsp iller
Ġblog indlÃ¦g
LIG E
Ġque s
ĠJ uel
Ġafslut ningen
Ã¸ velser
ret lige
Ġmu rer
ĠCh o
ĠGi ver
F Ã¦lles
c f
Ġle v
Ġbi om
ar tikel
Ġak ku
sp ir
Ġsamfun dets
Ġvej le
kont or
ken dende
A DE
d orf
Ġsand wich
Ġhe ight
Ejendom men
ĠMar en
ĠD BU
ĠChristop her
Ġweb cam
ĠTran smission
12345678 9
ave s
ĠU dstil
st ing
Ġf Ã¶
Ġgaranti e
ĠK id
oo se
ne der
ogh urt
om iske
stil stand
sh avn
ĠSer vi
ĠbesvÃ¦r ligt
Ġtr ang
ĠToy ota
Ġaf tes
Ġ6 50
ĠDias Vis
Ġhe j
Ġhvide varer
am enter
ĠL illerÃ¸d
l Ã¦rte
ĠdrÃ¦ ber
hent ning
f are
Ġfra me
ĠR ES
ĠI stanbul
Ġ19 68
ra ck
Ġsprog lige
ĠRan somware
i ci
ĠSte ve
Ġgr iner
Ġreg ister
Ġpo ser
Ġshow s
Ġaf holdelse
ĠGÃ¶ teborg
mo derne
ĠMas ser
Ġ ),
Ġom d
Ġbu ske
c li
Ġmed delte
Ġfle x
so ci
Ġsepar ate
n ik
Ġbo ost
ĠSe rie
Ġty skland
ron en
d ry
ĠB K
Ġo lien
ali serede
Ġtast atur
Ġkap aci
ĠsÃ¦s oner
Ġc lear
Ġv ing
ĠforeslÃ¥ ede
nu mmeret
ĠEL LER
Ġind vendige
Hu kommelse
belt oft
ral ske
ĠtÃ¦n k
et o
ĠMÃ¥ ned
Th riller
os c
arrange ment
× Ĵ
Ġpost nummer
Ġturner ingen
Ġre former
Ġtil veje
ĠpÃ¥lide lige
L IGHT
ĠVi rus
G S
Ġoffentlig gÃ¸res
sa ktiviteter
ret Ã¸j
di ken
ĠP ix
ĠKan al
ĠB in
ĠblÃ¦ k
Ġkla geren
ra mmer
Ġowner ship
4 99
16 6
ĠAr ts
mÃ¦rkelsescertifik at
ĠO lymp
me res
el y
Ġrefe rerer
ĠMÃ¸r kt
o ser
ĠC ape
Ġkolle ktiv
o derne
Ġ* *
se llere
ĠidÃ© elt
Ġud land
ĠG ift
Ġc ry
kur v
Ġtil sagn
ĠSn ap
Ġcon tainer
ĠH om
ĠHe ri
a jax
ĠSm all
sed del
ĠSta y
Ġtry kket
ĠD k
Ġprem ium
Ġkro e
Ġman uel
aut oriseret
ret a
ĠU de
ĠmÃ¸ lle
Ġli p
ĠpÃ¥begyn dt
Ġt vil
ĠtÃ¸ mmer
Ġvi kar
bil ag
ĠovervÃ¥ ge
k anter
Ġstre ame
Ġrehabili tering
EM A
man s
Ġforsik ringer
ĠA fter
uge ot
ĠMen u
f ull
M O
Ġfastsl Ã¥r
Ġsy et
Ġun Ã¸
K ultur
Ġforsikring en
sig ts
Ġdeaktive ret
L ille
ĠM ie
k se
ĠBil udlejning
Ġbred den
ationer ne
dri ve
" ),
ĠP rop
ĠS cen
gj orte
ä ¸
P ad
finde s
ĠglÃ¦ den
kla re
Ġbe kendte
or v
ĠsÃ¸ m
su per
ĠBet aling
Ġg Ã¸
Pri serne
stre rede
sen hed
ĠCour t
ĠT ale
C ity
ĠThe y
ĠProfe ssor
Ġa ds
ĠkÃ¸b mand
Ġenergi en
Ġf up
ĠO ri
ov ne
grÃ¦n sen
In formation
k yst
Ġco ach
B al
ĠM ot
par kering
Ġm org
ĠP O
Ġspilleaut omater
Ġbur ger
ĠSe jl
ĠTa ylor
Ġambi tion
Ġgro ve
Ġlov forslaget
ĠÃ ¨
ĠPo si
lÃ¦ st
TA KT
ĠBil ka
Ġmekan isk
d vs
ĠStil le
ĠQu ality
ĠDel s
ds at
Ġfolket ings
Ġf ond
Ġfor lyste
ĠlÃ¦ gerne
Ġhjemme lavede
rens ning
r ant
Ġag ter
reprÃ¦sent ant
Ġout door
Ġrela tiv
Ġpar cel
hver vs
Ġforestil lingen
be vis
ĠP H
3 01
â ĺ
Ġover vÃ¦gt
Ġafspej les
Ġkyl linge
ure ret
ĠByg ning
Ġopm unt
Ġpapi ret
ĠP ant
Ġsyge dagpenge
Ġfortry der
Ġvir tu
Ġc up
ĠS mu
ĠhÃ¦ fte
f urt
b rad
Ġvind mÃ¸lle
che fen
ĠUndersÃ¸ge lsen
Ġlin ie
kirt len
Alle rede
Ġfly der
sa ften
ĠM D
ĠP and
rÃ¦ e
Ġned bringe
Ġmi ra
lic ations
ser inger
le rose
ĠFor handler
ĠK yst
Ġlog isk
Ġop ladning
Op dateret
Ġsul ten
Ġtrue r
Ark itektur
cent rene
16 1
Ã¦r kt
Ġudby des
Jo han
Ġsynd rom
it en
SkÃ¸n litteratur
ĠK unde
Ġuen ig
Ġsp redning
C ON
Ġmap pe
Ġth i
p ude
Ġskub be
Ġhel vede
kurren cen
Ġop s
Ġli den
Ġbegr undet
ĠM ikro
ĠAli ce
Ġhol landske
Ġsp rÃ¸de
ĠA part
ingen iÃ¸r
ĠOr bitz
ĠC C
ra pper
c raft
ĠE lle
Ġi h
D vd
ĠSu ite
ĠTro ds
16 9
Tro ds
O BS
def ine
ĠPla tform
Ġinve steret
Ġfir kan
ksom me
Ġdire ktivet
ri de
Hum or
Ġvel kendt
gr unds
ĠprÃ¦sen terede
bon us
14 8
ĠÃ Ĺ
20 5
ĠT am
Ġdag institutioner
Ġ11 3
Ġhensigt smÃ¦ssig
Ġh Ã¸n
ĠO rientering
Ġha ir
for styrrelser
light s
n l
Ġak ademi
Ġovergang sal
ĠSamt lige
Ġinfluen za
C m
Ġperson s
ĠBir ger
Ġsa ft
ĠB land
Ġth ings
ĠFo undation
Ġfed tet
igur d
Ġtilmel der
ĠBay e
b Ã¸rste
Ġuover skue
Ġd obbelte
ĠVi by
ĠV A
Ġto wn
spolitik ken
f okus
Ġtvang s
Ġer fa
la bel
rÃ¦e r
Ġbe klage
m ningen
re formen
Ġar ri
AV E
ter ierne
H oved
rin get
K vinder
Ġr inget
s rapport
Ġsm ile
Ġseks ualitet
ĠT ou
mme ls
26 4
yg tig
Ġgarantie r
Ġskul pt
Ã¸v ler
ssione lle
Ġkontrolle res
Ġmor mor
K valitet
di alog
S EL
Ġblande de
3 40
Ġmiddel hav
c ci
Ras mus
Ġha kket
Ġbetegne lsen
ĠVir gin
ĠN iss
Ġvigtig heden
strÃ¦ ning
ĠafhjÃ¦l pe
Ġmo lek
Ġth ose
Ġudfyl des
Re stauranter
Ġulti mo
CV R
Ġhost ing
ĠB ali
Ġc ut
Ġinde holdende
Ġsu ge
Ġafdeling s
ĠE D
Ġbeg Ã¥
ĠB redde
Ġform ular
re gel
ĠArkiv foto
ĠB Y
Ġsol briller
Ġguler Ã¸dder
Ġp Ã¦rer
di um
H urtig
ĠKra v
sprÃ¸ ve
ĠMal mÃ¸
Ġsk Ã¥n
Ġta sken
ĠforkÃ¸ lelse
d bÃ¸ger
ic il
ĠBen zin
Ġab onn
ĠC ode
ĠHD MI
L yd
Ġca ses
lÃ¦gge lsen
Ġarbejds dage
ĠkÃ¦ mpet
ĠÃ ĥ
Ġe len
Ġbibe l
al bum
Ġpoliti ets
ĠF j
Ġin sis
ul u
ĠRet ningslinjer
Ġi di
inde ks
Popul Ã¦rt
ĠSam sÃ¸
havn en
Ġkr om
Gave kort
ĠBornholm s
Ti dspunkt
n in
ĠSP AR
ĠB I
Ġarbejds dag
Ġorgan isk
Ġt we
handling en
Ġs auce
ov al
Ġbegej string
ĠSte ffen
Ġhand sker
am se
ĠEle ven
for ce
h ab
ati s
ran ce
Ġi stand
ĠbrÃ¸ dre
Ġt Ã¦lle
Ġmed ia
ĠG astronomi
ĠFej l
mu sk
Ġgene risk
abe ll
ĠC ream
ĠL ane
h Ã¥b
Ġf m
tig ning
T ysk
Ġla kri
ĠUr ban
S v
Ġud fÃ¸rte
dig an
Ġpriori tet
ĠF ik
Ġ16 5
yl and
op ing
spar ende
appar at
ĠFC K
H Ã¥nd
Ġover holdelse
Ġve g
Ġud gÃ¸res
Ġindstil ler
ĠhÃ¥r dere
Ġop give
Ġchamp agne
Ġkroe r
Ġekstraordin Ã¦re
Ġland sbyer
Ġcy klus
Ġan s
Ġhe adset
ĠPro ces
ĠT her
sm Ã¸n
L en
Ġbel ow
ĠpÃ¥ tager
ĠB ell
gÃ¥rds vej
2 60
Ġoverskue lig
fin ity
nav net
o tisk
Bil ag
c ategory
R S
O le
D O
Ġskri d
Ġop holdet
spro gede
l ant
sh ore
m ind
C it
Ġug entlige
rat z
ĠL andet
Ġgri mme
ĠnÃ¸ ds
Ġregnskabs Ã¥r
Ġnat ure
ĠSk ri
Ġafleve ret
Ġtj ent
li dt
versi tet
Ġleve l
ile stone
Ġspej der
Ġko kke
f oli
Ġaf vige
ter m
lad sen
Ġdigit alisering
Ġra cis
Niel s
ot ens
Ġfork orte
Li gesom
se ller
ĠFINAN SI
dsp lan
kont ra
Ju lem
ĠTil syn
Ġparkering splads
jer foreningen
ĠbrÃ¦n dt
Ġk le
Ġfy raften
E A
Ġop tioner
Tran sport
ĠblÃ¸d ning
ĠhÃ¦n gende
led ge
ll ende
ĠP T
as p
Ġant enne
ĠAn sÃ¸gning
ĠDu kker
nive auer
G ar
Ġsig tet
Ġmedlemsstater nes
mme ts
Ġudford rer
Ġm are
ĠHel lig
ĠIKE A
VI EW
25 5
klÃ¦ dt
ĠvÃ¦g ter
ĠAd obe
di es
Ġs alen
Ġbille je
Ġskabe lon
di r
Ġj Ã¦vne
Ġbe stÃ¥et
dan ce
pro ble
ham med
Ġubeh agelige
Ġr ang
Ġbro ch
Ġp Ã¦re
bed Ã¸mmelse
n Ã¸dder
ĠEn kelt
Ġ5 50
Ġfast sÃ¦ttelse
Ġport al
ĠV ita
Ġpatient s
ĠHa us
Ġover vÃ¦g
ĠGrÃ¸n lands
Ġhv alp
Ġlangsig tet
5 11
Ġekstre me
Ġh ive
t w
for s
Ġutil strÃ¦kke
ĠVI P
iet y
ĠIn g
crip tion
ener ne
Ġforbed res
betal ings
Ġprin s
Y L
ĠBeskÃ¦ftige lse
blan ket
Ġ???? ?
Ã¦re dyg
Ġru mmelig
oli gerne
14 7
Ġst under
Ġfor val
B redde
ĠA le
ĠC lean
forand ringer
k ysten
Ġa min
Ã¦ng der
20 4
Ġgig an
RE V
Ġtje kket
ch lor
24 9
pe jle
ĠC PR
g ningen
Hje m
Res ulta
D ance
Ġerstat ter
Ġprodu ktivitet
ĠPro grammet
Ġrema ins
ĠSh oe
sek ven
ĠM ir
ĠH ugo
Ġvin kler
Ġvis ioner
ue rne
Ġast ma
ĠE CTS
Bille de
ĠMari ager
Ġz ijn
Stud ie
op timering
Ġtot ale
T ÃĨG
ĠN el
ĠU g
Under sÃ¸ge
rej sen
Ġd ild
N j
m Ã¶
Ġgi fte
ĠSt Ã¥l
ĠMar ch
Ġtrom me
dat oen
Ã¦n ken
Ġfrem tidig
ĠSp rings
ĠhÃ¦k le
ĠLa ser
Ġqu iet
b ob
ĠBN P
in put
Ġh ale
ĠLÃ¦ se
vok set
Ġhove dre
ĠcafÃ© e
IG N
âĢĭ âĢĭ
ĠE u
Ġh ent
Ġly m
ĠSh ooter
W in
P lay
Ġudtry kket
Ġg y
ĠDe s
Ġp ick
Ġkamp agnen
ĠretfÃ¦r dig
th ur
Ġklima et
o is
in Ã¦r
til fÃ¦lde
Ġhe ktar
ĠjÃ¸d iske
Ġs ource
op y
sig tet
kont rakt
Ġaktion Ã¦rer
ri kel
Ġmusk lerne
di an
bour ne
Ġp ud
ĠK F
ĠRe serve
Ġfol de
ow s
Ġ21 00
Ã¸rste delen
ĠD GI
Ġadministration en
ĠSt ol
A Z
ĠNe x
c p
at ure
Ġco aching
ĠC ou
Ġkir kens
Ġny des
ĠG Ã¦ster
Ġdom Ã¦ne
cent ral
ĠTi ger
LE V
proces ser
ss o
22 9
li us
Ġovervej et
Ġle sb
men uen
Ġass oci
ĠJe res
ĠRet ur
ĠRen te
Ġvedt agelse
AS KE
j as
Ġover sk
ĠSp or
ĠU ser
ke res
Ġunder skrift
gri ll
14 4
overskri dende
Î¹ Îº
ĠÃĺst sjÃ¦lland
S tik
ĠKo lle
ĠNor sk
Ġoverbe visende
ĠVed tÃ¦gter
f ree
ĠpÃ¥ bud
Ġsk Ã¦rer
ĠN ATO
Ġforvalt ningen
Ġsam linger
Ġpas sere
li den
Ġlu kning
blan k
15 3
Ġkry dst
fat ning
Ġsmag te
fra drag
b Ã¥nds
su kker
ĠFÃ¦lles skab
ĠOb ama
Ġpres ser
ĠEnter tainment
Ġtil rÃ¥der
Ġknog ler
Ġr Ã¸rer
Ġtren dy
Ġper si
bl ok
ĠKir stine
Ġudski ftes
Ġ19 74
ĠSky landers
sp ray
Ã¸j en
hand lingerne
ĠskrÃ¦ddersy et
Ġund skyld
Ġtol v
Ġturner inger
las sen
Ġessen tielle
Ġulov lige
Ġfler tallet
ĠLis a
ĠÃ¸jeblikke lig
ĠT un
Ġtra ding
ĠBen ny
kla genÃ¦vnet
under visningen
ĠGod kendt
Ġmar ken
ĠNy kredit
Ġ19 5
k ilder
R Ã¥dets
ene z
ĠfÃ¸dselsdag s
Ġri gt
Ġop kast
ĠHan dels
Ġgli mt
) ?
Ġkl ud
Ġpro vo
Ġkem isk
Ġfast holder
Ġcomp lete
gr Ã¸nne
ĠÃ¸r ken
an ni
Ġser vering
ant o
ĠAn th
Ġpande kager
Ġskul dre
â ľ
be kendtgÃ¸relsen
C loud
Ġhus stand
ĠJe rusalem
ĠSk atter
al arm
ĠcafÃ©e r
ĠOrganis ation
Ġtilskue re
y ale
Ġkomm ission
Ġsti fte
Ġbo lige
ĠB ug
Ġmotor vejen
ĠZ o
ĠHU F
in fektion
den afil
Ġadminist rere
ĠMar cus
back ground
C OM
ĠB oston
Ġ13 9
Ġske p
BÃ¸rne bÃ¸ger
Ġpe j
Ġser v
Ġdag bog
ĠHe in
plad serne
ren gen
ĠAn nonce
Ġan at
ĠpÃ¸ lse
fin ed
or teret
ĠFor svaret
Ġindivi der
ĠAR BEJ
ĠLever ings
Ġh Ã¸res
Ġfor lig
li es
ĠMidt sjÃ¦lland
ĠP ure
ĠFor retning
Ġop kÃ¸b
Ġher sker
sh Ã¦
Ġhid tidige
ĠGir l
Î Ń
ĠstÃ¸ dt
ĠParad ise
ĠbrÃ¦n d
ĠBou levard
p ropper
ĠTi den
Elect ronic
Ġviden skabelig
ĠN ET
ti dende
Ġvir tuelle
ĠomrÃ¥ derne
container Attributes
Ġkof angere
Ã¦n kes
ai i
Ġpan ik
He avy
Ġfrem sat
ma ske
ĠFor siden
Du kke
Ġpart y
Ġbeund ring
Ġo vre
Ġaf gÃ¸res
R abat
ĠJ O
he gn
y stemet
ĠbrÃ¦n dende
ĠP ie
ĠBy rÃ¥det
h ad
Ġsti fter
ĠG U
Ġloc al
dire ktivet
Ġf ili
An meldelsen
ĠS yl
Ġsv ind
Ġproced uren
ra get
spro jektet
Ġsyge huset
Ġpo in
Ud givelsesdato
Ġge ografisk
Ġreali sere
Ġ18 5
ĠM yn
ĠAma lie
Ġal ar
Ġsig ter
15 4
e lser
Ġfl or
Ġkonta ktes
Ġh Ã¦tte
ĠD B
Ven ner
Ġg lo
Ġarbejds givere
Ġreflek sion
S ag
ĠMÃ¸rkt onede
cti ce
h elt
colle ct
ĠuÃ¸n sket
Ġdifferen tie
Ġbestyrelse smÃ¸de
M UL
Ġe mo
Ġuni verset
con s
Ġforbe holdt
Ġenkelt senge
ĠhÃ¥ndte res
f igur
Ġakti vering
Ġarbejds lÃ¸s
Ġgam ing
ran s
Ġfra t
ĠT ove
ĠBe sk
Ġgro up
ĠRen gÃ¸ring
G ET
fin ale
Vej ledning
Ġkeram ik
K at
ag aard
nb sp
ow boy
Ġde positum
Lu ksus
Ġbefolk nings
stin kt
Ġhen visninger
a is
ĠMosk va
ĠNY T
âĢĿ -
ra e
Ġforvent ningerne
Ġvel ud
W M
Ġsign ale
ĠkvÃ¦l stof
ĠC S
ĠAf snit
Ġan klage
b c
h otellet
Ġforklar inger
der ende
ĠK Ã¸l
Ð¾Ð ´
ĠC BS
Ġdiagno sen
In stru
Î ®
ĠPla ya
ille de
Ġforme lle
G rill
is ti
ĠRo und
ĠN Ã¸g
ĠK enne
Ġkoncer ten
ĠBy ens
ensk omst
ĠL Ã¦ring
ĠtÃ¦n kning
20 2
Ġsp am
stud ie
ĠZ AR
Re staurantegenskaber
Ġorganis ations
Ġover gangen
Ġlu ne
ĠDe velopment
ĠE SP
ta k
li lle
ĠSp Ã¸rgsmÃ¥let
Ġud mÃ¸n
Ġmin ori
Ġmob ning
st jenesten
Ġmedicin en
ĠlÃ¸n modtager
ĠHÃ¸j t
ĠpÃ¥vir kes
bal anceret
ĠF jer
Ġeksp onering
Ġar ti
ĠVej l
teri Ã¸r
Ġmusik alsk
w art
ĠfremtrÃ¦ dende
v igt
ĠV PN
Ġopera tiv
ĠÃ¥b ningen
Ġny dt
ak adem
Ġlov lig
Ġulov lig
ĠC uba
kap acitet
n ok
c up
Ġkasse rer
Ġ3 99
ĠR alph
ĠN ove
Ġud bed
Ġ15 9
aut o
ĠO luf
Ġfort jent
med arbejder
Ġresul terede
fyl d
ĠK ent
fjer ning
ome rs
ĠJ ud
Ġhens til
ĠF amilien
Ġban an
ĠhjÃ¦l pen
ĠÃĨ rÃ¸
Ġal b
ĠSt ream
ak te
S ER
Pro jektet
ĠstÃ¸v suger
ĠKÃ¦r lighed
z u
Ġkli pper
m ien
Ġvaske ri
Ġgri ber
pe ti
t ina
orm on
Ġse cond
it ten
Ġdis pensation
Ġfabri ks
18 6
Ġark i
ĠH Ã¥n
M at
Ġappar ater
Ġgennemsnit ligt
ĠsÃ¸ge feltet
ĠX enon
Ġudsende lse
E nergi
l las
Ġsti kke
Ġuh ensigt
Ġk ine
Ġg uest
ĠAn s
ĠJ ung
ail s
ĠM iche
Ġk ik
Ġhand les
fa get
f Ã¥
Ġ12 4
Ġminim al
p ay
poli tiske
vand ring
ĠD V
be klÃ¦dning
ur ser
ĠindlÃ¦g get
ol one
19 6
LIGHT BOX
ĠPL US
Ġas falt
Ġefter skole
AM P
ĠG ive
ag ing
ration en
Ġgra fiske
Ġaktiviteter ne
Ġanalyse rer
b d
ĠBos ch
Ġfer sk
Ġkre ativt
Ġ( $
ĠBu ch
ĠPh ot
Ġdef ineres
mor gen
ĠB rit
C ard
ĠYou See
uk i
Ġh ade
ĠopkrÃ¦ ver
Ã Ħ
se ktor
Ġmel dte
Ġstof indtrÃ¦k
si dens
Ġland distri
st ager
skri ftet
eth ing
Ġalg orit
Ġpro por
Ġfre el
Ġud st
Ġfor fÃ¸lge
Ġ2 12
ĠN ad
Ġanmod ninger
her under
ĠGen rer
fÃ¸r ingen
Ġfleks job
sb yg
L ÃĨG
Ġd ouble
ĠlÃ¸ ftet
Ġfrem stÃ¥
ĠF ine
ag tet
Ġproble matisk
reg ninger
Ġfast slÃ¥et
ĠpÃ¥lide lighed
Ġind ikation
Ġetn iske
Ġst rip
ĠDe rimod
f oss
f odbold
e lig
Ġele ct
Ġfug l
ĠAnton io
Kon kurrencer
Ġkab inet
Ġbeskrive lsen
b ringer
Ġegen skab
br yn
w ig
b rem
teret ten
Ġbe fri
ĠHe ste
p us
ĠE co
ĠVe rs
P in
klas si
a ver
ĠK Ã¸n
Ã¦t ninger
k ningerne
reg uler
ĠVester gaard
M AN
os la
ark ite
ant h
T jek
re q
ĠG ard
ĠpÃ¥ lagt
ress ourcer
Ġkv Ã¦g
Ã¦ld rene
Ġw all
Î± Î¹
mp h
Ġh Ã¦ld
Ġhverdag ens
Ġscan ning
be slag
port alen
17 9
Ġz ink
u rolog
Ġord net
Ġau ktion
ĠVal demar
Ġblods ukker
fron ten
Ġkontrolle rer
Bil lige
ĠDej lig
hel te
f Ã¶r
ĠDa ily
Ġfanta sien
Ġfla dt
FÃ¸l g
plant ning
b enhavn
se ffe
ĠsÃ¦dvan lig
Ġsalg spris
lej et
ĠtÃ¸rret umb
Ġre publik
ch and
agen der
Ġsvi mmel
Ġres ol
Ġle dighed
Ġaf sagt
Ġmobil betaling
Ġth ree
Ġdyre ste
ĠtÃ¥ ler
vi det
j uni
Ġud fÃ¸r
bry st
Ġr yttere
Ġkur ven
ĠU ffe
Ġgir ls
Ġâ Ī
ug ning
Ġla mme
Ġvil lige
Teg neserier
ĠFinan stilsynet
Ġbed room
hur tigt
ĠprÃ¦ stere
Ġbille dkunst
Ġ2 80
Bi ografier
ĠIn dust
ot in
ĠBlo om
AT ER
Ġ15 5
L ove
ST REAM
ĠT rue
ĠSpa ce
ĠSel skabets
Ġdu fte
klÃ¦ der
ĠEd ge
Ġintegre re
ĠF Ã¸dt
fol ket
nem usik
h ans
Ġmas sivt
un ta
d or
Ġle ktioner
ĠM M
ned ker
ĠS ofa
Ġly dkvalitet
M z
Ġweb butikker
ĠsÃ¸ge ord
Ġpro file
AN K
Ġafleve res
ĠT Ã¦t
Ġhjemme bane
Ġkomfor tabelt
Ġi kraft
mme ligt
Ġkende teg
ĠSam funds
CT ION
fi re
ĠPolitik ens
Th umbnail
Ã¥ Ã¥
2 95
14 3
Ġud sendte
ĠKon kurrence
aly se
ĠudÃ¸ ve
stÃ¦n ger
ĠCast le
k is
ĠSÃ¦r lige
24 8
ĠMa ja
lok aler
ĠDen gang
Ġput te
Ġidenti fikation
ĠG eb
Ġessenti elt
ĠAr range
Ġom sÃ¦tningen
b ild
ĠF rien
ho enix
or tering
Ġnemme ste
Ġt ube
itor Fields
Job SearchUser
ĠR ET
ĠN AV
sb ane
W D
Spise sted
Ġind retningen
ĠTILF ÃĺJ
to rer
an cy
ĠTran ce
Ġkarakter istika
ĠMidt fyn
ĠL it
ĠAl drig
ĠFo ot
Ġ19 69
Ġind fri
Ġsmag s
Ph ili
4 95
som e
sh jÃ¦lp
Ã¦ mi
FOR S
Ġan im
Ġder inde
Ġkonstate rer
Ġkont oen
Ġk id
Ġbekve mt
b alle
rie rer
Ġuddannelses institutioner
Ġpas set
[...]
