{
  "version": "1.0",
  "truncation": null,
  "padding": null,
  "added_tokens": [
    {
      "id": 0,
      "content": "<|endoftext|>",
      "single_word": false,
      "lstrip": false,
      "rstrip": false,
      "normalized": false,
      "special": true
    }
  ],
  "normalizer": null,
  "pre_tokenizer": {
    "type": "ByteLevel",
    "add_prefix_space": false,
    "trim_offsets": true,
    "use_regex": true
  },
  "post_processor": {
    "type": "ByteLevel",
    "add_prefix_space": true,
    "trim_offsets": false,
    "use_regex": true
  },
  "decoder": {
    "type": "ByteLevel",
    "add_prefix_space": true,
    "trim_offsets": true,
    "use_regex": true
  },
  "model": {
    "type": "BPE",
    "dropout": null,
    "unk_token": null,
    "continuing_subword_prefix": "",
    "end_of_word_suffix": "",
    "fuse_unk": false,
    "vocab": {
      "<|endoftext|>": 0,
      "!": 1,
      "\"": 2,
      "#": 3,
      "$": 4,
      "%": 5,
      "&": 6,
      "'": 7,
      "(": 8,
      ")": 9,
      "*": 10,
      "+": 11,
      ",": 12,
      "-": 13,
      ".": 14,
      "/": 15,
      "0": 16,
      "1": 17,
      "2": 18,
      "3": 19,
      "4": 20,
      "5": 21,
      "6": 22,
      "7": 23,
      "8": 24,
      "9": 25,
      ":": 26,
      ";": 27,
      "<": 28,
      "=": 29,
      ">": 30,
      "?": 31,
      "@": 32,
      "A": 33,
      "B": 34,
      "C": 35,
      "D": 36,
      "E": 37,
      "F": 38,
      "G": 39,
      "H": 40,
      "I": 41,
      "J": 42,
      "K": 43,
      "L": 44,
      "M": 45,
      "N": 46,
      "O": 47,
      "P": 48,
      "Q": 49,
      "R": 50,
      "S": 51,
      "T": 52,
      "U": 53,
      "V": 54,
      "W": 55,
      "X": 56,
      "Y": 57,
      "Z": 58,
      "[": 59,
      "\\": 60,
      "]": 61,
      "^": 62,
      "_": 63,
      "`": 64,
      "a": 65,
      "b": 66,
      "c": 67,
      "d": 68,
      "e": 69,
      "f": 70,
      "g": 71,
      "h": 72,
      "i": 73,
      "j": 74,
      "k": 75,
      "l": 76,
      "m": 77,
      "n": 78,
      "o": 79,
      "p": 80,
      "q": 81,
      "r": 82,
      "s": 83,
      "t": 84,
      "u": 85,
      "v": 86,
      "w": 87,
      "x": 88,
      "y": 89,
      "z": 90,
      "{": 91,
      "|": 92,
      "}": 93,
      "~": 94,
      "¡": 95,
      "¢": 96,
      "£": 97,
      "¤": 98,
      "¥": 99,
      "¦": 100,
      "§": 101,
      "¨": 102,
      "©": 103,
      "ª": 104,
      "«": 105,
      "¬": 106,
      "®": 107,
      "¯": 108,
      "°": 109,
      "±": 110,
      "²": 111,
      "³": 112,
      "´": 113,
      "µ": 114,
      "¶": 115,
      "·": 116,
      "¸": 117,
      "¹": 118,
      "º": 119,
      "»": 120,
      "¼": 121,
      "½": 122,
      "¾": 123,
      "¿": 124,
      "À": 125,
      "Á": 126,
      "Â": 127,
      "Ã": 128,
      "Ä": 129,
      "Å": 130,
      "Æ": 131,
      "Ç": 132,
      "È": 133,
      "É": 134,
      "Ê": 135,
      "Ë": 136,
      "Ì": 137,
      "Í": 138,
      "Î": 139,
      "Ï": 140,
      "Ð": 141,
      "Ñ": 142,
      "Ò": 143,
      "Ó": 144,
      "Ô": 145,
      "Õ": 146,
      "Ö": 147,
      "×": 148,
      "Ø": 149,
      "Ù": 150,
      "Ú": 151,
      "Û": 152,
      "Ü": 153,
      "Ý": 154,
      "Þ": 155,
      "ß": 156,
      "à": 157,
      "á": 158,
      "â": 159,
      "ã": 160,
      "ä": 161,
      "å": 162,
      "æ": 163,
      "ç": 164,
      "è": 165,
      "é": 166,
      "ê": 167,
      "ë": 168,
      "ì": 169,
      "í": 170,
      "î": 171,
      "ï": 172,
      "ð": 173,
      "ñ": 174,
      "ò": 175,
      "ó": 176,
      "ô": 177,
      "õ": 178,
      "ö": 179,
      "÷": 180,
      "ø": 181,
      "ù": 182,
      "ú": 183,
      "û": 184,
      "ü": 185,
      "ý": 186,
      "þ": 187,
      "ÿ": 188,
      "Ā": 189,
      "ā": 190,
      "Ă": 191,
      "ă": 192,
      "Ą": 193,
      "ą": 194,
      "Ć": 195,
      "ć": 196,
      "Ĉ": 197,
      "ĉ": 198,
      "Ċ": 199,
      "ċ": 200,
      "Č": 201,
      "č": 202,
      "Ď": 203,
      "ď": 204,
      "Đ": 205,
      "đ": 206,
      "Ē": 207,
      "ē": 208,
      "Ĕ": 209,
      "ĕ": 210,
      "Ė": 211,
      "ė": 212,
      "Ę": 213,
      "ę": 214,
      "Ě": 215,
      "ě": 216,
      "Ĝ": 217,
      "ĝ": 218,
      "Ğ": 219,
      "ğ": 220,
      "Ġ": 221,
      "ġ": 222,
      "Ģ": 223,
      "ģ": 224,
      "Ĥ": 225,
      "ĥ": 226,
      "Ħ": 227,
      "ħ": 228,
      "Ĩ": 229,
      "ĩ": 230,
      "Ī": 231,
      "ī": 232,
      "Ĭ": 233,
      "ĭ": 234,
      "Į": 235,
      "į": 236,
      "İ": 237,
      "ı": 238,
      "Ĳ": 239,
      "ĳ": 240,
      "Ĵ": 241,
      "ĵ": 242,
      "Ķ": 243,
      "ķ": 244,
      "ĸ": 245,
      "Ĺ": 246,
      "ĺ": 247,
      "Ļ": 248,
      "ļ": 249,
      "Ľ": 250,
      "ľ": 251,
      "Ŀ": 252,
      "ŀ": 253,
      "Ł": 254,
      "ł": 255,
      "Ń": 256,
      "de": 257,
      "en": 258,
      "Ġs": 259,
      "re": 260,
      "in": 261,
      "Ġa": 262,
      "te": 263,
      "Ġf": 264,
      "Ġo": 265,
      "or": 266,
      "ti": 267,
      "an": 268,
      "le": 269,
      "Ã¥": 270,
      "Ġm": 271,
      "ge": 272,
      "Ġde": 273,
      "Ã¦": 274,
      "Ġh": 275,
      "Ġe": 276,
      "Ã¸": 277,
      "ve": 278,
      "Ġb": 279,
      "Ġi": 280,
      "Ġp": 281,
      "Ġk": 282,
      "ar": 283,
      "li": 284,
      "Ġog": 285,
      "ke": 286,
      "ne": 287,
      "Ġv": 288,
      "se": 289,
      "Ġd": 290,
      "om": 291,
      "til": 292,
      "Ġfor": 293,
      "ing": 294,
      "ed": 295,
      "st": 296,
      "Ġer": 297,
      "Ġat": 298,
      "Ġtil": 299,
      "on": 300,
      "Ġen": 301,
      "al": 302,
      "ter": 303,
      "Ġaf": 304,
      "der": 305,
      "Ġg": 306,
      "ra": 307,
      "ri": 308,
      "un": 309,
      "Ġt": 310,
      "lle": 311,
      "me": 312,
      "ĠD": 313,
      "Ġn": 314,
      "ĠpÃ¥": 315,
      "ĠS": 316,
      "ver": 317,
      "is": 318,
      "Ġmed": 319,
      "et": 320,
      "il": 321,
      "kke": 322,
      "la": 323,
      "ger": 324,
      "ig": 325,
      "Ġdet": 326,
      "lig": 327,
      "den": 328,
      "ud": 329,
      "ro": 330,
      "sk": 331,
      "je": 332,
      "be": 333,
      "Ġ1": 334,
      "Ã¸r": 335,
      "Ġin": 336,
      "ol": 337,
      "at": 338,
      "lse": 339,
      "Ġl": 340,
      "Ġder": 341,
      "Ġ2": 342,
      "Ġst": 343,
      "am": 344,
      "ĠH": 345,
      "Ġden": 346,
      "ret": 347,
      "and": 348,
      "ĠM": 349,
      "Ġsk": 350,
      "Ã¥r": 351,
      "Ġan": 352,
      "ste": 353,
      "el": 354,
      "ĠB": 355,
      "ĠA": 356,
      "ning": 357,
      "ag": 358,
      "Ġsom": 359,
      "ĠF": 360,
      "Ġhar": 361,
      "Ã¦r": 362,
      "Ġvi": 363,
      "Ġom": 364,
      "ru": 365,
      "dt": 366,
      "Ġkan": 367,
      "ske": 368,
      "Ġbe": 369,
      "ende": 370,
      "Ġud": 371,
      "Ġdu": 372,
      "res": 373,
      "ur": 374,
      "ĠK": 375,
      "ĠT": 376,
      "Ġet": 377,
      "pe": 378,
      "he": 379,
      "Ġikke": 380,
      "ller": 381,
      "Ġhv": 382,
      "ĠP": 383,
      "Ġop": 384,
      "ĠL": 385,
      "00": 386,
      "ce": 387,
      "âĢ": 388,
      "sen": 389,
      "og": 390,
      "get": 391,
      "si": 392,
      "ĠV": 393,
      "tion": 394,
      "lige": 395,
      "Ġme": 396,
      "ĠE": 397,
      "ĠI": 398,
      "vi": 399,
      "ler": 400,
      "ds": 401,
      "ent": 402,
      "for": 403,
      "ĠvÃ¦": 404,
      "ul": 405,
      "Ġfra": 406,
      "it": 407,
      "Ġ(": 408,
      "rÃ¦": 409,
      "ĠsÃ¥": 410,
      "ĠC": 411,
      "Ġre": 412,
      "as": 413,
      "rer": 414,
      "Ġ-": 415,
      "Ġve": 416,
      "ser": 417,
      "Ġc": 418,
      "..": 419,
      "det": 420,
      "ner": 421,
      "ĠN": 422,
      "Ġman": 423,
      "ĠR": 424,
      "ad": 425,
      "Ġsi": 426,
      "kt": 427,
      "ine": 428,
      "age": 429,
      "tet": 430,
      "Ã¦n": 431,
      "ĠG": 432,
      "mer": 433,
      "ks": 434,
      "od": 435,
      "ĠO": 436,
      "01": 437,
      "Ġover": 438,
      "Ġje": 439,
      "Ġu": 440,
      "av": 441,
      "Ġsam": 442,
      "ĠJ": 443,
      "ene": 444,
      "Ġeller": 445,
      "ens": 446,
      "Ġvar": 447,
      "us": 448,
      "op": 449,
      "hed": 450,
      "inger": 451,
      "ort": 452,
      "Ã¦l": 453,
      "Ġal": 454,
      "Ġse": 455,
      "ang": 456,
      "fter": 457,
      "ok": 458,
      "Ġind": 459,
      "Ġjeg": 460,
      "ab": 461,
      "Ġhe": 462,
      "ut": 463,
      "Ġ3": 464,
      "Ġsp": 465,
      "Ġkom": 466,
      "Ġskal": 467,
      "Ġmen": 468,
      "ĠâĢ": 469,
      "ot": 470,
      "Ġun": 471,
      "ĠDet": 472,
      "gt": 473,
      "ta": 474,
      "di": 475,
      "Ġvil": 476,
      "Ġved": 477,
      "sÃ¥": 478,
      "Ġj": 479,
      "Ġhvor": 480,
      "Ġpro": 481,
      "sp": 482,
      "ĠvÃ¦re": 483,
      "hol": 484,
      "ber": 485,
      "ĠDe": 486,
      "gi": 487,
      "lser": 488,
      "Ġle": 489,
      "ma": 490,
      "ling": 491,
      "men": 492,
      "Ġ201": 493,
      "dre": 494,
      "Ġr": 495,
      "Ġli": 496,
      "Ġti": 497,
      "Ġkun": 498,
      "vis": 499,
      "fe": 500,
      "ligt": 501,
      "bej": 502,
      "tte": 503,
      "gen": 504,
      "ĠmÃ¥": 505,
      "mme": 506,
      "ch": 507,
      "Ġne": 508,
      "id": 509,
      "ie": 510,
      "ĠogsÃ¥": 511,
      "inde": 512,
      "yg": 513,
      "art": 514,
      "ale": 515,
      "ĠU": 516,
      "ote": 517,
      "ï¿": 518,
      "ï¿½": 519,
      "ft": 520,
      "Ã¸b": 521,
      "\":": 522,
      "um": 523,
      "vet": 524,
      "Ġar": 525,
      "Ã¸n": 526,
      "und": 527,
      "Ġny": 528,
      "jer": 529,
      "eg": 530,
      "ly": 531,
      "os": 532,
      "Ġsig": 533,
      "Ġefter": 534,
      "kti": 535,
      ",\"": 536,
      "Ã¸j": 537,
      "va": 538,
      "lÃ¦": 539,
      "Ġw": 540,
      "Ġ4": 541,
      "Ġla": 542,
      "Ġbru": 543,
      "Ġ5": 544,
      "Ġkon": 545,
      "ring": 546,
      "kker": 547,
      "yn": 548,
      "ik": 549,
      "ci": 550,
      "Ġmere": 551,
      "ven": 552,
      "dan": 553,
      "ken": 554,
      "per": 555,
      "Ġmin": 556,
      "ir": 557,
      "du": 558,
      "Ġbli": 559,
      "oner": 560,
      "ave": 561,
      "let": 562,
      "ore": 563,
      "Ġalle": 564,
      "del": 565,
      "ĠÃ¥r": 566,
      "rem": 567,
      "Ġble": 568,
      "Ġmu": 569,
      "Ġsel": 570,
      "Ġunder": 571,
      "dig": 572,
      "Ã¸re": 573,
      "mel": 574,
      "ry": 575,
      "Ġbl": 576,
      "Ġpe": 577,
      "ation": 578,
      "Ġhan": 579,
      "ninger": 580,
      "ĠfÃ¥": 581,
      "ss": 582,
      "net": 583,
      "Ġ\"": 584,
      "Ġdin": 585,
      "Ġdig": 586,
      "pp": 587,
      "ĠIn": 588,
      "ker": 589,
      "Ġte": 590,
      "Ġgo": 591,
      "rede": 592,
      "rig": 593,
      "ĠW": 594,
      "Ġher": 595,
      "ak": 596,
      "ĠVi": 597,
      "sm": 598,
      "vÃ¦r": 599,
      "lo": 600,
      "Ġof": 601,
      "isk": 602,
      "des": 603,
      "enne": 604,
      "ati": 605,
      "ster": 606,
      "ores": 607,
      "rÃ¥": 608,
      "Ġto": 609,
      "Ã¸l": 610,
      "tig": 611,
      "are": 612,
      "Ġpri": 613,
      "Ġselv": 614,
      "Ã¸d": 615,
      "ille": 616,
      "elt": 617,
      "ĠFor": 618,
      "Ġkl": 619,
      "ĠâĢĵ": 620,
      "...": 621,
      "heder": 622,
      "Ġmeget": 623,
      "ĠfÃ¸r": 624,
      "ĠSt": 625,
      "ant": 626,
      "ĠlÃ¦": 627,
      "Ġ0": 628,
      "Ġend": 629,
      "dag": 630,
      "mp": 631,
      "Ġbet": 632,
      "rs": 633,
      "ov": 634,
      "ĠÃ": 635,
      "Ġtilb": 636,
      "ran": 637,
      "var": 638,
      "Ġmange": 639,
      "ob": 640,
      "sÃ¸": 641,
      "mar": 642,
      "ic": 643,
      "ue": 644,
      "lan": 645,
      "Ġgi": 646,
      "iske": 647,
      "Ġarbej": 648,
      "Ġ6": 649,
      "ap": 650,
      "yl": 651,
      "ord": 652,
      "ĠÃ¸": 653,
      "sti": 654,
      "lt": 655,
      "Ġdag": 656,
      "ĠnÃ¥r": 657,
      "Ġma": 658,
      "Ġbed": 659,
      "Ġno": 660,
      "Ã¦re": 661,
      "sten": 662,
      "sÃ¦": 663,
      "Ġblev": 664,
      "Ġdenne": 665,
      "land": 666,
      "dk": 667,
      "yr": 668,
      "Ġsm": 669,
      "Ġfrem": 670,
      "lere": 671,
      "ck": 672,
      "ĠDer": 673,
      "ten": 674,
      "ï¿½ï¿½": 675,
      "Ġon": 676,
      "sker": 677,
      "rÃ¸": 678,
      "jÃ¦l": 679,
      "Ġfa": 680,
      "ist": 681,
      "ĠDan": 682,
      "ĠAn": 683,
      "Ġvir": 684,
      "oli": 685,
      "Ġfe": 686,
      "Ġda": 687,
      "yder": 688,
      "nes": 689,
      "Ġhave": 690,
      "Ġste": 691,
      "Ã¦s": 692,
      "alg": 693,
      "ket": 694,
      "lu": 695,
      "Ġnu": 696,
      "Ġvores": 697,
      "af": 698,
      "ind": 699,
      "otel": 700,
      "Ã¥n": 701,
      "Ġ19": 702,
      "Ġnog": 703,
      "hand": 704,
      "melde": 705,
      "ĠHe": 706,
      "lÃ¦g": 707,
      "skab": 708,
      "\",\"": 709,
      "Ġ7": 710,
      "gang": 711,
      "Ġdan": 712,
      "âĢĿ": 713,
      "Ġret": 714,
      "lag": 715,
      "alt": 716,
      "hold": 717,
      "Ġthe": 718,
      "Ġmo": 719,
      "Ġbliver": 720,
      "Ġtid": 721,
      "Ġlige": 722,
      "lsen": 723,
      "Ġhav": 724,
      "ĠbÃ¸r": 725,
      "set": 726,
      "Ġ8": 727,
      "Ġhvis": 728,
      "Ġandre": 729,
      "ager": 730,
      "lem": 731,
      "Ġor": 732,
      "ĠRe": 733,
      "Ġ10": 734,
      "ove": 735,
      "ren": 736,
      "Det": 737,
      "Ġkunne": 738,
      "Ġad": 739,
      "ennem": 740,
      "avn": 741,
      "ĠJeg": 742,
      "Ġsy": 743,
      "ate": 744,
      "Ġanmelde": 745,
      "inder": 746,
      ").": 747,
      "Ġdem": 748,
      "tik": 749,
      "ow": 750,
      "Ġalt": 751,
      "ingen": 752,
      "sh": 753,
      "arbej": 754,
      "ĠSe": 755,
      "Ġgodt": 756,
      "lighed": 757,
      "org": 758,
      "Ã¥l": 759,
      "bo": 760,
      "Ġforb": 761,
      "ningen": 762,
      "Ġderes": 763,
      "Ġgr": 764,
      "ER": 765,
      "over": 766,
      "ĠDen": 767,
      "of": 768,
      "sl": 769,
      "line": 770,
      "Ġpar": 771,
      "ĠSk": 772,
      "Ġuden": 773,
      "Ġos": 774,
      "au": 775,
      "com": 776,
      "ĠEn": 777,
      "tid": 778,
      "Ġmig": 779,
      "Ġgennem": 780,
      "Ġkr": 781,
      "one": 782,
      "ga": 783,
      "ili": 784,
      "ksom": 785,
      "Ġ9": 786,
      "tter": 787,
      "ou": 788,
      "rie": 789,
      "Ġdi": 790,
      "Ġhver": 791,
      "sel": 792,
      "Ġnoget": 793,
      "Ġnye": 794,
      "Ġdette": 795,
      "Ġfinde": 796,
      "Ġpers": 797,
      "ange": 798,
      "red": 799,
      "sion": 800,
      "ĠkÃ¸": 801,
      "De": 802,
      "dere": 803,
      "Ġsammen": 804,
      "stil": 805,
      "Ġhelt": 806,
      "heden": 807,
      "Ġdel": 808,
      "skel": 809,
      "llem": 810,
      "ĠBe": 811,
      "omm": 812,
      "Ġgra": 813,
      "Ġhavde": 814,
      "ges": 815,
      "Ġflere": 816,
      "Ġgod": 817,
      "Ġand": 818,
      "Ġhje": 819,
      "sig": 820,
      "Ġ200": 821,
      "ĠOg": 822,
      "Ġra": 823,
      "ard": 824,
      "Ġhol": 825,
      "ay": 826,
      "ub": 827,
      "Ġprodu": 828,
      "gende": 829,
      "ĠfÃ¥r": 830,
      "Ġmod": 831,
      "nings": 832,
      "Ġhvad": 833,
      "vik": 834,
      "Ġfort": 835,
      "Ġby": 836,
      "Ã¥de": 837,
      "ost": 838,
      "rup": 839,
      "Ġly": 840,
      "Ġser": 841,
      "ali": 842,
      "Ġhun": 843,
      "gere": 844,
      "ct": 845,
      "ĠtrÃ¦": 846,
      "enter": 847,
      "IN": 848,
      "Ã¸de": 849,
      "Ġforskel": 850,
      "Ġpla": 851,
      "ĠLÃ¦s": 852,
      "jen": 853,
      "Ġinden": 854,
      "Ġlig": 855,
      "mark": 856,
      "Ġhele": 857,
      "ont": 858,
      "kter": 859,
      "Ġek": 860,
      "dende": 861,
      "Ġbeg": 862,
      "ĠÂ": 863,
      "Ġform": 864,
      "ug": 865,
      "Ġsin": 866,
      "ĠSp": 867,
      "Ġkomm": 868,
      "tigt": 869,
      "sat": 870,
      "Ġbil": 871,
      "ĠhjÃ¦l": 872,
      "dom": 873,
      "ia": 874,
      "dte": 875,
      "ĠDu": 876,
      "ktion": 877,
      "Ġ/": 878,
      "len": 879,
      "im": 880,
      "Ã¦nd": 881,
      "Ġsamt": 882,
      "fi": 883,
      "sy": 884,
      "Ġsid": 885,
      "20": 886,
      "10": 887,
      "Ġhos": 888,
      "isse": 889,
      "rin": 890,
      "Ġanmeldelser": 891,
      "Ġ20": 892,
      "sik": 893,
      "ier": 894,
      "Ġblive": 895,
      "tes": 896,
      "Ġdit": 897,
      "ĠÃ¥": 898,
      "rop": 899,
      "Ġonline": 900,
      "ĠnÃ¦": 901,
      "sb": 902,
      "Ġlidt": 903,
      "ni": 904,
      "Ġnogle": 905,
      "atur": 906,
      "ÂŃ": 907,
      "skri": 908,
      "sty": 909,
      "gerne": 910,
      "Ã©": 911,
      "las": 912,
      "kel": 913,
      "cer": 914,
      "Ġkommer": 915,
      "som": 916,
      "ĠMen": 917,
      "tige": 918,
      "Ġmellem": 919,
      "ygge": 920,
      "les": 921,
      "ĠCh": 922,
      "ĠvÃ¦r": 923,
      "eb": 924,
      "000": 925,
      "mber": 926,
      "ĠbÃ¥de": 927,
      "ĠstÃ¸r": 928,
      "Ġis": 929,
      "Ġfri": 930,
      "ĠvÃ¦ret": 931,
      "Ġy": 932,
      "delse": 933,
      "ĠHer": 934,
      "Ġhvil": 935,
      "ole": 936,
      "kom": 937,
      "ĠhÃ¸j": 938,
      "201": 939,
      "Ġlang": 940,
      "ĠlÃ¸": 941,
      "Ġ|": 942,
      "mt": 943,
      "tis": 944,
      "vende": 945,
      "amp": 946,
      "Ġver": 947,
      "ac": 948,
      "Ġgang": 949,
      "Ġven": 950,
      "Ġrig": 951,
      "Ġhen": 952,
      "ade": 953,
      "Ġro": 954,
      "ht": 955,
      "Ġty": 956,
      "Ġinter": 957,
      "Ġsu": 958,
      "Ġ18": 959,
      "),": 960,
      "xx": 961,
      "Ġ.": 962,
      "ings": 963,
      "ĠfÃ¸rste": 964,
      "ĠHv": 965,
      "Ġ12": 966,
      "ĠsÃ¸": 967,
      "uld": 968,
      "ffe": 969,
      "rÃ¦n": 970,
      "abe": 971,
      "havn": 972,
      "by": 973,
      "dning": 974,
      "ĠHan": 975,
      "pro": 976,
      "gra": 977,
      "Ġforskellige": 978,
      "Ġgiver": 979,
      "EN": 980,
      "ult": 981,
      "met": 982,
      "Ġres": 983,
      "Jeg": 984,
      "Ã¸lge": 985,
      "Ġ15": 986,
      "kon": 987,
      "es": 988,
      "Ġrej": 989,
      "andt": 990,
      "borg": 991,
      "Ġstor": 992,
      "ĠTil": 993,
      "Ġigen": 994,
      "ater": 995,
      "derne": 996,
      "Ġ&": 997,
      "Ġdat": 998,
      "na": 999,
      "ust": 1000,
      "ĠPe": 1001,
      "Ġmar": 1002,
      "rik": 1003,
      "Ġstore": 1004,
      "\":\"": 1005,
      "ligere": 1006,
      "Ġreg": 1007,
      "lys": 1008,
      "Ã¸rg": 1009,
      "ulle": 1010,
      "our": 1011,
      "sÃ¦tte": 1012,
      "Ġperson": 1013,
      "tisk": 1014,
      "ode": 1015,
      "danne": 1016,
      "lÃ¸": 1017,
      "Ġkv": 1018,
      "Ġ,": 1019,
      "mÃ¦r": 1020,
      "In": 1021,
      "vice": 1022,
      "ast": 1023,
      "ĠgÃ¸r": 1024,
      "Ġ:": 1025,
      "Ġvirksom": 1026,
      "Ġfun": 1027,
      "12": 1028,
      "med": 1029,
      "ĠbÃ¸rn": 1030,
      "ej": 1031,
      "pri": 1032,
      "Ġbare": 1033,
      "kte": 1034,
      "Ġtilf": 1035,
      "min": 1036,
      "lik": 1037,
      "Ã¸rer": 1038,
      "Ġpen": 1039,
      "Ġbedste": 1040,
      "Ġsiden": 1041,
      "Ġudvik": 1042,
      "bru": 1043,
      "pla": 1044,
      "bet": 1045,
      "olog": 1046,
      "Ġene": 1047,
      "kning": 1048,
      "Ġnet": 1049,
      "Ġgen": 1050,
      "Ã¦ng": 1051,
      "Ġbo": 1052,
      "val": 1053,
      "Ġsag": 1054,
      "ĠsÃ¦": 1055,
      "ĠDanmark": 1056,
      "Ġandet": 1057,
      "Ġbrug": 1058,
      "Ġdine": 1059,
      "Ġfal": 1060,
      "Ġsikker": 1061,
      "ori": 1062,
      "leve": 1063,
      "ener": 1064,
      "Ġsamme": 1065,
      "Ġgrund": 1066,
      "vali": 1067,
      "Ġblevet": 1068,
      "âĢĻ": 1069,
      "ĠgÃ¸re": 1070,
      "Ġta": 1071,
      "gÃ¥r": 1072,
      "ment": 1073,
      "ĠnÃ¦r": 1074,
      "vej": 1075,
      "Ġstil": 1076,
      "oteller": 1077,
      "vt": 1078,
      "ĠLe": 1079,
      "Ã¸je": 1080,
      "sc": 1081,
      "30": 1082,
      "ĠgÃ¥r": 1083,
      "Ġru": 1084,
      "Ġfar": 1085,
      "mmer": 1086,
      "Ġdog": 1087,
      "fÃ¸r": 1088,
      "ĠÃ¸n": 1089,
      "Ġ$": 1090,
      "Ġgode": 1091,
      "hus": 1092,
      "old": 1093,
      "ĠgÃ¥": 1094,
      "Ġri": 1095,
      "Ġskulle": 1096,
      "tal": 1097,
      "Ã¦g": 1098,
      "rne": 1099,
      "Ġbille": 1100,
      "Ġth": 1101,
      "Vi": 1102,
      "fal": 1103,
      "ses": 1104,
      "Ġlu": 1105,
      "rÃ¦kke": 1106,
      "stÃ¥": 1107,
      "Ġanden": 1108,
      "ĠprÃ¦": 1109,
      "Ġderfor": 1110,
      "ane": 1111,
      "fat": 1112,
      "Ġaltid": 1113,
      "ire": 1114,
      "Ġomk": 1115,
      "Ġhvordan": 1116,
      "Ã¦lle": 1117,
      "Ã¥nd": 1118,
      "ĠMed": 1119,
      "up": 1120,
      "ull": 1121,
      "Ġskri": 1122,
      "19": 1123,
      "Ġbag": 1124,
      "ĠAl": 1125,
      "Ġsiger": 1126,
      "ĠKÃ¸b": 1127,
      "Ġkont": 1128,
      "ĠSÃ¥": 1129,
      "Ġfordi": 1130,
      "ty": 1131,
      "IB": 1132,
      "under": 1133,
      "Ġhjemme": 1134,
      "Ġvig": 1135,
      "Ġ14": 1136,
      "Ġmas": 1137,
      "gel": 1138,
      "Ġplan": 1139,
      "OR": 1140,
      "Ġvel": 1141,
      "Ġakti": 1142,
      "dens": 1143,
      "hver": 1144,
      "Ġkm": 1145,
      "Ġspe": 1146,
      "ure": 1147,
      "ĠMar": 1148,
      "slut": 1149,
      "reg": 1150,
      "ble": 1151,
      "ĠrÃ¥": 1152,
      "Ġpriser": 1153,
      "Ġtage": 1154,
      "kket": 1155,
      "her": 1156,
      "Ġjo": 1157,
      "ligheder": 1158,
      "ide": 1159,
      "ĠHvis": 1160,
      "Ġ11": 1161,
      "50": 1162,
      "Ġned": 1163,
      "ase": 1164,
      "Ġmenne": 1165,
      "kn": 1166,
      "stra": 1167,
      "dige": 1168,
      "Ġ16": 1169,
      "Ġmest": 1170,
      "Ġtra": 1171,
      "Se": 1172,
      "Ġele": 1173,
      "Ġhand": 1174,
      "Ġhur": 1175,
      "Ġinds": 1176,
      "Ġfil": 1177,
      "Ġ'": 1178,
      "dst": 1179,
      "ĠvÃ¦l": 1180,
      "ĠTe": 1181,
      "Ġnatur": 1182,
      "ledes": 1183,
      "Ġhel": 1184,
      "ister": 1185,
      "Ġdisse": 1186,
      "Ġch": 1187,
      "Ġtilbage": 1188,
      "ron": 1189,
      "nu": 1190,
      "amili": 1191,
      "11": 1192,
      "enhavn": 1193,
      "Ã¸rgsm": 1194,
      "Ġ17": 1195,
      "vent": 1196,
      "kre": 1197,
      "ts": 1198,
      "omp": 1199,
      "Ġpo": 1200,
      "Ġvej": 1201,
      "tiske": 1202,
      "En": 1203,
      "Ġso": 1204,
      "teter": 1205,
      "rid": 1206,
      "Ġdanske": 1207,
      "For": 1208,
      "Ġeks": 1209,
      "Ġlave": 1210,
      "Ġfors": 1211,
      "gÃ¥": 1212,
      "Ġarbejde": 1213,
      "Ġarbejds": 1214,
      "Ġbar": 1215,
      "Ġbeh": 1216,
      "handling": 1217,
      "Ġville": 1218,
      "inan": 1219,
      "Ġpas": 1220,
      "Ġfore": 1221,
      "ĠomrÃ¥": 1222,
      "ST": 1223,
      "Ġfol": 1224,
      "man": 1225,
      "sted": 1226,
      "ule": 1227,
      "rat": 1228,
      "bud": 1229,
      "Ġper": 1230,
      "Ġfly": 1231,
      "ĠUd": 1232,
      "vÃ¦": 1233,
      "sÃ¸g": 1234,
      "AN": 1235,
      "aler": 1236,
      "ĠÃĺ": 1237,
      "tede": 1238,
      "ĠHotel": 1239,
      "Ġinde": 1240,
      "tere": 1241,
      "stre": 1242,
      "ĠsÃ¦r": 1243,
      "Ġsl": 1244,
      "Ġligger": 1245,
      "ps": 1246,
      "resse": 1247,
      "Ġ13": 1248,
      "unkt": 1249,
      "enere": 1250,
      "....": 1251,
      "ĠstÃ¸rre": 1252,
      "ame": 1253,
      "Ġdage": 1254,
      "Ġsit": 1255,
      "ĠPÃ¥": 1256,
      "Ġva": 1257,
      "Ġlever": 1258,
      "ww": 1259,
      "KK": 1260,
      "Ġliv": 1261,
      "Ġinte": 1262,
      "Ġnok": 1263,
      "ĠAr": 1264,
      "Ġbruge": 1265,
      "aber": 1266,
      "ĠKomm": 1267,
      "Ġhu": 1268,
      "inge": 1269,
      "Ã¦t": 1270,
      "lysninger": 1271,
      "ytte": 1272,
      "rip": 1273,
      "tioner": 1274,
      "cent": 1275,
      "ces": 1276,
      "valitet": 1277,
      "Ġsidste": 1278,
      "Ġgive": 1279,
      "Ġvand": 1280,
      "ĠTh": 1281,
      "ĠkÃ¸b": 1282,
      "ĠÃ¥b": 1283,
      "ringer": 1284,
      "rige": 1285,
      "anske": 1286,
      "Ġmil": 1287,
      "ite": 1288,
      "Ġpr": 1289,
      "Ġmuligt": 1290,
      "Ġingen": 1291,
      "ĠPro": 1292,
      "Ġgerne": 1293,
      "15": 1294,
      "Ġfo": 1295,
      "pen": 1296,
      "Ã¸rgsmÃ¥l": 1297,
      "Der": 1298,
      "sta": 1299,
      "ï¿½ï¿½ï¿½ï¿½": 1300,
      "Ġlille": 1301,
      "Ġ30": 1302,
      "Ġkra": 1303,
      "Ġmor": 1304,
      "vÃ¦re": 1305,
      "istor": 1306,
      "iner": 1307,
      "Ġmulighed": 1308,
      "Ġfik": 1309,
      "stem": 1310,
      "ibe": 1311,
      "lses": 1312,
      "ande": 1313,
      "Ġfast": 1314,
      "ĠfÃ¸": 1315,
      "vir": 1316,
      "oc": 1317,
      "Ġel": 1318,
      "vn": 1319,
      "Ġtro": 1320,
      "semp": 1321,
      "heds": 1322,
      "Ġbor": 1323,
      "mod": 1324,
      "ome": 1325,
      "ise": 1326,
      "sÃ¸ge": 1327,
      "Ã¦nge": 1328,
      "Ġkomme": 1329,
      "iller": 1330,
      "far": 1331,
      "valg": 1332,
      "Ġsen": 1333,
      "Ġbu": 1334,
      "io": 1335,
      "linger": 1336,
      "Ġland": 1337,
      "rag": 1338,
      "su": 1339,
      "Ġweb": 1340,
      "Ġtilbud": 1341,
      "holder": 1342,
      "yt": 1343,
      "ook": 1344,
      "int": 1345,
      "Ġomkring": 1346,
      "rand": 1347,
      "give": 1348,
      "Ġbruger": 1349,
      "Ġ=": 1350,
      "yd": 1351,
      "ew": 1352,
      "Ġsh": 1353,
      "ET": 1354,
      "ance": 1355,
      "fÃ¸lge": 1356,
      "An": 1357,
      "Ġside": 1358,
      "sn": 1359,
      "Ġpris": 1360,
      "St": 1361,
      "Ġtre": 1362,
      "ĠmÃ¥de": 1363,
      "Ġpoli": 1364,
      "ĠY": 1365,
      "ĠEr": 1366,
      "mid": 1367,
      "Ġvirke": 1368,
      "ĠThe": 1369,
      "lingen": 1370,
      "Ġhvilket": 1371,
      "Ġha": 1372,
      "alen": 1373,
      "lÃ¸b": 1374,
      "Ġforhold": 1375,
      "ys": 1376,
      "Ġoff": 1377,
      "Ġken": 1378,
      "ĠOp": 1379,
      "ĠfÃ¸l": 1380,
      "ĠKÃ¸benhavn": 1381,
      "igt": 1382,
      "dsp": 1383,
      "gne": 1384,
      "ĠUn": 1385,
      "teret": 1386,
      "18": 1387,
      "styre": 1388,
      "tt": 1389,
      "ib": 1390,
      "ĠâĢĿ": 1391,
      "ĠVe": 1392,
      "ĠMe": 1393,
      "16": 1394,
      "lade": 1395,
      "forma": 1396,
      "Ġbesk": 1397,
      "Ġkomp": 1398,
      "ff": 1399,
      "Ġfl": 1400,
      "ders": 1401,
      "idt": 1402,
      "fri": 1403,
      "indelse": 1404,
      "ion": 1405,
      "Ġ100": 1406,
      "sende": 1407,
      "Ġhove": 1408,
      "Ġvin": 1409,
      "Ġ25": 1410,
      "Ġham": 1411,
      "kl": 1412,
      "lev": 1413,
      "Ġhoteller": 1414,
      "ĠmÃ¥ne": 1415,
      "Ġofte": 1416,
      "kla": 1417,
      "14": 1418,
      "Ġfle": 1419,
      "takt": 1420,
      "par": 1421,
      "Ġge": 1422,
      "Ġleve": 1423,
      "atte": 1424,
      "urder": 1425,
      "Ġhende": 1426,
      "Ġmindre": 1427,
      "Ġlok": 1428,
      "Ġkort": 1429,
      "erne": 1430,
      "Ġspeci": 1431,
      "Ġblandt": 1432,
      "tidig": 1433,
      "konom": 1434,
      "Ġeksemp": 1435,
      "Ġstad": 1436,
      "ĠspÃ¸rgsmÃ¥l": 1437,
      "Ġspille": 1438,
      "Ġkla": 1439,
      "ppen": 1440,
      "Ã¤": 1441,
      "ED": 1442,
      "13": 1443,
      "all": 1444,
      "gÃ¸re": 1445,
      "Ġ[": 1446,
      "Ġhotel": 1447,
      "Ġmedlem": 1448,
      "lede": 1449,
      "Ġnogen": 1450,
      "Ãĺ": 1451,
      "AR": 1452,
      "Ġting": 1453,
      "ĠhjÃ¦lp": 1454,
      "22": 1455,
      "Ġdire": 1456,
      "une": 1457,
      "fte": 1458,
      "mpe": 1459,
      "Ġfamili": 1460,
      "ive": 1461,
      "Ã¦lles": 1462,
      "urop": 1463,
      "ĠmÃ¥l": 1464,
      "jÃ¸": 1465,
      "stand": 1466,
      "ĠMan": 1467,
      "cep": 1468,
      "utter": 1469,
      "Ġfinder": 1470,
      "ris": 1471,
      "Ġsn": 1472,
      "vel": 1473,
      "ĠtÃ¦n": 1474,
      "bu": 1475,
      "ĠVis": 1476,
      "ĠRo": 1477,
      "Ã¦k": 1478,
      "ĠvÃ¦k": 1479,
      "arbejde": 1480,
      "che": 1481,
      "ige": 1482,
      "Ġrigtig": 1483,
      "Ġopleve": 1484,
      "sdag": 1485,
      "ha": 1486,
      "we": 1487,
      "stru": 1488,
      "room": 1489,
      "ĠAf": 1490,
      "da": 1491,
      "Ġnem": 1492,
      "Ġbedre": 1493,
      "ration": 1494,
      "svar": 1495,
      "Ġnyt": 1496,
      "ress": 1497,
      "Ġca": 1498,
      "Ġord": 1499,
      "ligvis": 1500,
      "fon": 1501,
      "Ġdansk": 1502,
      "form": 1503,
      "Du": 1504,
      "ĠÃ¸nsker": 1505,
      "andet": 1506,
      "Ġdri": 1507,
      "17": 1508,
      "99": 1509,
      "undt": 1510,
      "Ġgratis": 1511,
      "Den": 1512,
      "Ġstk": 1513,
      "side": 1514,
      "Ġgam": 1515,
      "ĠÃħ": 1516,
      "ON": 1517,
      "unde": 1518,
      "Ġkor": 1519,
      "rol": 1520,
      "terne": 1521,
      "orm": 1522,
      "Ġbegyn": 1523,
      "Ġfre": 1524,
      "Ġaut": 1525,
      "ĠrÃ¦kke": 1526,
      "ktisk": 1527,
      "kende": 1528,
      "Ġanvende": 1529,
      "ĠâĢľ": 1530,
      "tu": 1531,
      "use": 1532,
      "uni": 1533,
      "ĠDette": 1534,
      "sning": 1535,
      "ĠNy": 1536,
      "olen": 1537,
      "Ġvide": 1538,
      "Ã¸g": 1539,
      "able": 1540,
      "Ġkvalitet": 1541,
      "bog": 1542,
      "ĠHar": 1543,
      "df": 1544,
      "ĠstÃ¸": 1545,
      "Ġtidligere": 1546,
      "gÃ¸r": 1547,
      "ĠFre": 1548,
      "Ġko": 1549,
      "ING": 1550,
      "Ġhal": 1551,
      "sÃ¦t": 1552,
      "ĠKon": 1553,
      "ationer": 1554,
      "Ġhjem": 1555,
      "con": 1556,
      "Ġsted": 1557,
      "Ġhans": 1558,
      "Ġstadig": 1559,
      "Ġtager": 1560,
      "vid": 1561,
      "iel": 1562,
      "Me": 1563,
      "IL": 1564,
      "Ġ50": 1565,
      "ĠSam": 1566,
      "Ġpra": 1567,
      "Ġproje": 1568,
      "ĠgÃ¦l": 1569,
      "ĠhÃ¥r": 1570,
      "Ġlov": 1571,
      "ina": 1572,
      "fun": 1573,
      "Ġkro": 1574,
      "Ġ2016": 1575,
      "Ġverden": 1576,
      "rom": 1577,
      "ĠstÃ¥r": 1578,
      "Ġoplysninger": 1579,
      "Ã¶": 1580,
      "ĠZ": 1581,
      "skaber": 1582,
      "Ġben": 1583,
      "ĠkrÃ¦": 1584,
      "gr": 1585,
      "Ġregi": 1586,
      "Ġnr": 1587,
      "EL": 1588,
      "ĠMa": 1589,
      "ĠmÃ¥ske": 1590,
      "fra": 1591,
      "{\"": 1592,
      "ryk": 1593,
      "Ġfjer": 1594,
      "//": 1595,
      "Ġgange": 1596,
      "ĠPar": 1597,
      "Ġstar": 1598,
      "ph": 1599,
      "Ġ24": 1600,
      "ĠlÃ¸b": 1601,
      "handler": 1602,
      "Ġmodt": 1603,
      "tale": 1604,
      "ĠnÃ¸d": 1605,
      "no": 1606,
      "AT": 1607,
      "ith": 1608,
      "oto": 1609,
      "ror": 1610,
      "Ġforbindelse": 1611,
      "Ġvis": 1612,
      "co": 1613,
      "agen": 1614,
      "Ġmennesker": 1615,
      "Ġmand": 1616,
      "Ġsty": 1617,
      "Ġset": 1618,
      "akke": 1619,
      "ppe": 1620,
      "row": 1621,
      "ction": 1622,
      "mo": 1623,
      "Ġegen": 1624,
      "fer": 1625,
      "qu": 1626,
      "ben": 1627,
      "aling": 1628,
      "Ġgj": 1629,
      "th": 1630,
      "fik": 1631,
      "lin": 1632,
      "Ġ2015": 1633,
      "ĠrÃ¥d": 1634,
      "Ġtilbyder": 1635,
      ");": 1636,
      "ibex": 1637,
      "digt": 1638,
      "ĠInd": 1639,
      "ĠÃ©": 1640,
      "Ġmarke": 1641,
      "vor": 1642,
      "Ġrejse": 1643,
      "Ġdy": 1644,
      "mb": 1645,
      "25": 1646,
      "ĠHvor": 1647,
      "tive": 1648,
      "Ġpenge": 1649,
      "__": 1650,
      "staur": 1651,
      "ĠsmÃ¥": 1652,
      "Ġendnu": 1653,
      "ĠX": 1654,
      "ĠÃ¦nd": 1655,
      "Ġfindes": 1656,
      "Ġkri": 1657,
      "ĠJo": 1658,
      "Ġju": 1659,
      "date": 1660,
      "rum": 1661,
      "tern": 1662,
      "Ġeffe": 1663,
      "vil": 1664,
      "ktet": 1665,
      "Ġ%": 1666,
      "Ġmens": 1667,
      "Ġeksempel": 1668,
      "ĠprÃ¸": 1669,
      "teri": 1670,
      "lad": 1671,
      "Ġkn": 1672,
      "ĠgÃ¦": 1673,
      "ĠDKK": 1674,
      "Ġinternet": 1675,
      "skabet": 1676,
      "Ġkli": 1677,
      "Ġren": 1678,
      "Ġkommun": 1679,
      "ile": 1680,
      "Ġ2017": 1681,
      "formation": 1682,
      "cen": 1683,
      "tra": 1684,
      "null": 1685,
      "ĠDa": 1686,
      "ze": 1687,
      "snit": 1688,
      "ĠsÃ¥dan": 1689,
      "spro": 1690,
      "ĠFa": 1691,
      "Ġstand": 1692,
      "Ġstort": 1693,
      "Ġvalg": 1694,
      "vs": 1695,
      "entlig": 1696,
      "fa": 1697,
      "Ġmaj": 1698,
      "Ġvidere": 1699,
      "gan": 1700,
      "kur": 1701,
      "ĠtilfÃ¦l": 1702,
      "Ġsige": 1703,
      "He": 1704,
      "Ġ22": 1705,
      "antas": 1706,
      "sens": 1707,
      "Ġuddanne": 1708,
      "Ã¦rke": 1709,
      "kto": 1710,
      "Ġbyg": 1711,
      "Ġdesig": 1712,
      "skin": 1713,
      "ĠÃ¥rs": 1714,
      "klu": 1715,
      "ĠDenne": 1716,
      "ĠmÃ¸": 1717,
      "ĠNÃ¥r": 1718,
      "oe": 1719,
      "arts": 1720,
      "ES": 1721,
      "ford": 1722,
      "Ġkal": 1723,
      "fÃ¸re": 1724,
      "Ġprodukter": 1725,
      "Ġ21": 1726,
      ".,": 1727,
      "ĠkÃ¸be": 1728,
      "stÃ¥r": 1729,
      "Ġsoci": 1730,
      "ĠhÃ¥": 1731,
      "omrÃ¥": 1732,
      "kken": 1733,
      "menter": 1734,
      "uar": 1735,
      "lerne": 1736,
      "Ġbi": 1737,
      "Ġanmeldelse": 1738,
      "sage": 1739,
      "eneste": 1740,
      "ĠHvad": 1741,
      "Ġsyn": 1742,
      "ĠfÃ¥et": 1743,
      "ank": 1744,
      "Nr": 1745,
      "\",": 1746,
      "artner": 1747,
      "://": 1748,
      "Ġyder": 1749,
      "sam": 1750,
      "'s": 1751,
      "Ġ2013": 1752,
      "Ġsv": 1753,
      "Ġsalg": 1754,
      "uk": 1755,
      "Ġ2014": 1756,
      "Ġbek": 1757,
      "Ġx": 1758,
      "24": 1759,
      "Ġudvalg": 1760,
      "yde": 1761,
      "Ã¦ngere": 1762,
      "jendom": 1763,
      "ktioner": 1764,
      "Ġjan": 1765,
      "Ġbehandling": 1766,
      "ach": 1767,
      "fice": 1768,
      "ill": 1769,
      "Ġbog": 1770,
      "Ġanbe": 1771,
      "Ġadgang": 1772,
      "Ã¦ldre": 1773,
      "Ġbeste": 1774,
      "ĠVed": 1775,
      "RI": 1776,
      "Ġ23": 1777,
      "Ad": 1778,
      "Ġhistor": 1779,
      "own": 1780,
      "ack": 1781,
      "Ã¸ger": 1782,
      "Ġviser": 1783,
      "leje": 1784,
      "nem": 1785,
      "Ġservice": 1786,
      "Ġmet": 1787,
      "Ġ+": 1788,
      "Ġforet": 1789,
      "ĠhÃ¥nd": 1790,
      "eks": 1791,
      "ats": 1792,
      "dele": 1793,
      "Ġstra": 1794,
      "em": 1795,
      "Ġfilm": 1796,
      "Ã¸res": 1797,
      "rev": 1798,
      "ich": 1799,
      "ye": 1800,
      "Ġbetyder": 1801,
      "Ġ#": 1802,
      "ulta": 1803,
      "iet": 1804,
      "Ġvirkelig": 1805,
      "ĠhjÃ¦lpe": 1806,
      "Ġvia": 1807,
      "Ġsine": 1808,
      "ĠfÃ¦r": 1809,
      "ĠBo": 1810,
      "Ġtur": 1811,
      "Ġfag": 1812,
      "Ġfok": 1813,
      "styrelsen": 1814,
      "terer": 1815,
      "ans": 1816,
      "varer": 1817,
      "Ġkvinder": 1818,
      "Ġ2012": 1819,
      "Ã¸ren": 1820,
      "fo": 1821,
      "Â«": 1822,
      "Ġtop": 1823,
      "book": 1824,
      "âĢ¦": 1825,
      "ĠhÃ¸je": 1826,
      "Ġudvikling": 1827,
      "Ġwe": 1828,
      "ede": 1829,
      "dat": 1830,
      "Til": 1831,
      "ĠvÃ¦relser": 1832,
      "60": 1833,
      "Hvis": 1834,
      "stal": 1835,
      "ons": 1836,
      "aget": 1837,
      "ogle": 1838,
      "45": 1839,
      "Ġski": 1840,
      "ĠSom": 1841,
      "minde": 1842,
      "??": 1843,
      "Ġklar": 1844,
      "ca": 1845,
      "ĠnÃ¸dven": 1846,
      "lefon": 1847,
      "Ġsommer": 1848,
      "opul": 1849,
      "Ġproble": 1850,
      "ĠEt": 1851,
      "Ġlangt": 1852,
      "sÃ¦ttelse": 1853,
      "Ġallerede": 1854,
      "Ġkig": 1855,
      "ĠChri": 1856,
      "ledning": 1857,
      "ĠÃ¸konom": 1858,
      "Ġcm": 1859,
      "oks": 1860,
      "Ġunge": 1861,
      "Ġkar": 1862,
      "idget": 1863,
      "nat": 1864,
      "Ġekstra": 1865,
      "ien": 1866,
      "Ġsep": 1867,
      "gave": 1868,
      "Ġblot": 1869,
      "Ġrundt": 1870,
      "bat": 1871,
      "jl": 1872,
      "ko": 1873,
      "han": 1874,
      "OM": 1875,
      "byg": 1876,
      "nen": 1877,
      "rien": 1878,
      "Ġsol": 1879,
      "vin": 1880,
      "syn": 1881,
      "Ġminutter": 1882,
      "Ġlin": 1883,
      "ym": 1884,
      "Ġholde": 1885,
      "Ġhurtigt": 1886,
      "40": 1887,
      "ip": 1888,
      "revet": 1889,
      "agt": 1890,
      "refter": 1891,
      "styr": 1892,
      "Ġvirksomheder": 1893,
      "ummer": 1894,
      "shop": 1895,
      "ĠAlt": 1896,
      "Ġsvar": 1897,
      "lie": 1898,
      "Ġfleste": 1899,
      "gre": 1900,
      "suden": 1901,
      "omati": 1902,
      "kendt": 1903,
      "Ġlet": 1904,
      "Ġmad": 1905,
      "Ġmid": 1906,
      "bar": 1907,
      "Ġcomp": 1908,
      "Ġcent": 1909,
      "ĠEU": 1910,
      "fil": 1911,
      "siden": 1912,
      "Be": 1913,
      "Ġtran": 1914,
      "ĠfÃ¦lles": 1915,
      "Ġsund": 1916,
      "Ġener": 1917,
      "vÃ¦relse": 1918,
      "mmet": 1919,
      "slag": 1920,
      "pr": 1921,
      "tage": 1922,
      "ĠlÃ¦ngere": 1923,
      "ĠÂ»": 1924,
      "gaard": 1925,
      "ĠSh": 1926,
      "Ġstedet": 1927,
      "Ġter": 1928,
      "aly": 1929,
      "ĠAlle": 1930,
      "ÃĨ": 1931,
      "Ġund": 1932,
      "ted": 1933,
      "Ġfolk": 1934,
      "drig": 1935,
      "Ġbeslut": 1936,
      "ll": 1937,
      "Ġskabe": 1938,
      "kelt": 1939,
      "Ġmit": 1940,
      "spe": 1941,
      "Ġsikre": 1942,
      "Re": 1943,
      "irma": 1944,
      "ĠfÃ¸rst": 1945,
      "ĠFra": 1946,
      "ies": 1947,
      "Ãħ": 1948,
      "digheder": 1949,
      "retning": 1950,
      "ĠMo": 1951,
      "ix": 1952,
      "Ġfuld": 1953,
      "non": 1954,
      "uter": 1955,
      "kal": 1956,
      "anter": 1957,
      "Ġsex": 1958,
      "Ġ2019": 1959,
      "Ġpersoner": 1960,
      "ved": 1961,
      "lagt": 1962,
      "to": 1963,
      "ogra": 1964,
      "ĠUS": 1965,
      "skud": 1966,
      "Ġ2018": 1967,
      "Ġwith": 1968,
      "stilling": 1969,
      "Ġmob": 1970,
      "AL": 1971,
      "otelle": 1972,
      "Ġsynes": 1973,
      "ilde": 1974,
      "cili": 1975,
      "hÃ¸r": 1976,
      "ften": 1977,
      "Ġpdf": 1978,
      "Ġenkel": 1979,
      "Ġfantas": 1980,
      "Ġfamilie": 1981,
      "IT": 1982,
      "fÃ¸rt": 1983,
      "Ġplads": 1984,
      "ultur": 1985,
      "aa": 1986,
      "ars": 1987,
      "Pri": 1988,
      "ĠvÃ¦lge": 1989,
      "23": 1990,
      "ĠUnder": 1991,
      "ĠSu": 1992,
      "vning": 1993,
      "skrive": 1994,
      "brug": 1995,
      "Ġnemlig": 1996,
      "sigt": 1997,
      "po": 1998,
      "hu": 1999,
      "ĠAd": 2000,
      "ĠsÃ¥ledes": 2001,
      "mail": 2002,
      "mm": 2003,
      "Ġaug": 2004,
      "berg": 2005,
      "Ġtale": 2006,
      "serne": 2007,
      "Ġaldrig": 2008,
      "Ġvigtigt": 2009,
      "ĠsvÃ¦r": 2010,
      "Ġmine": 2011,
      "ygdom": 2012,
      "ĠUni": 2013,
      "sport": 2014,
      "son": 2015,
      "Ġomfat": 2016,
      "mere": 2017,
      "pril": 2018,
      "ruppe": 2019,
      "Ġtimer": 2020,
      "--": 2021,
      "urde": 2022,
      "Ġindt": 2023,
      "Ġplace": 2024,
      "pport": 2025,
      "80": 2026,
      "gelse": 2027,
      "rug": 2028,
      "Ġ}": 2029,
      "Ġkur": 2030,
      "Ġsamtidig": 2031,
      "Ġgar": 2032,
      "ĠHent": 2033,
      "Ġdelt": 2034,
      "200": 2035,
      "Hotel": 2036,
      "Ġval": 2037,
      "Ã¸rn": 2038,
      "tro": 2039,
      "tember": 2040,
      "visor": 2041,
      "Ġbehov": 2042,
      "ĠlÃ¥": 2043,
      "grid": 2044,
      "oms": 2045,
      "Ġjuni": 2046,
      "Ġperfe": 2047,
      "hen": 2048,
      "Ġ{": 2049,
      "alet": 2050,
      "ĠgÃ¦ster": 2051,
      "ĠHol": 2052,
      "orn": 2053,
      "ĠvÃ¦relse": 2054,
      "gn": 2055,
      "ĠtilfÃ¦lde": 2056,
      "ĠaltsÃ¥": 2057,
      "Ġmedarbej": 2058,
      "Ġstyr": 2059,
      "Ġab": 2060,
      "cember": 2061,
      "ful": 2062,
      "ĠÃ©n": 2063,
      "ĠNor": 2064,
      "ĠglÃ¦": 2065,
      "hÃ¦ng": 2066,
      "ital": 2067,
      "ĠEl": 2068,
      "Ġgik": 2069,
      "lÃ¥": 2070,
      "Ġprogra": 2071,
      "Ġferie": 2072,
      "Ġanbef": 2073,
      "Ġvarer": 2074,
      "trÃ¦": 2075,
      "Ġenergi": 2076,
      "27": 2077,
      "urdering": 2078,
      "ĠÂ·": 2079,
      "ssi": 2080,
      "Ġlevering": 2081,
      "vat": 2082,
      "ĠTV": 2083,
      "Ġjanuar": 2084,
      "ktiv": 2085,
      "ĠstÃ¸rste": 2086,
      "rog": 2087,
      "ĠvÃ¦rdi": 2088,
      "visning": 2089,
      "Ġ27": 2090,
      "fÃ¸l": 2091,
      "ission": 2092,
      "deren": 2093,
      "Ġhjer": 2094,
      "Ġtal": 2095,
      "Ġbruges": 2096,
      "Ġmuligheder": 2097,
      "Ġperi": 2098,
      "Ġorgan": 2099,
      "versi": 2100,
      "nede": 2101,
      "rÃ¸m": 2102,
      "Ġaktivi": 2103,
      "Ġac": 2104,
      "Ġske": 2105,
      "Ġbygge": 2106,
      "ĠKommune": 2107,
      "plan": 2108,
      "',": 2109,
      "28": 2110,
      "Ġflot": 2111,
      "Ġbel": 2112,
      "ĠGra": 2113,
      "dition": 2114,
      "Ġende": 2115,
      "lever": 2116,
      "asse": 2117,
      "Ġsikkert": 2118,
      "Ġbud": 2119,
      "fol": 2120,
      "Ġfaktisk": 2121,
      "Ġmorgen": 2122,
      "rue": 2123,
      "so": 2124,
      "ĠSo": 2125,
      "ylland": 2126,
      "rÃ¸r": 2127,
      "Ġmm": 2128,
      "lation": 2129,
      "\\/": 2130,
      "ĠlÃ¦se": 2131,
      "Ġmarts": 2132,
      "Ġtekn": 2133,
      "Ġyou": 2134,
      "Ġgamle": 2135,
      "ktober": 2136,
      "Ġhus": 2137,
      "Ġ...": 2138,
      "ity": 2139,
      "foren": 2140,
      "Ġenkelt": 2141,
      "vÃ¦rk": 2142,
      "Ġmang": 2143,
      "Ġbilleder": 2144,
      "95": 2145,
      "ild": 2146,
      "dighed": 2147,
      "Ġ26": 2148,
      "26": 2149,
      "Ġhvert": 2150,
      "Ġerhver": 2151,
      "Ġ28": 2152,
      "sent": 2153,
      "ĠnÃ¦ste": 2154,
      "Ġdirekte": 2155,
      "Ġsti": 2156,
      "ĠCar": 2157,
      "rÃ¥d": 2158,
      "deling": 2159,
      "Ġerfar": 2160,
      "mu": 2161,
      "ĠDerfor": 2162,
      "ĠFreder": 2163,
      "gaver": 2164,
      "Ġviden": 2165,
      "fÃ¦r": 2166,
      "ton": 2167,
      "blik": 2168,
      "Ġlavet": 2169,
      "satte": 2170,
      "van": 2171,
      "Ġstart": 2172,
      "fyl": 2173,
      "Ġjer": 2174,
      "('": 2175,
      "ai": 2176,
      "Ġkrav": 2177,
      "sie": 2178,
      "jekning": 2179,
      "ĠtÃ¦t": 2180,
      "Ġz": 2181,
      "ĠOm": 2182,
      "svÃ¦r": 2183,
      "Ġmaskin": 2184,
      "uder": 2185,
      "orde": 2186,
      "Ġjob": 2187,
      "Ġ40": 2188,
      "ĠkÃ¦": 2189,
      "ĠgrÃ¸n": 2190,
      "Ã¦ller": 2191,
      "Ġtiden": 2192,
      "br": 2193,
      "Ġkamp": 2194,
      "ld": 2195,
      "affe": 2196,
      "reds": 2197,
      "Ġsamarbejde": 2198,
      "produ": 2199,
      "ĠAt": 2200,
      "ader": 2201,
      "orte": 2202,
      "ĠundersÃ¸ge": 2203,
      "Ġhandler": 2204,
      "Ġmindst": 2205,
      "anti": 2206,
      "mi": 2207,
      "jerg": 2208,
      "ciliteter": 2209,
      "pper": 2210,
      "irke": 2211,
      "cel": 2212,
      "Ġful": 2213,
      "Ġcy": 2214,
      "vand": 2215,
      "Ġpopul": 2216,
      "Ġdata": 2217,
      "widget": 2218,
      "\":{\"": 2219,
      "ĠÃ¸je": 2220,
      "âĢĭ": 2221,
      "ĠEurop": 2222,
      "Ġapril": 2223,
      "holde": 2224,
      "sa": 2225,
      "Men": 2226,
      "marks": 2227,
      "Ġimp": 2228,
      "ID": 2229,
      "orden": 2230,
      "xxxx": 2231,
      "Ġalminde": 2232,
      "vne": 2233,
      "ansk": 2234,
      "Ġbillig": 2235,
      "ka": 2236,
      "Ġ2011": 2237,
      "Ġnove": 2238,
      "Ġbolig": 2239,
      "ĠspÃ¦n": 2240,
      "stÃ¦n": 2241,
      "Ġvigtig": 2242,
      "sbe": 2243,
      "Ġhaft": 2244,
      "Ġsj": 2245,
      "Pro": 2246,
      "Ġmilli": 2247,
      "ĠSel": 2248,
      "Ġide": 2249,
      "omatisk": 2250,
      "Ġforslag": 2251,
      "vare": 2252,
      "rej": 2253,
      "Ġsand": 2254,
      "ĠOver": 2255,
      "ĠLa": 2256,
      "lasse": 2257,
      "stat": 2258,
      "rigin": 2259,
      "ĠfÃ¸lge": 2260,
      "Ġretur": 2261,
      "undet": 2262,
      "Ġid": 2263,
      "Ġex": 2264,
      "Ġseptember": 2265,
      "Ġevent": 2266,
      "ight": 2267,
      "ĠdÃ¦": 2268,
      "ologi": 2269,
      "Ġnav": 2270,
      "Ġkontakt": 2271,
      "gelsk": 2272,
      "ĠGr": 2273,
      "ĠLi": 2274,
      "uren": 2275,
      "fÃ¸lgelig": 2276,
      "Ġskole": 2277,
      "Med": 2278,
      "Ġenkelte": 2279,
      "Ġdecember": 2280,
      "ĠMin": 2281,
      "ĠHun": 2282,
      "ktor": 2283,
      "ark": 2284,
      "Ġejendom": 2285,
      "Ġpati": 2286,
      "Ġarbejder": 2287,
      "icin": 2288,
      "nere": 2289,
      "ĠÃ¸v": 2290,
      "Ġdyr": 2291,
      "ĠWe": 2292,
      "syk": 2293,
      "ĠnÃ¥": 2294,
      "ĠPri": 2295,
      "Ġfokus": 2296,
      "rier": 2297,
      "atch": 2298,
      "Ġnavn": 2299,
      "tering": 2300,
      "Ġtog": 2301,
      "29": 2302,
      "ateg": 2303,
      "ĠnÃ¦sten": 2304,
      "alle": 2305,
      "Ã¦tte": 2306,
      "Ġapp": 2307,
      "21": 2308,
      "ĠsÃ¦tte": 2309,
      "ĠEfter": 2310,
      "oler": 2311,
      "Ġdej": 2312,
      "Ġude": 2313,
      "Ġare": 2314,
      "vide": 2315,
      "ator": 2316,
      "Ġsuper": 2317,
      "stÃ¸": 2318,
      "0000": 2319,
      "ĠlÃ¦g": 2320,
      "Ġansvar": 2321,
      "ves": 2322,
      "RE": 2323,
      "Ġoktober": 2324,
      "bed": 2325,
      "Ġinformation": 2326,
      "Ġslag": 2327,
      "port": 2328,
      "Ġtj": 2329,
      "Ġigennem": 2330,
      "Ġmener": 2331,
      "Ġforud": 2332,
      "kere": 2333,
      "IG": 2334,
      "ĠDansk": 2335,
      "kering": 2336,
      "dage": 2337,
      "Sk": 2338,
      "ante": 2339,
      "Ġhold": 2340,
      "AS": 2341,
      "Ġproblemer": 2342,
      "Ġ29": 2343,
      "giver": 2344,
      "Ġuge": 2345,
      "ung": 2346,
      "Ġluft": 2347,
      "Ġkap": 2348,
      "prÃ¦": 2349,
      "ski": 2350,
      "Ġmis": 2351,
      "Ġeg": 2352,
      "sikring": 2353,
      "05": 2354,
      "mand": 2355,
      "Ġtime": 2356,
      "vl": 2357,
      "aseret": 2358,
      "sfor": 2359,
      "Ġnetop": 2360,
      "Ġtror": 2361,
      "ĠÃ¸nske": 2362,
      "tikker": 2363,
      "Ġtaget": 2364,
      "center": 2365,
      "Ġudt": 2366,
      "Le": 2367,
      "uelle": 2368,
      "ork": 2369,
      "Ġsat": 2370,
      "Ġhens": 2371,
      "ĠCo": 2372,
      "ĠSte": 2373,
      "Ġvarme": 2374,
      "ĠÐ": 2375,
      "Ġforven": 2376,
      "07": 2377,
      "ĠEx": 2378,
      "ĠKr": 2379,
      "range": 2380,
      "dtjekning": 2381,
      "Ġindeholder": 2382,
      "Ġlej": 2383,
      "rit": 2384,
      "tiden": 2385,
      "sse": 2386,
      "Ġhoved": 2387,
      "ĠSer": 2388,
      "udover": 2389,
      "Ġherunder": 2390,
      "unden": 2391,
      "ational": 2392,
      "kst": 2393,
      "holds": 2394,
      "lej": 2395,
      "givet": 2396,
      "35": 2397,
      "holm": 2398,
      "Ġbarn": 2399,
      "aven": 2400,
      "Ġfyl": 2401,
      "Ã¸rs": 2402,
      "Ã¦ld": 2403,
      "Ġantal": 2404,
      "ĠforstÃ¥": 2405,
      "grund": 2406,
      "Ġresulta": 2407,
      "Ġsik": 2408,
      "ĠGo": 2409,
      "ĠhÃ¥ber": 2410,
      "Ġnovember": 2411,
      "ĠÃ¦g": 2412,
      "tikel": 2413,
      "led": 2414,
      "gene": 2415,
      "Ġpi": 2416,
      "Ġbetale": 2417,
      "RO": 2418,
      "Ġdele": 2419,
      "ĠsvÃ¦rt": 2420,
      "ĠNiel": 2421,
      "bel": 2422,
      "Ġrejsende": 2423,
      "NÃ¥r": 2424,
      "Advisor": 2425,
      "false": 2426,
      "Ġaugust": 2427,
      "ripAdvisor": 2428,
      "Ġnive": 2429,
      "Ġsc": 2430,
      "dersen": 2431,
      "ulti": 2432,
      "ĠsÃ¦l": 2433,
      "ĠgÃ¦lder": 2434,
      "âĢľ": 2435,
      "ĠFil": 2436,
      "ĠGe": 2437,
      "ĠBar": 2438,
      "Ġspil": 2439,
      "delsen": 2440,
      "akter": 2441,
      "Ġskyl": 2442,
      "Ġsli": 2443,
      "Ġbestil": 2444,
      "Ġshop": 2445,
      "Ġfinan": 2446,
      "ond": 2447,
      "ĠSy": 2448,
      "Ġaften": 2449,
      "oster": 2450,
      "blem": 2451,
      "ĠFÃ¥": 2452,
      "Ġposi": 2453,
      "ĠÃ¥ret": 2454,
      "06": 2455,
      "\".": 2456,
      "Ġnemt": 2457,
      "Ġtv": 2458,
      "ligheden": 2459,
      "ĠFe": 2460,
      "gÃ¸relse": 2461,
      "Ġsenere": 2462,
      "Ġmusik": 2463,
      "ĠSpil": 2464,
      "04": 2465,
      "Ġcon": 2466,
      "ald": 2467,
      "ĠskÃ¸n": 2468,
      "Ġpl": 2469,
      "Vis": 2470,
      "ĠBed": 2471,
      "ĠisÃ¦r": 2472,
      "Ġfire": 2473,
      "iti": 2474,
      "kÃ¸b": 2475,
      "ĠIs": 2476,
      "Ġsker": 2477,
      "},\"": 2478,
      "lserne": 2479,
      "ĠtÃ¸r": 2480,
      "ikke": 2481,
      "Ã¦ss": 2482,
      "ĠQ": 2483,
      "sige": 2484,
      "Ġvist": 2485,
      "ĠsÃ¸n": 2486,
      "ĠkÃ¸re": 2487,
      "lass": 2488,
      "kort": 2489,
      "LO": 2490,
      "ument": 2491,
      "Ã¸mme": 2492,
      "Ġmenneske": 2493,
      "AM": 2494,
      "vede": 2495,
      "bruar": 2496,
      "Ġinve": 2497,
      "Ġlandet": 2498,
      "Ġfores": 2499,
      "Ġvoks": 2500,
      "stitu": 2501,
      "arer": 2502,
      "vation": 2503,
      "Ġtidsp": 2504,
      "cy": 2505,
      "otellet": 2506,
      "Ġgrad": 2507,
      "Ġpasser": 2508,
      "ĠstÃ¥": 2509,
      "ĠNord": 2510,
      "Ġlo": 2511,
      "ĠâĢĭ": 2512,
      "Ġholder": 2513,
      "ĠmiljÃ¸": 2514,
      "staurant": 2515,
      "ĠmÃ¦nd": 2516,
      "Ġintern": 2517,
      "Ġsteder": 2518,
      "sek": 2519,
      "ationen": 2520,
      "rette": 2521,
      "otor": 2522,
      "rus": 2523,
      "gering": 2524,
      "Ġtab": 2525,
      "marke": 2526,
      "Ġ2010": 2527,
      "ĠoversÃ¦ttelse": 2528,
      "Ġsmu": 2529,
      "iler": 2530,
      "Ġfx": 2531,
      "36": 2532,
      "Ġvurdering": 2533,
      "vÃ¦rende": 2534,
      "anset": 2535,
      "Ġhendes": 2536,
      "Ġ199": 2537,
      "tic": 2538,
      "SÃ¥": 2539,
      "ages": 2540,
      "Ja": 2541,
      "gifter": 2542,
      "meldt": 2543,
      "Ġï¿½ï¿½ï¿½ï¿½": 2544,
      "Ã¼": 2545,
      "minist": 2546,
      "ensen": 2547,
      "ryg": 2548,
      "Ġfebruar": 2549,
      "Ġgenere": 2550,
      "Ġbry": 2551,
      "SK": 2552,
      "abel": 2553,
      "ĠstÃ¸tte": 2554,
      "08": 2555,
      "ĠselvfÃ¸lgelig": 2556,
      "Ġhinan": 2557,
      "ĠAar": 2558,
      "ĠBil": 2559,
      "Ġinteresse": 2560,
      "gade": 2561,
      ",-": 2562,
      "Ro": 2563,
      "spil": 2564,
      "Ã¥ret": 2565,
      "Ġnat": 2566,
      "Og": 2567,
      "Ġskrive": 2568,
      "stian": 2569,
      "ĠfÃ¸lgende": 2570,
      "rence": 2571,
      "mÃ¦rksom": 2572,
      "Ġstat": 2573,
      "ktÃ¸r": 2574,
      "oden": 2575,
      "Ġ*": 2576,
      "PÃ¥": 2577,
      "Â»": 2578,
      "cebook": 2579,
      "dra": 2580,
      "Ġopn": 2581,
      "xt": 2582,
      "Ġannon": 2583,
      "Ġprofe": 2584,
      "Ġdesign": 2585,
      "Ġkonkur": 2586,
      "zz": 2587,
      "fort": 2588,
      "Ã¥rlig": 2589,
      "Ġvirksomhed": 2590,
      "Ġsygdom": 2591,
      "asin": 2592,
      "ĠPeter": 2593,
      "Ġfalse": 2594,
      "valget": 2595,
      "lit": 2596,
      "Ġit": 2597,
      "ĠHen": 2598,
      "Ġfordel": 2599,
      "Ġpoliti": 2600,
      "Ġautomatisk": 2601,
      "ĠplanlÃ¦g": 2602,
      "ĠfortÃ¦ller": 2603,
      "sere": 2604,
      "Ġnorm": 2605,
      "ĠhÃ¥n": 2606,
      "Ġhtt": 2607,
      "Ġmaskinover": 2608,
      "taler": 2609,
      "Ġtelefon": 2610,
      "ell": 2611,
      "Ġfin": 2612,
      "ĠâĢĭâĢĭ": 2613,
      "ĠmÃ¸de": 2614,
      "33": 2615,
      "service": 2616,
      "Ġbedst": 2617,
      "olitik": 2618,
      "Ġgjort": 2619,
      "Ġforh": 2620,
      "midler": 2621,
      "ĠPla": 2622,
      "lien": 2623,
      "tiv": 2624,
      "ĠopmÃ¦rksom": 2625,
      "Ġsagde": 2626,
      "unt": 2627,
      "ĠÃ¸j": 2628,
      "js": 2629,
      "mad": 2630,
      "ĠOr": 2631,
      "kommen": 2632,
      "orer": 2633,
      "Ġhjemmeside": 2634,
      "lf": 2635,
      "ĠomrÃ¥de": 2636,
      "ĠlÃ¦re": 2637,
      "sÃ¸ger": 2638,
      "Ġlokale": 2639,
      "ktivi": 2640,
      "Ġindtil": 2641,
      "ĠSch": 2642,
      "09": 2643,
      "que": 2644,
      "ja": 2645,
      "orien": 2646,
      "03": 2647,
      "ĠJa": 2648,
      "oder": 2649,
      "Ġlande": 2650,
      "ĠFran": 2651,
      "oer": 2652,
      "Ġprin": 2653,
      "ĠfÃ¸le": 2654,
      "Ġregn": 2655,
      "Ġhalv": 2656,
      "Ġâ": 2657,
      "vem": 2658,
      "dets": 2659,
      "Ġeneste": 2660,
      "stÃ¥ende": 2661,
      "Ġbelig": 2662,
      "Ġbrugt": 2663,
      "Ġlager": 2664,
      "ydning": 2665,
      "iks": 2666,
      "ail": 2667,
      "Ġtan": 2668,
      "Ġfantastisk": 2669,
      "cial": 2670,
      "iljÃ¸": 2671,
      "ware": 2672,
      "Ġproblem": 2673,
      "Ġbid": 2674,
      "ĠsÃ¸ge": 2675,
      "uddanne": 2676,
      "Ġgu": 2677,
      "Ud": 2678,
      "Ġjuli": 2679,
      "Ind": 2680,
      "75": 2681,
      "Ġudford": 2682,
      "mask": 2683,
      "Ġinsp": 2684,
      "ho": 2685,
      "offer": 2686,
      "bro": 2687,
      "hn": 2688,
      "ativ": 2689,
      "ĠGod": 2690,
      "ĠhÃ¦": 2691,
      "Ġses": 2692,
      "Ġmasse": 2693,
      "jylland": 2694,
      "Ġorigin": 2695,
      "ownlo": 2696,
      "Ã¸dt": 2697,
      "dent": 2698,
      "Ġhinanden": 2699,
      "tids": 2700,
      "Ġkunst": 2701,
      "Ġengelsk": 2702,
      "fÃ¸rer": 2703,
      "Ġdeltage": 2704,
      "eten": 2705,
      "Ġudgang": 2706,
      "nende": 2707,
      "ĠDanmarks": 2708,
      "Sp": 2709,
      "gÃ¦nge": 2710,
      "Ġslut": 2711,
      "ath": 2712,
      "Ġdermed": 2713,
      "Ġmedlemmer": 2714,
      "ĠHel": 2715,
      "ĠNu": 2716,
      "belt": 2717,
      "Ġdok": 2718,
      "ong": 2719,
      "als": 2720,
      "plad": 2721,
      "Ġbegge": 2722,
      "ĠlÃ¸s": 2723,
      "Mere": 2724,
      "ktive": 2725,
      "lot": 2726,
      "Ġelever": 2727,
      "Op": 2728,
      "ari": 2729,
      "Ġspise": 2730,
      "Her": 2731,
      "Ġbr": 2732,
      "Ġniveau": 2733,
      "view": 2734,
      "gede": 2735,
      "ĠNe": 2736,
      "gte": 2737,
      "Ġsitu": 2738,
      "liv": 2739,
      "bygge": 2740,
      "fald": 2741,
      "49": 2742,
      "Ġspiller": 2743,
      "ĠmÃ¥ned": 2744,
      "Ġforbed": 2745,
      "02": 2746,
      "Ġuddannelse": 2747,
      "ĠlÃ¦ge": 2748,
      "OL": 2749,
      "ĠFol": 2750,
      "ĠPo": 2751,
      "ral": 2752,
      "aner": 2753,
      "Ġthat": 2754,
      "Ġban": 2755,
      "gning": 2756,
      "uer": 2757,
      "ĠBer": 2758,
      "ĠSi": 2759,
      "sering": 2760,
      "Ġseneste": 2761,
      "Ġprodukt": 2762,
      "ink": 2763,
      "ĠJe": 2764,
      "Ġuger": 2765,
      "ĠlÃ¸bet": 2766,
      "Ġak": 2767,
      "jern": 2768,
      "Ã¦ring": 2769,
      "ĠNew": 2770,
      "rettet": 2771,
      "urer": 2772,
      "Ġkunder": 2773,
      "ĠbÃ¸rne": 2774,
      "Ã¥let": 2775,
      "SE": 2776,
      "Ġkry": 2777,
      "ĠspÃ¦ndende": 2778,
      "ĠkrÃ¦ver": 2779,
      "ĠnÃ¦rheden": 2780,
      "Ġvok": 2781,
      "Ġdating": 2782,
      "Ġco": 2783,
      "ationale": 2784,
      "merik": 2785,
      "Ġnord": 2786,
      "ĠhÃ¦n": 2787,
      "ini": 2788,
      "Ã¦rer": 2789,
      "Ġkroner": 2790,
      "Ġhygge": 2791,
      "Ġem": 2792,
      "frem": 2793,
      "Ġsyge": 2794,
      "38": 2795,
      "gar": 2796,
      "ND": 2797,
      "holdet": 2798,
      "Ġsagt": 2799,
      "Ġovernat": 2800,
      "Ġhvilke": 2801,
      "Un": 2802,
      "Ġdagen": 2803,
      "Ġ31": 2804,
      "Ġfarve": 2805,
      "Ġmon": 2806,
      "ins": 2807,
      "kan": 2808,
      "55": 2809,
      "Ġry": 2810,
      "ĠmÃ¥neder": 2811,
      "Ġfem": 2812,
      "ĠindlÃ¦g": 2813,
      "Denne": 2814,
      "Ġimod": 2815,
      "OK": 2816,
      "ĠTra": 2817,
      "ĠAarhus": 2818,
      "48": 2819,
      "entlige": 2820,
      "Ġfald": 2821,
      "\\\"": 2822,
      "ets": 2823,
      "AG": 2824,
      "ĠTy": 2825,
      "end": 2826,
      "kes": 2827,
      "tilbud": 2828,
      "Ġfod": 2829,
      "Ġanvendes": 2830,
      "jÃ¦lland": 2831,
      "Ġprocent": 2832,
      "ĠKri": 2833,
      "Ġlys": 2834,
      "Ġkunde": 2835,
      "ĠKar": 2836,
      "Ġmuligvis": 2837,
      "Ġwww": 2838,
      "Ġoven": 2839,
      "78": 2840,
      "Ġdom": 2841,
      "ative": 2842,
      "lat": 2843,
      "........": 2844,
      "Ġmobil": 2845,
      "Ġstud": 2846,
      "ĠhÃ¸jt": 2847,
      "mis": 2848,
      "ĠPer": 2849,
      "ogn": 2850,
      "Ġrisik": 2851,
      "ĠlÃ¦nge": 2852,
      "Ġhvorfor": 2853,
      "Ġsende": 2854,
      "Ġhverdag": 2855,
      "ĠBr": 2856,
      "sive": 2857,
      "sko": 2858,
      "ĠUSA": 2859,
      "ĠLu": 2860,
      "holdt": 2861,
      "ĠkÃ¸r": 2862,
      "behÃ¸r": 2863,
      "Ġred": 2864,
      "ĠSil": 2865,
      "Ġhj": 2866,
      "ĠHvordan": 2867,
      "lende": 2868,
      "EM": 2869,
      "Ġforret": 2870,
      "ĠkÃ¸kken": 2871,
      "ĠhjÃ¦lper": 2872,
      "Ġhy": 2873,
      "TER": 2874,
      "Ġ2020": 2875,
      "ĠMu": 2876,
      "htt": 2877,
      "ĠVej": 2878,
      "ligevel": 2879,
      "cept": 2880,
      "Ġhistorie": 2881,
      "ĠsÃ¸ger": 2882,
      "www": 2883,
      "Ġtri": 2884,
      "laget": 2885,
      "hÃ¦n": 2886,
      "eneral": 2887,
      "ĠBl": 2888,
      "late": 2889,
      "ash": 2890,
      "Ġyderligere": 2891,
      "Af": 2892,
      "ĠOn": 2893,
      "Ġkvinde": 2894,
      "Ġvoksne": 2895,
      "tione": 2896,
      "Ġgul": 2897,
      ".:": 2898,
      "Ġrigtige": 2899,
      "veje": 2900,
      "stik": 2901,
      "tager": 2902,
      "ĠomrÃ¥det": 2903,
      "ding": 2904,
      "ĠâĢĶ": 2905,
      "rene": 2906,
      "Ġskriver": 2907,
      "Ġellers": 2908,
      "Ġheller": 2909,
      "Ġ60": 2910,
      "Ġebog": 2911,
      "Ġforan": 2912,
      "lement": 2913,
      "arm": 2914,
      "Ġorganis": 2915,
      "ĠopnÃ¥": 2916,
      "ĠbevÃ¦": 2917,
      "uri": 2918,
      "ĠNej": 2919,
      "ĠVil": 2920,
      "ĠTi": 2921,
      "stet": 2922,
      "oen": 2923,
      "ĠmÃ¦rke": 2924,
      "vinder": 2925,
      "Ġ>": 2926,
      "Ġav": 2927,
      "46": 2928,
      "Ġforsk": 2929,
      "Ġprojekt": 2930,
      "Ġejer": 2931,
      "ĠSta": 2932,
      "rÃ¦k": 2933,
      "Ġsimp": 2934,
      "stan": 2935,
      "Ġbade": 2936,
      "rupper": 2937,
      "Ġsamlet": 2938,
      "Ġmedicin": 2939,
      "Ġsammenlig": 2940,
      "Ġ×": 2941,
      "scrip": 2942,
      "ĠkÃ¸ber": 2943,
      "Ġsamarbej": 2944,
      "due": 2945,
      "vivl": 2946,
      "pas": 2947,
      "bl": 2948,
      "39": 2949,
      "47": 2950,
      "Ġrelev": 2951,
      "app": 2952,
      "Ã¸rre": 2953,
      "Ġbyen": 2954,
      "ĠSÃ¸n": 2955,
      "uro": 2956,
      "Ġhvilken": 2957,
      "Ġeget": 2958,
      "Ġfrom": 2959,
      "Ġjeres": 2960,
      "Ġvirksomheden": 2961,
      "Hoteller": 2962,
      "Ġlyst": 2963,
      "ĠTak": 2964,
      "ĠKan": 2965,
      "Ġob": 2966,
      "Ġarbejdet": 2967,
      "ragende": 2968,
      "Ð¾": 2969,
      "Ġdesuden": 2970,
      "37": 2971,
      "ny": 2972,
      "Ġanaly": 2973,
      "dÃ¸rs": 2974,
      "CE": 2975,
      "Ġleder": 2976,
      "US": 2977,
      "ĠprÃ¸ve": 2978,
      "Ġegne": 2979,
      "vering": 2980,
      "mens": 2981,
      "Ġindenfor": 2982,
      "spunkt": 2983,
      "Ġtilla": 2984,
      "Ġartikel": 2985,
      "Ġmassage": 2986,
      "ĠMet": 2987,
      "dense": 2988,
      "Ġlivet": 2989,
      "ĠFri": 2990,
      "bor": 2991,
      "Ġkomment": 2992,
      "Ġsko": 2993,
      "givelse": 2994,
      "hje": 2995,
      "Ã¦vn": 2996,
      "Ġbehand": 2997,
      "ĠglÃ¦de": 2998,
      "Ġaktiviteter": 2999,
      "Ġindi": 3000,
      "ĠomrÃ¥der": 3001,
      "ĠSc": 3002,
      "Ġenten": 3003,
      "Ġdis": 3004,
      "pÃ¥": 3005,
      "Ġja": 3006,
      "Ġelekt": 3007,
      "part": 3008,
      "Sam": 3009,
      "Ġ2009": 3010,
      "ĠstÃ¦r": 3011,
      "Ġthis": 3012,
      "Ġtidspunkt": 3013,
      "ĠmÃ¥tte": 3014,
      "dust": 3015,
      "âĢĿ.": 3016,
      "Ġhurtig": 3017,
      "vist": 3018,
      "Ġpsyk": 3019,
      "Ġfundet": 3020,
      "Ġproces": 3021,
      "Ġnettet": 3022,
      "ax": 3023,
      "ah": 3024,
      "ftet": 3025,
      "peri": 3026,
      "Ġgennemsnit": 3027,
      "BO": 3028,
      "Ġvid": 3029,
      "ĠDi": 3030,
      "Ã¸ver": 3031,
      "alborg": 3032,
      "givning": 3033,
      ".-": 3034,
      "kÃ¥r": 3035,
      "IS": 3036,
      "Hvor": 3037,
      "Ġfejl": 3038,
      "aby": 3039,
      "Ġganske": 3040,
      "Ġstop": 3041,
      "ĠtÃ¸j": 3042,
      "tie": 3043,
      "tionen": 3044,
      "Ġregler": 3045,
      "Ġanbefale": 3046,
      "cis": 3047,
      "tions": 3048,
      "kkes": 3049,
      "Ġstjer": 3050,
      "vol": 3051,
      "Ġas": 3052,
      "Ðµ": 3053,
      "mentet": 3054,
      "Tak": 3055,
      "2017": 3056,
      "ick": 3057,
      "ms": 3058,
      "ĠBy": 3059,
      "ice": 3060,
      "Ġenhver": 3061,
      "inister": 3062,
      "IR": 3063,
      "Ġwas": 3064,
      "alog": 3065,
      "ĠlÃ¸n": 3066,
      "skole": 3067,
      "Ġsal": 3068,
      "pub": 3069,
      "ĠformÃ¥l": 3070,
      "indow": 3071,
      "Som": 3072,
      "stemet": 3073,
      "reen": 3074,
      "fÃ¸res": 3075,
      "ceret": 3076,
      "Ã¦lg": 3077,
      "Ġprakti": 3078,
      "Ġkonta": 3079,
      "Ġlog": 3080,
      "Price": 3081,
      "Ġsider": 3082,
      "Ġreser": 3083,
      "ors": 3084,
      "Ġalene": 3085,
      "Et": 3086,
      "Ġinklu": 3087,
      "uner": 3088,
      "ĠlÃ¥n": 3089,
      "Er": 3090,
      "getÃ¸j": 3091,
      "Ġkender": 3092,
      "Te": 3093,
      "rÃ¸rende": 3094,
      "pt": 3095,
      "kra": 3096,
      "gj": 3097,
      "ilot": 3098,
      "Ã¦ngde": 3099,
      "sÃ¦tter": 3100,
      "Ġmidt": 3101,
      "FOR": 3102,
      "atter": 3103,
      "vo": 3104,
      "ĠInn": 3105,
      "way": 3106,
      "ĠlÃ¸sning": 3107,
      "krÃ¦": 3108,
      "ish": 3109,
      "ontrol": 3110,
      "Ġsikkerhed": 3111,
      "fly": 3112,
      "ĠtilgÃ¦nge": 3113,
      "vate": 3114,
      "Ġophold": 3115,
      "kost": 3116,
      "Ġbetaling": 3117,
      "Ġdra": 3118,
      "drag": 3119,
      "varme": 3120,
      "ĠSm": 3121,
      "tighed": 3122,
      "ĠSelv": 3123,
      "strup": 3124,
      "Ġkrop": 3125,
      "\":[": 3126,
      "Ġakt": 3127,
      "ktur": 3128,
      "tegi": 3129,
      "Ġparkering": 3130,
      "ningerne": 3131,
      "Ġbestemt": 3132,
      "uel": 3133,
      "Ġforbe": 3134,
      "ĠpopulÃ¦re": 3135,
      "Ã¦ssige": 3136,
      "ouse": 3137,
      "Ġsmukke": 3138,
      "Ġforen": 3139,
      "Ġsprog": 3140,
      "ations": 3141,
      "Ġbutik": 3142,
      "ĠHu": 3143,
      "dene": 3144,
      "viser": 3145,
      "Ġfed": 3146,
      "ĠMas": 3147,
      "abili": 3148,
      "vig": 3149,
      "Ġtit": 3150,
      "=\"": 3151,
      "ĠSyd": 3152,
      "Ġvare": 3153,
      "Id": 3154,
      "komm": 3155,
      "ĠUniversi": 3156,
      "gÃ¥ende": 3157,
      "Ġfys": 3158,
      "!!": 3159,
      "Ġbetydning": 3160,
      "Ġkommet": 3161,
      "Ġligesom": 3162,
      ".)": 3163,
      "ruppen": 3164,
      "ĠidÃ©": 3165,
      "Ġnor": 3166,
      "oo": 3167,
      "rigt": 3168,
      "mus": 3169,
      "Ġkomb": 3170,
      "seret": 3171,
      "Ġvirker": 3172,
      "Ġklub": 3173,
      "Ġdo": 3174,
      "Ã¸rge": 3175,
      "Ġcomputer": 3176,
      "ĠÂ§": 3177,
      "100": 3178,
      "lÃ¸s": 3179,
      "sol": 3180,
      "bli": 3181,
      "ban": 3182,
      "gu": 3183,
      "ĠEuropa": 3184,
      "tel": 3185,
      "Ġpost": 3186,
      "The": 3187,
      "ĠforÃ¦ldre": 3188,
      "ĠvÃ¦lger": 3189,
      "Book": 3190,
      "Ġopdate": 3191,
      "Ġlade": 3192,
      "owe": 3193,
      "Ġgjorde": 3194,
      "Ġmasser": 3195,
      "Ġblom": 3196,
      "chen": 3197,
      "Ġuni": 3198,
      "Ġkolle": 3199,
      "plads": 3200,
      "Ã¸rne": 3201,
      "dy": 3202,
      "Ġprivat": 3203,
      "uderende": 3204,
      "mmelse": 3205,
      "ĠfÃ¸d": 3206,
      "ĠsÃ¦rligt": 3207,
      "dater": 3208,
      "ĠIkke": 3209,
      "ĠAir": 3210,
      "44": 3211,
      "Ġtyp": 3212,
      "amen": 3213,
      "Ġcan": 3214,
      "Ġbon": 3215,
      "Ġbenytte": 3216,
      "Ġtvivl": 3217,
      "Ġfirma": 3218,
      "ftige": 3219,
      "onen": 3220,
      "lub": 3221,
      "Ġ35": 3222,
      "Ġsort": 3223,
      "Ġ)": 3224,
      "lic": 3225,
      "65": 3226,
      "redit": 3227,
      "Ġkultur": 3228,
      "Ġens": 3229,
      "Ġslet": 3230,
      "ssione": 3231,
      "Ã¸jer": 3232,
      "varet": 3233,
      "Ġinstal": 3234,
      "ĠSide": 3235,
      "ĠVar": 3236,
      "Ġoffentlig": 3237,
      "Ġnull": 3238,
      "ĠMÃ¥": 3239,
      "Ġche": 3240,
      "Ġdisk": 3241,
      "ape": 3242,
      "70": 3243,
      "lov": 3244,
      "teriale": 3245,
      "DS": 3246,
      "Ġalligevel": 3247,
      "ION": 3248,
      "Â¬": 3249,
      "ĠCon": 3250,
      "Han": 3251,
      "svÃ¦rre": 3252,
      "ĠbesÃ¸g": 3253,
      "tre": 3254,
      "out": 3255,
      "Ġrela": 3256,
      "ĠJensen": 3257,
      "ĠbestÃ¥r": 3258,
      "ĠlÃ¦kker": 3259,
      "31": 3260,
      "Ã¥d": 3261,
      "ĠLand": 3262,
      "ĠFrederiks": 3263,
      "Ġtest": 3264,
      "ĠhÃ¸r": 3265,
      "ĠvÃ¦gt": 3266,
      "Ġoplevelse": 3267,
      "âĢĿ,": 3268,
      "Ã¦rker": 3269,
      "lack": 3270,
      "ml": 3271,
      "rÃ¥det": 3272,
      "ĠAut": 3273,
      "Ġderefter": 3274,
      "vikling": 3275,
      "UR": 3276,
      "Ġhensyn": 3277,
      "Ġsociale": 3278,
      "ĠTo": 3279,
      "Ġanven": 3280,
      "do": 3281,
      "redje": 3282,
      "Ã¸rdag": 3283,
      "Ã·": 3284,
      "Ġgruppe": 3285,
      "Ġstille": 3286,
      "ksis": 3287,
      "Ġtak": 3288,
      "Ġmoderne": 3289,
      "ultat": 3290,
      "igh": 3291,
      "UT": 3292,
      "Ġbal": 3293,
      "osp": 3294,
      "lÃ¸se": 3295,
      "').": 3296,
      "fatter": 3297,
      "Ġalvor": 3298,
      "Ġfragt": 3299,
      "Ġif": 3300,
      "Ġnaturligvis": 3301,
      "Ġopgaver": 3302,
      "Ġhandel": 3303,
      "Pe": 3304,
      "redt": 3305,
      "ĠHa": 3306,
      "ktionen": 3307,
      "Ġgene": 3308,
      "Ã¦rt": 3309,
      "Ġwh": 3310,
      "ple": 3311,
      "col": 3312,
      "ĠHÃ¸j": 3313,
      "agra": 3314,
      "omer": 3315,
      "gift": 3316,
      "Ġmillioner": 3317,
      "kkede": 3318,
      "bart": 3319,
      "32": 3320,
      "Ġseks": 3321,
      "ĠbegrÃ¦n": 3322,
      "Ġsej": 3323,
      "Ġlaver": 3324,
      "Ġsidder": 3325,
      "Dette": 3326,
      "Ġindstil": 3327,
      "vad": 3328,
      "steder": 3329,
      "ced": 3330,
      "frit": 3331,
      "ĠgrÃ¦n": 3332,
      "middel": 3333,
      "ĠhÃ¸re": 3334,
      "Ġselvom": 3335,
      "Ġredu": 3336,
      "this": 3337,
      "Ġsystem": 3338,
      "Ġopskri": 3339,
      "Ġtag": 3340,
      "ĠbrÃ¦n": 3341,
      "sket": 3342,
      "bag": 3343,
      "sminister": 3344,
      "Ġsport": 3345,
      "Ġskab": 3346,
      "ĠSort": 3347,
      "ĠBru": 3348,
      "Ġmodel": 3349,
      "34": 3350,
      "ĠsÃ¦tter": 3351,
      "bold": 3352,
      "Ġresultater": 3353,
      "ĠGu": 3354,
      "Ġtry": 3355,
      "olf": 3356,
      "Ġfinansie": 3357,
      "Ġhas": 3358,
      ".\"": 3359,
      "huset": 3360,
      "Ġbillede": 3361,
      "Ġblog": 3362,
      "Ġmedarbejdere": 3363,
      "betaling": 3364,
      "ĠDat": 3365,
      "Ġmag": 3366,
      "oth": 3367,
      "llu": 3368,
      "Ġ2008": 3369,
      "Ġslags": 3370,
      "ringe": 3371,
      "Ġhvid": 3372,
      "Ġgivet": 3373,
      ".âĢĿ": 3374,
      "Ġvise": 3375,
      "ĠskÃ¦r": 3376,
      "Ð°": 3377,
      "Ġung": 3378,
      "omen": 3379,
      "skrivelse": 3380,
      "Ġbereg": 3381,
      "Ġfremme": 3382,
      "Ġbaseret": 3383,
      "Ġamerik": 3384,
      "ls": 3385,
      "Ġfan": 3386,
      "ampe": 3387,
      "],\"": 3388,
      "ppet": 3389,
      "stauranter": 3390,
      "Ġout": 3391,
      "Ġvejen": 3392,
      "ĠpÃ¥vir": 3393,
      "Ġvol": 3394,
      "ograf": 3395,
      "Ġfarver": 3396,
      "digvis": 3397,
      "Ġryg": 3398,
      "bille": 3399,
      "oman": 3400,
      "Ġur": 3401,
      "Ġkol": 3402,
      "go": 3403,
      "sÃ¦tning": 3404,
      "Ġvideo": 3405,
      "ĠLÃ¦": 3406,
      "Ġklart": 3407,
      "Ġfunge": 3408,
      "ĠNo": 3409,
      "Ġadminist": 3410,
      "Ã¦iske": 3411,
      "ĠsÃ¦rlig": 3412,
      "value": 3413,
      "Ġopti": 3414,
      "else": 3415,
      "Ġlette": 3416,
      "Ġoffentlige": 3417,
      "Ġgav": 3418,
      "ĠmÃ¸r": 3419,
      "Ġ<": 3420,
      "Ġsundhed": 3421,
      "ĠFacebook": 3422,
      "ĠhÃ¸jere": 3423,
      "ĠVer": 3424,
      "mÃ¦rk": 3425,
      "lob": 3426,
      "Ġyour": 3427,
      "ĠkÃ¦r": 3428,
      "alitet": 3429,
      "ringen": 3430,
      "mning": 3431,
      "Ġfat": 3432,
      "ĠSan": 3433,
      "ĠSÃ¸ren": 3434,
      "Ġleje": 3435,
      "ĠOG": 3436,
      "ĠÃ¦ldre": 3437,
      "hÃ¦": 3438,
      "uelt": 3439,
      "sic": 3440,
      "site": 3441,
      "Ar": 3442,
      "Ġtredje": 3443,
      "Ġtype": 3444,
      "Ġsuc": 3445,
      "orsdag": 3446,
      "Ġnormalt": 3447,
      "fund": 3448,
      "Ġdren": 3449,
      "delen": 3450,
      "ĠÃ¦n": 3451,
      "Ġbudget": 3452,
      "komme": 3453,
      "Ġjord": 3454,
      "Ġmio": 3455,
      "ordning": 3456,
      "88": 3457,
      "ĠfÃ¸lger": 3458,
      "Ġhud": 3459,
      "Ġgammel": 3460,
      "arch": 3461,
      "ĠJes": 3462,
      "oten": 3463,
      "Ġmel": 3464,
      "skil": 3465,
      "ĠFOR": 3466,
      "Ã¦dag": 3467,
      "vision": 3468,
      "ĠGratis": 3469,
      "ĠVores": 3470,
      "Ġmode": 3471,
      "itter": 3472,
      "ĠKun": 3473,
      "ĠChristian": 3474,
      "Ġhed": 3475,
      "ĠDanske": 3476,
      "ĠdrÃ¸": 3477,
      "rÃ¦t": 3478,
      "ĠOdense": 3479,
      "sin": 3480,
      "Ġmeter": 3481,
      "eken": 3482,
      "CH": 3483,
      "ĠOK": 3484,
      "ael": 3485,
      "ĠHans": 3486,
      "strer": 3487,
      "plig": 3488,
      "Ġudgangspunkt": 3489,
      "Ġkateg": 3490,
      "ness": 3491,
      "ĠvÃ¦sent": 3492,
      "ĠAalborg": 3493,
      "ock": 3494,
      "Ġrette": 3495,
      "Ġvalgt": 3496,
      "Ġendda": 3497,
      "Ġburde": 3498,
      "genhed": 3499,
      "ium": 3500,
      "Ġaltern": 3501,
      "Ã¸s": 3502,
      "ĠFilm": 3503,
      "Ġ70": 3504,
      "ĠMad": 3505,
      "Ġgri": 3506,
      "Ġrent": 3507,
      "Ġvenner": 3508,
      "Ġkendt": 3509,
      "Ġbillige": 3510,
      "Ġarrange": 3511,
      "teg": 3512,
      "yttelse": 3513,
      "Ġbaggrund": 3514,
      "ĠÃ¥ben": 3515,
      "ssage": 3516,
      "ric": 3517,
      "Ġrabat": 3518,
      "ĠÃĨ": 3519,
      "Ġerfaring": 3520,
      "Ġfolke": 3521,
      "Ġfla": 3522,
      "rende": 3523,
      "ielle": 3524,
      "Ġsmag": 3525,
      "akken": 3526,
      "Ġafslut": 3527,
      "Ġutro": 3528,
      "ĠdÃ¸": 3529,
      "ĠRes": 3530,
      "ĠHansen": 3531,
      "fla": 3532,
      "veret": 3533,
      "ĠFind": 3534,
      "ĠprÃ¦sen": 3535,
      "Ġrum": 3536,
      "scort": 3537,
      "Ġkost": 3538,
      "Ã¸rger": 3539,
      "ĠbehÃ¸ver": 3540,
      "box": 3541,
      "Ġmy": 3542,
      "low": 3543,
      "ĠRegi": 3544,
      "ĠPh": 3545,
      "Ġdetal": 3546,
      "Ġprivate": 3547,
      "Ġaftale": 3548,
      "kerne": 3549,
      "ĠÃħr": 3550,
      "kÃ¦": 3551,
      "Ã©r": 3552,
      "DE": 3553,
      "Ġlag": 3554,
      "deles": 3555,
      "NE": 3556,
      "ĠNielsen": 3557,
      "90": 3558,
      "ontent": 3559,
      "Ġfandt": 3560,
      "pilot": 3561,
      "Ġlokal": 3562,
      "ĠÃ¦ndre": 3563,
      "Ġjule": 3564,
      "ĠJu": 3565,
      "fÃ¸lgende": 3566,
      "87": 3567,
      "Ġpres": 3568,
      "iv": 3569,
      "Ġope": 3570,
      "Ġverdens": 3571,
      "ards": 3572,
      "Al": 3573,
      "âĢĵ": 3574,
      "Ġfint": 3575,
      "ĠslÃ¥": 3576,
      "Ġwebshop": 3577,
      "ĠGud": 3578,
      "ownload": 3579,
      "Ġperiode": 3580,
      "Ġelsker": 3581,
      "taget": 3582,
      "obbelt": 3583,
      "Ġvinter": 3584,
      "splan": 3585,
      "ĠsÃ¦s": 3586,
      "Ãĥ": 3587,
      "div": 3588,
      "Ġpa": 3589,
      "sv": 3590,
      "Anmeldt": 3591,
      "Ġmail": 3592,
      "Ġka": 3593,
      "dder": 3594,
      "nive": 3595,
      "Ch": 3596,
      "ara": 3597,
      "ĠlÃ¦rer": 3598,
      "ĠÃ¦": 3599,
      "Ġfaciliteter": 3600,
      "kant": 3601,
      "Ġbred": 3602,
      "ĠtvÃ¦r": 3603,
      "name": 3604,
      "kor": 3605,
      "Komm": 3606,
      "ĠProdu": 3607,
      "ĠApp": 3608,
      "ctor": 3609,
      "Ã¸rgen": 3610,
      "amera": 3611,
      "sus": 3612,
      "ĠgrÃ¦": 3613,
      "Ġkompeten": 3614,
      "},": 3615,
      "ĠgÃ¥et": 3616,
      "ĠST": 3617,
      "Ġ45": 3618,
      "Ġtransport": 3619,
      "Ġsmer": 3620,
      "ðŁ": 3621,
      "ĠNet": 3622,
      "ood": 3623,
      "ĠBlu": 3624,
      "Ġanti": 3625,
      "stit": 3626,
      "Ġfunktion": 3627,
      "att": 3628,
      "(\"": 3629,
      "ĠReg": 3630,
      "Ġtids": 3631,
      "mester": 3632,
      "ther": 3633,
      "ĠnÃ¦rme": 3634,
      "arbejdet": 3635,
      "ĠBen": 3636,
      "Ġerhvervs": 3637,
      "ĠrÃ¸d": 3638,
      "leder": 3639,
      "85": 3640,
      "Ġdages": 3641,
      "Alle": 3642,
      "Ġregel": 3643,
      "ĠNr": 3644,
      "Ġsikrer": 3645,
      "verse": 3646,
      "ĠRas": 3647,
      "ĠPris": 3648,
      "Ġvigtigste": 3649,
      "okra": 3650,
      "Ġpakke": 3651,
      "Ġprofessione": 3652,
      "mon": 3653,
      "ĠkÃ¸rer": 3654,
      "ba": 3655,
      "omrÃ¥det": 3656,
      "Gra": 3657,
      "Ġoply": 3658,
      "Ġmangler": 3659,
      "Ġkroppen": 3660,
      "Ġfru": 3661,
      "anlÃ¦g": 3662,
      "Ġtyde": 3663,
      "Ved": 3664,
      "Ġkil": 3665,
      "Ġnot": 3666,
      "Ġtrods": 3667,
      "Ġbegynder": 3668,
      "uler": 3669,
      "Ġflytte": 3670,
      "Ġcook": 3671,
      "bi": 3672,
      "folk": 3673,
      "Ġevt": 3674,
      "mÃ¥l": 3675,
      "Ġuanset": 3676,
      "Ġdrift": 3677,
      "ĠnÃ¸dvendigt": 3678,
      "Ġindhold": 3679,
      "ologisk": 3680,
      "Ġnyde": 3681,
      "Ġsocial": 3682,
      "Ġskrevet": 3683,
      "ĠtÃ¦nke": 3684,
      "Ġregistre": 3685,
      "))": 3686,
      "Ġskade": 3687,
      "ĠEng": 3688,
      "Ġtypisk": 3689,
      "ytter": 3690,
      "klÃ¦": 3691,
      "Har": 3692,
      "Ġlide": 3693,
      "ander": 3694,
      "talien": 3695,
      "OT": 3696,
      "sing": 3697,
      "Ġul": 3698,
      "ĠanmeldelserNr": 3699,
      "Ġredi": 3700,
      "Ġim": 3701,
      "Ġklo": 3702,
      "hjÃ¦l": 3703,
      "Ġgave": 3704,
      "Ġsjov": 3705,
      "maskine": 3706,
      "Ġopgave": 3707,
      "Ġbutikker": 3708,
      "Ġsamlede": 3709,
      "stede": 3710,
      "male": 3711,
      "mperat": 3712,
      "Under": 3713,
      "ĠBag": 3714,
      "yer": 3715,
      "ragt": 3716,
      "66": 3717,
      "Ġrestaurant": 3718,
      "ikation": 3719,
      "ĠnuvÃ¦rende": 3720,
      "Ġstig": 3721,
      "ĠSund": 3722,
      "Ġperfekte": 3723,
      "ĠmÃ¸der": 3724,
      "Ġpub": 3725,
      "Ġhvem": 3726,
      "Ġfortsat": 3727,
      "eller": 3728,
      "denti": 3729,
      "Ġopfyl": 3730,
      "indows": 3731,
      "ourn": 3732,
      "Ġperfekt": 3733,
      "inter": 3734,
      "Ġbrand": 3735,
      "Ġstof": 3736,
      "ibli": 3737,
      "cess": 3738,
      "tag": 3739,
      "bÃ¦k": 3740,
      "play": 3741,
      "tigheder": 3742,
      "ĠBu": 3743,
      "Ġvedt": 3744,
      "skov": 3745,
      "Ġbus": 3746,
      "Ġsnart": 3747,
      "Ny": 3748,
      "Ġeksempelvis": 3749,
      "Ġretning": 3750,
      "Ġ80": 3751,
      "IC": 3752,
      "Ġpatienter": 3753,
      "tende": 3754,
      "aut": 3755,
      "inds": 3756,
      "ĠâĢĻ": 3757,
      "ĠTripAdvisor": 3758,
      "pon": 3759,
      "mÃ¦rke": 3760,
      "mellem": 3761,
      "ĠFÃ¸r": 3762,
      "Ġmotor": 3763,
      "api": 3764,
      "Ġlignende": 3765,
      "Ġsek": 3766,
      "Ġstri": 3767,
      "mpt": 3768,
      "Ã¥rs": 3769,
      "Ġfjern": 3770,
      "ĠbelÃ¸b": 3771,
      "Ġomfatter": 3772,
      "Ġforkla": 3773,
      "sioner": 3774,
      "condition": 3775,
      "Ġkommuner": 3776,
      "ĠWi": 3777,
      "Ġsa": 3778,
      "Ġkarakter": 3779,
      "Ġsyd": 3780,
      "handlers": 3781,
      "Ġpersonlige": 3782,
      "Ġmoms": 3783,
      "vend": 3784,
      "ower": 3785,
      "nÃ¥r": 3786,
      "PS": 3787,
      "ĠstÃ¸rrelse": 3788,
      "Ġrammer": 3789,
      "skolen": 3790,
      "LE": 3791,
      "ĠJan": 3792,
      "ĠAndre": 3793,
      "Ġ2007": 3794,
      "enest": 3795,
      "ĠÃ¦gte": 3796,
      "ĠanlÃ¦g": 3797,
      "mÃ¸": 3798,
      "gÃ¸rende": 3799,
      "Ġfine": 3800,
      "tivt": 3801,
      "ĠreprÃ¦": 3802,
      "Ġ09": 3803,
      "ĠFoto": 3804,
      "Ph": 3805,
      "Ġkommende": 3806,
      "Ġkende": 3807,
      "unkter": 3808,
      "RA": 3809,
      "Ġjul": 3810,
      "Ġsove": 3811,
      "ĠbÃ¸rnene": 3812,
      "kÃ¸": 3813,
      "rowser": 3814,
      "77": 3815,
      "ĠplanlÃ¦gger": 3816,
      "ĠMich": 3817,
      "ĠKn": 3818,
      "ĠThom": 3819,
      "uden": 3820,
      "ĠsjÃ¦l": 3821,
      "agn": 3822,
      "hÃ¸j": 3823,
      "Ġdef": 3824,
      "Ġsidst": 3825,
      "bare": 3826,
      "komst": 3827,
      "aden": 3828,
      "rson": 3829,
      "Ġkop": 3830,
      "43": 3831,
      "ighed": 3832,
      "ĠBet": 3833,
      "Ġvan": 3834,
      "forsam": 3835,
      "Ġtilfreds": 3836,
      "lasses": 3837,
      "Ġrigtigt": 3838,
      "tets": 3839,
      "Ġpart": 3840,
      "cking": 3841,
      "beret": 3842,
      "Ġfungerer": 3843,
      "ĠArbej": 3844,
      "ĠVen": 3845,
      "ey": 3846,
      "OS": 3847,
      "inden": 3848,
      "Efter": 3849,
      "jekt": 3850,
      "ĠAndersen": 3851,
      "lip": 3852,
      "Ã¦ssigt": 3853,
      "ĠâĢ¢": 3854,
      "ĠvÃ¦g": 3855,
      "Ġkorre": 3856,
      "Ġeffekt": 3857,
      "Ġopr": 3858,
      "kr": 3859,
      "hel": 3860,
      "ĠTIL": 3861,
      "ĠCan": 3862,
      "Ġomkost": 3863,
      "To": 3864,
      "Ġstarter": 3865,
      "oliger": 3866,
      "Ġkaffe": 3867,
      "ĠStor": 3868,
      "skÃ¦r": 3869,
      "ĠDerudover": 3870,
      "iration": 3871,
      "vere": 3872,
      "Ġmind": 3873,
      "ĠDel": 3874,
      "ĠBog": 3875,
      "terede": 3876,
      "sendte": 3877,
      "Man": 3878,
      "nr": 3879,
      "Ġinstru": 3880,
      "kar": 3881,
      "Ġbonus": 3882,
      "Met": 3883,
      "lar": 3884,
      "ĠDisse": 3885,
      "Ġpartner": 3886,
      "Ġglad": 3887,
      "ĠgennemgÃ¥r": 3888,
      "kens": 3889,
      "bÃ¸ger": 3890,
      "Ġbef": 3891,
      "firma": 3892,
      "Ġlange": 3893,
      "Ġklasse": 3894,
      "Ġmodtager": 3895,
      "ksi": 3896,
      "tikler": 3897,
      "Ġpraksis": 3898,
      "Ã¶r": 3899,
      "skland": 3900,
      "Ġklima": 3901,
      "sÃ¦ttelser": 3902,
      "ĠKort": 3903,
      "Ġbidra": 3904,
      "aci": 3905,
      "ktÃ¸j": 3906,
      "Ġmarkeds": 3907,
      "ĠDag": 3908,
      "vÃ¦rks": 3909,
      "ream": 3910,
      "Ġmodtage": 3911,
      "ĠJÃ¸rgen": 3912,
      "ype": 3913,
      "Ġindivi": 3914,
      "tegne": 3915,
      "AB": 3916,
      "ologiske": 3917,
      "ĠVÃ¦r": 3918,
      "Ġkre": 3919,
      "Ġoversat": 3920,
      "yttet": 3921,
      "ura": 3922,
      "ĠKÃ¸": 3923,
      "AND": 3924,
      "Ġbestemme": 3925,
      "Ġbarnet": 3926,
      "Ġkonst": 3927,
      "omrÃ¥de": 3928,
      "Ġaller": 3929,
      "Ġkontrol": 3930,
      "ĠRasmus": 3931,
      "ĠgÃ¦ldende": 3932,
      "oliti": 3933,
      "mor": 3934,
      "56": 3935,
      "Ġgeneral": 3936,
      "ĠsÃ¦rlige": 3937,
      "urg": 3938,
      "Ġ90": 3939,
      "asino": 3940,
      "forening": 3941,
      "alk": 3942,
      "ibliote": 3943,
      "Ġskatte": 3944,
      "fuld": 3945,
      "Ġansatte": 3946,
      "ĠKom": 3947,
      "Ġneg": 3948,
      "fel": 3949,
      "bil": 3950,
      "Ġstandard": 3951,
      "Ġdyb": 3952,
      "Ġligeledes": 3953,
      "Ġudvikle": 3954,
      "Ġstyrke": 3955,
      "ĠService": 3956,
      "ĠbÃ¦re": 3957,
      "teres": 3958,
      "ĠInter": 3959,
      "uen": 3960,
      "Ã¦st": 3961,
      "Ġcir": 3962,
      "stensen": 3963,
      "Ġeurop": 3964,
      "Ġstuderende": 3965,
      "ĠBÃ¸rn": 3966,
      "mann": 3967,
      "Ġbro": 3968,
      "ĠifÃ¸lge": 3969,
      "Ġweeken": 3970,
      "ĠEller": 3971,
      "Ð¸": 3972,
      "Ġdens": 3973,
      "ĠGrÃ¸n": 3974,
      "86": 3975,
      "Ġkg": 3976,
      "apir": 3977,
      "Om": 3978,
      "rere": 3979,
      "Ġpengene": 3980,
      "Ġhuset": 3981,
      "Ġspi": 3982,
      "Ġlejlighed": 3983,
      "data": 3984,
      "ĠSol": 3985,
      "Po": 3986,
      "Ġfjerne": 3987,
      "Ġstod": 3988,
      "Ġhttp": 3989,
      "ĠkÃ¦mpe": 3990,
      "Ġjf": 3991,
      "89": 3992,
      "Ġmyn": 3993,
      "Ġblod": 3994,
      "ines": 3995,
      "ĠundgÃ¥": 3996,
      "ammer": 3997,
      "Ã¸st": 3998,
      "sendt": 3999,
      "ana": 4000,
      "Ġvelkommen": 4001,
      "Ġeng": 4002,
      "ĠKontakt": 4003,
      "teria": 4004,
      "sd": 4005,
      "fl": 4006,
      "Ġlyder": 4007,
      "Ġresten": 4008,
      "ĠFar": 4009,
      "ĠÃ¦r": 4010,
      "slin": 4011,
      "issionen": 4012,
      "vok": 4013,
      "ÑĤ": 4014,
      "lex": 4015,
      "Ġstjerner": 4016,
      "Ġledelse": 4017,
      "vÃ¦rdigheder": 4018,
      "Ġlav": 4019,
      "Ġborger": 4020,
      "gram": 4021,
      "Ġba": 4022,
      "Ã¦v": 4023,
      "ĠSko": 4024,
      "79": 4025,
      "unge": 4026,
      "log": 4027,
      "leg": 4028,
      "byr": 4029,
      "Ġfot": 4030,
      "Ġnemme": 4031,
      "Ġtaler": 4032,
      "ĠnÃ¦rmere": 4033,
      "ĠMange": 4034,
      "ĠDesuden": 4035,
      "deret": 4036,
      "Ġneden": 4037,
      "76": 4038,
      "ose": 4039,
      "hÃ¥n": 4040,
      "Ġ00": 4041,
      "udvalget": 4042,
      "gjort": 4043,
      "Ġskyldes": 4044,
      "Ġube": 4045,
      "virksom": 4046,
      "ĠSuper": 4047,
      "Ã¦dagog": 4048,
      "ĠvedrÃ¸rende": 4049,
      "BOOK": 4050,
      "dien": 4051,
      "Ġdigit": 4052,
      "Ġforbru": 4053,
      "IM": 4054,
      "ĠdesvÃ¦rre": 4055,
      "fag": 4056,
      "Ġgenerelt": 4057,
      "Ġsucces": 4058,
      "Ġufor": 4059,
      "Ġhum": 4060,
      "Ġinvester": 4061,
      "ffer": 4062,
      "ĠHove": 4063,
      "ae": 4064,
      "Ġintet": 4065,
      "agne": 4066,
      "Ġfy": 4067,
      "RU": 4068,
      "Ġark": 4069,
      "ĠtrÃ¦ning": 4070,
      "stemer": 4071,
      "udse": 4072,
      "ĠÃ¦ndringer": 4073,
      "fli": 4074,
      "ingelser": 4075,
      "Ġyn": 4076,
      "Ġtilbyde": 4077,
      "ned": 4078,
      "sst": 4079,
      "Ġoplever": 4080,
      "Su": 4081,
      "ĠnÃ¦vn": 4082,
      "ĠVurder": 4083,
      "car": 4084,
      "Ġglas": 4085,
      "Ġpatient": 4086,
      "AD": 4087,
      "ĠlÃ¸bende": 4088,
      "klar": 4089,
      "Ġ36": 4090,
      "ineret": 4091,
      "Ġsamfun": 4092,
      "Ġresultat": 4093,
      "Ġegentlig": 4094,
      "Ġformand": 4095,
      "ĠindgÃ¥": 4096,
      "42": 4097,
      "jul": 4098,
      "Ġvurde": 4099,
      "risk": 4100,
      "Ġcookies": 4101,
      "Ġpersonale": 4102,
      "ĠByg": 4103,
      "ĠAp": 4104,
      "ĠJohn": 4105,
      "ĠblÃ¥": 4106,
      "Ġproduktion": 4107,
      "ĠsÃ¥som": 4108,
      "sul": 4109,
      "2016": 4110,
      "ĠfÃ¸ler": 4111,
      "ĠSpe": 4112,
      "sikker": 4113,
      "enh": 4114,
      "raf": 4115,
      "fremt": 4116,
      "Ã¸v": 4117,
      "ĠMon": 4118,
      "Ġpiger": 4119,
      "ĠÃ¸vrige": 4120,
      "ĠÃ¥bne": 4121,
      "Ġklass": 4122,
      "OP": 4123,
      "cere": 4124,
      "ĠbeskÃ¦": 4125,
      "Ġolie": 4126,
      "Ġalmindelige": 4127,
      "Ġudb": 4128,
      "niveau": 4129,
      "Ġled": 4130,
      "Ġmidler": 4131,
      "Ġanvendelse": 4132,
      "Ġradi": 4133,
      "sour": 4134,
      "orter": 4135,
      "Ġalder": 4136,
      "Ġup": 4137,
      "ĠhÃ¸rer": 4138,
      "59": 4139,
      "Ġklas": 4140,
      "Ġledige": 4141,
      "Or": 4142,
      "ĠJac": 4143,
      "brud": 4144,
      "icro": 4145,
      "ras": 4146,
      "ĠforsÃ¸g": 4147,
      "Ġsupp": 4148,
      "Ġnavne": 4149,
      "Ġidet": 4150,
      "Ġskaber": 4151,
      "FT": 4152,
      "Ġtom": 4153,
      "Ġprogram": 4154,
      "ĠSK": 4155,
      "Ã¦ldende": 4156,
      "KÃ¸b": 4157,
      "ĠLy": 4158,
      "orier": 4159,
      "ĠTran": 4160,
      "lÃ¸bet": 4161,
      "Da": 4162,
      "vÃ¥": 4163,
      "stol": 4164,
      "ĠVest": 4165,
      "grÃ¦n": 4166,
      "Ġpct": 4167,
      "ination": 4168,
      "holdelse": 4169,
      "At": 4170,
      "EST": 4171,
      "Ġkontra": 4172,
      "huse": 4173,
      "onne": 4174,
      "Ġengang": 4175,
      "match": 4176,
      "Ġkontakte": 4177,
      "ĠansÃ¸g": 4178,
      "skilde": 4179,
      "Ġtjene": 4180,
      "Ġosv": 4181,
      "hove": 4182,
      "ĠÃ¸vrigt": 4183,
      "amilie": 4184,
      "ala": 4185,
      "NING": 4186,
      "Ġudtryk": 4187,
      "za": 4188,
      "Ġindsats": 4189,
      "ĠKvinder": 4190,
      "jerne": 4191,
      "Ġlagt": 4192,
      "kendelse": 4193,
      "Ġ{\"": 4194,
      "Ġredigering": 4195,
      "Ġlykke": 4196,
      "ĠCol": 4197,
      "bjerg": 4198,
      "ĠBa": 4199,
      "OW": 4200,
      "Ã¦gt": 4201,
      "ng": 4202,
      "Ġair": 4203,
      "MS": 4204,
      "tainer": 4205,
      "bane": 4206,
      "Ġinstitu": 4207,
      "Ġtradi": 4208,
      "ĠÃ¸jebli": 4209,
      "ĠTa": 4210,
      "ĠFrank": 4211,
      "ike": 4212,
      "Ġstol": 4213,
      "Ġ300": 4214,
      "Dan": 4215,
      "Ġfest": 4216,
      "Ġsmart": 4217,
      "Ġblo": 4218,
      "Hotels": 4219,
      "Ġforl": 4220,
      "skabe": 4221,
      "ass": 4222,
      "ĠAc": 4223,
      "Ġbeliggenhed": 4224,
      "41": 4225,
      "ola": 4226,
      "Ġmedier": 4227,
      "ĠsÃ¦t": 4228,
      "Ġoch": 4229,
      "sla": 4230,
      "Ġlyd": 4231,
      "ĠvÃ¦kst": 4232,
      "styret": 4233,
      "hs": 4234,
      "Ġsna": 4235,
      "Ġcentrum": 4236,
      "skabs": 4237,
      "Ġbyens": 4238,
      "Ġ75": 4239,
      "Ġ//": 4240,
      "Ġtekst": 4241,
      "pris": 4242,
      "ĠNogle": 4243,
      "Ġpor": 4244,
      "Kon": 4245,
      "ĠunderstÃ¸": 4246,
      "cher": 4247,
      "Ġprojektet": 4248,
      "ĠbesÃ¸": 4249,
      "ĠtrÃ¥d": 4250,
      "mÃ¥": 4251,
      "EG": 4252,
      "ĠfÃ¸de": 4253,
      "Ġordre": 4254,
      "Sel": 4255,
      "Ġadresse": 4256,
      "ĠVÃ¦lg": 4257,
      "Ġhelst": 4258,
      "Ġtyper": 4259,
      "Ġfedt": 4260,
      "ktivt": 4261,
      "assen": 4262,
      "VÃ¦re": 4263,
      "aster": 4264,
      "ĠfÃ¦rdig": 4265,
      "ĠlÃ¸be": 4266,
      "Ġfran": 4267,
      "ĠIngen": 4268,
      "ĠdÃ¥r": 4269,
      "styrelse": 4270,
      "Fi": 4271,
      "lim": 4272,
      "nd": 4273,
      "jp": 4274,
      "fulde": 4275,
      "siv": 4276,
      "lis": 4277,
      "Ġgengivelse": 4278,
      "ĠLar": 4279,
      "Ġ;": 4280,
      "Ġindsam": 4281,
      "fu": 4282,
      "itte": 4283,
      "vise": 4284,
      "verige": 4285,
      "Ġqu": 4286,
      "ssy": 4287,
      "ĠDÃ¥rlig": 4288,
      "ĠLars": 4289,
      "ĠBedste": 4290,
      "Ġhuske": 4291,
      "sign": 4292,
      "Ġmodtaget": 4293,
      "Ġoriginalen": 4294,
      "ĠSÃ¸nder": 4295,
      "ause": 4296,
      "Ġflotte": 4297,
      "ĠMart": 4298,
      "ĠAb": 4299,
      "ĠsÃ¸ndag": 4300,
      "ĠForbed": 4301,
      "vit": 4302,
      "olid": 4303,
      "Ġimellem": 4304,
      "prÃ¸": 4305,
      "Ġrespe": 4306,
      "mper": 4307,
      "Ġbeske": 4308,
      "iz": 4309,
      "Ġfro": 4310,
      "Ġkonsek": 4311,
      "Ġdobbelt": 4312,
      "ox": 4313,
      "ĠfortÃ¦lle": 4314,
      "ĠkÃ¦re": 4315,
      "Par": 4316,
      "Ġam": 4317,
      "Ġindsendte": 4318,
      "Ġsundheds": 4319,
      "Ġcykel": 4320,
      "rolle": 4321,
      "Ġstru": 4322,
      "anne": 4323,
      "Ġprisen": 4324,
      "last": 4325,
      "delser": 4326,
      "orten": 4327,
      "Ġforretnings": 4328,
      "PR": 4329,
      "ĠMÃ¸": 4330,
      "Ġsimpelt": 4331,
      "Ġbetal": 4332,
      "Ġmening": 4333,
      "Ġreturret": 4334,
      "dr": 4335,
      "ĠhÃ¸jde": 4336,
      "Th": 4337,
      "ĠefterfÃ¸lgende": 4338,
      "Ġtje": 4339,
      "spar": 4340,
      "ĠGar": 4341,
      "ping": 4342,
      "ĠWindows": 4343,
      "Si": 4344,
      "Ġoverveje": 4345,
      "Class": 4346,
      "okken": 4347,
      "spille": 4348,
      "ĠHotels": 4349,
      "organ": 4350,
      "Ġudn": 4351,
      "synet": 4352,
      "Ġfiske": 4353,
      "Ġpoten": 4354,
      "Ġsender": 4355,
      "oplysninger": 4356,
      "drede": 4357,
      "Ġhotellet": 4358,
      "ĠUdtjekning": 4359,
      "Ġrolle": 4360,
      "ree": 4361,
      "lick": 4362,
      "unds": 4363,
      "inget": 4364,
      "ĠvÃ¥": 4365,
      "ttet": 4366,
      "ĠTor": 4367,
      "stÃ¦ndig": 4368,
      "ĠÃ¸konomiske": 4369,
      "loven": 4370,
      "PO": 4371,
      "ĠRet": 4372,
      "reat": 4373,
      "Ġbyder": 4374,
      "Ġten": 4375,
      "Ġaccep": 4376,
      "ĠRing": 4377,
      "butik": 4378,
      "gruppe": 4379,
      "Ð½": 4380,
      "ĠCent": 4381,
      "Ġoverra": 4382,
      "Ġtru": 4383,
      "hal": 4384,
      "Gratis": 4385,
      "smu": 4386,
      "Ġbetyde": 4387,
      "Ã¥rige": 4388,
      "Ġidenti": 4389,
      "ĠVal": 4390,
      "holdes": 4391,
      "ĠBir": 4392,
      "https": 4393,
      "dal": 4394,
      "vejen": 4395,
      "ĠIT": 4396,
      "Ġall": 4397,
      "Ġmat": 4398,
      "text": 4399,
      "ĠVel": 4400,
      "Ġ32": 4401,
      "Ġprote": 4402,
      "sede": 4403,
      "Ġ08": 4404,
      "----": 4405,
      "Ġinkl": 4406,
      "videre": 4407,
      "ĠCenter": 4408,
      "Hvad": 4409,
      "Ġmaskinoversat": 4410,
      "Ġsenest": 4411,
      "temp": 4412,
      "mismatch": 4413,
      "Sc": 4414,
      "ĠmaskinoversÃ¦ttelser": 4415,
      "avne": 4416,
      "Ġuds": 4417,
      "ĠsÃ¦d": 4418,
      "ĠPa": 4419,
      "terialer": 4420,
      "ĠBor": 4421,
      "tation": 4422,
      "Ġbri": 4423,
      "ĠnÃ¸dt": 4424,
      "Ġstemme": 4425,
      "ĠSÃ¥dan": 4426,
      "ama": 4427,
      "riet": 4428,
      "Mo": 4429,
      "ĠfÃ¸dsel": 4430,
      "ĠSex": 4431,
      "ĠBra": 4432,
      "Ġdrikke": 4433,
      "if": 4434,
      "kommende": 4435,
      "×Ļ": 4436,
      "Ġsandsyn": 4437,
      "Ġaner": 4438,
      "pleje": 4439,
      "teten": 4440,
      "Ġpol": 4441,
      "itz": 4442,
      "ĠafgÃ¸rende": 4443,
      "Ġsagen": 4444,
      "Ġmak": 4445,
      "Ã¸jet": 4446,
      "Ġhedder": 4447,
      "Ġfredag": 4448,
      "cip": 4449,
      "Ġneds": 4450,
      "abler": 4451,
      "sub": 4452,
      "klub": 4453,
      "ĠHenrik": 4454,
      "hotel": 4455,
      "**": 4456,
      "god": 4457,
      "ads": 4458,
      "ano": 4459,
      "Ġok": 4460,
      "Ġbegyndte": 4461,
      "ilet": 4462,
      "Classes": 4463,
      "Fra": 4464,
      "ĠmÃ¥der": 4465,
      "Mar": 4466,
      "funktion": 4467,
      "57": 4468,
      "003": 4469,
      "Ġprojekter": 4470,
      "Ġudfordringer": 4471,
      "ĠÎ": 4472,
      "has": 4473,
      "Ġkoster": 4474,
      "Ġbest": 4475,
      "Ġsla": 4476,
      "divClasses": 4477,
      "ude": 4478,
      "sken": 4479,
      "ĠlÃ¸sninger": 4480,
      "On": 4481,
      "rÃ¦kker": 4482,
      "ona": 4483,
      "certi": 4484,
      "Ġhente": 4485,
      "Ġ39": 4486,
      "ĠEner": 4487,
      "lemmer": 4488,
      "2019": 4489,
      "ĠðŁ": 4490,
      "ĠRan": 4491,
      "Ġholdt": 4492,
      "Ġfej": 4493,
      "fÃ¦l": 4494,
      "Ġfremragende": 4495,
      "Ġfav": 4496,
      "orld": 4497,
      "ftware": 4498,
      "nis": 4499,
      "Ġgaranti": 4500,
      "Â°": 4501,
      "Ve": 4502,
      "Ġ500": 4503,
      "Ġsympt": 4504,
      "Ġhjerte": 4505,
      "stedet": 4506,
      "Ġtages": 4507,
      "Ġstykke": 4508,
      "cia": 4509,
      "lÃ¦gge": 4510,
      "Ġkendte": 4511,
      "ĠII": 4512,
      "sed": 4513,
      "ĠForbedr": 4514,
      "Ġï¿½": 4515,
      "isterende": 4516,
      "rets": 4517,
      "ual": 4518,
      "TripAdvisor": 4519,
      ",âĢĿ": 4520,
      "Ġforbi": 4521,
      "ped": 4522,
      "Ġforn": 4523,
      "lus": 4524,
      "otal": 4525,
      "IK": 4526,
      "iness": 4527,
      "Ġblomster": 4528,
      "Ġforskning": 4529,
      "ĠAF": 4530,
      "Ġstemmer": 4531,
      "riske": 4532,
      "Ġkraft": 4533,
      "ĠbÃ¸ger": 4534,
      "ĠPark": 4535,
      "dyg": 4536,
      "Ġfamilien": 4537,
      "jo": 4538,
      "Ġbas": 4539,
      "umb": 4540,
      "ĠprÃ¦cis": 4541,
      "ĠChar": 4542,
      "landet": 4543,
      "Ġkat": 4544,
      "lowe": 4545,
      "lands": 4546,
      "Ġvenlig": 4547,
      "spiller": 4548,
      "delinger": 4549,
      "ĠDavid": 4550,
      "Top": 4551,
      "Ġmateriale": 4552,
      "ugle": 4553,
      "Ġknap": 4554,
      "ĠtÃ¦nker": 4555,
      "Ñģ": 4556,
      "Ġkonto": 4557,
      "Ġsituation": 4558,
      "amin": 4559,
      "Ex": 4560,
      "nummer": 4561,
      "ĠsevÃ¦rdigheder": 4562,
      "Ġgro": 4563,
      "ancer": 4564,
      "Ġlege": 4565,
      "behandling": 4566,
      "ĠCity": 4567,
      "Ġpleje": 4568,
      "Ġdoku": 4569,
      "Ġkirke": 4570,
      "amme": 4571,
      "ĠNyborg": 4572,
      "ĠSport": 4573,
      "Ġvedlige": 4574,
      "ĠvÃ¦rd": 4575,
      "58": 4576,
      "unktet": 4577,
      "Ġfuldt": 4578,
      "ĠDis": 4579,
      "midlertid": 4580,
      "Ġudstyr": 4581,
      "ĠstÃ¦rke": 4582,
      "agere": 4583,
      "Ġkommunen": 4584,
      "Ġrisiko": 4585,
      "Ġinternationale": 4586,
      "cts": 4587,
      "ĠMidt": 4588,
      "Ġ33": 4589,
      "skra": 4590,
      "enes": 4591,
      "riv": 4592,
      "Ġformer": 4593,
      "bry": 4594,
      "Ġbrugere": 4595,
      "ĠBrug": 4596,
      "sÃ¦ttes": 4597,
      "els": 4598,
      "ĠTyskland": 4599,
      "mes": 4600,
      "ĠdÃ¸d": 4601,
      "ere": 4602,
      "mager": 4603,
      "rings": 4604,
      "iss": 4605,
      "Ġbran": 4606,
      "ĠNatur": 4607,
      "ENT": 4608,
      "valt": 4609,
      "ĠAnne": 4610,
      "Sh": 4611,
      "ĠBro": 4612,
      "ĠJens": 4613,
      "Ġpige": 4614,
      "ĠIndtjekning": 4615,
      "Ġtilst": 4616,
      "Ġsendt": 4617,
      "back": 4618,
      "Ġendelig": 4619,
      "ical": 4620,
      "ĠUniversitet": 4621,
      "ĠSa": 4622,
      "Ġklare": 4623,
      "ary": 4624,
      "Ġoverfor": 4625,
      "delingen": 4626,
      "bolig": 4627,
      "landt": 4628,
      "Ġspecielt": 4629,
      "69": 4630,
      "Ġmods": 4631,
      "ĠâĢĺ": 4632,
      "top": 4633,
      "pres": 4634,
      "anden": 4635,
      "Ġundervisning": 4636,
      "ĠDin": 4637,
      "Ġhenhold": 4638,
      "Ġstarte": 4639,
      "Nu": 4640,
      "illa": 4641,
      "varede": 4642,
      "solut": 4643,
      "ĠâĢ¦": 4644,
      "ĠfÃ¸rer": 4645,
      "Ġfrivil": 4646,
      "bord": 4647,
      "kendte": 4648,
      "velse": 4649,
      "ney": 4650,
      "skerne": 4651,
      "ĠEk": 4652,
      "):": 4653,
      "ĠMid": 4654,
      "AV": 4655,
      "Fa": 4656,
      "LIN": 4657,
      "Ġglob": 4658,
      "KT": 4659,
      "ĠEle": 4660,
      "mal": 4661,
      "MET": 4662,
      "kont": 4663,
      "Ġvenstre": 4664,
      "2018": 4665,
      "tit": 4666,
      "Ġkvali": 4667,
      "ĠsÃ¦lger": 4668,
      "pa": 4669,
      "ĠTru": 4670,
      "Ġkul": 4671,
      "scription": 4672,
      "vest": 4673,
      "Ġsor": 4674,
      "Ġspeciali": 4675,
      "Ġanbefaler": 4676,
      "Ġvest": 4677,
      "Ġoprinde": 4678,
      "Ġrekla": 4679,
      "ĠhÃ¸jre": 4680,
      "udvikling": 4681,
      "Ġdejlig": 4682,
      "sider": 4683,
      "Ġselve": 4684,
      "Ġversion": 4685,
      "IV": 4686,
      "Ġinspiration": 4687,
      "Ġvente": 4688,
      "ĠDK": 4689,
      "ikro": 4690,
      "Ġbebo": 4691,
      "ked": 4692,
      "lÃ¸sning": 4693,
      "Ġkoncer": 4694,
      "ference": 4695,
      "Ġhvide": 4696,
      "oko": 4697,
      "gÃ¥rd": 4698,
      "ĠKl": 4699,
      "Ġtrafik": 4700,
      "Ġpolitiske": 4701,
      "Ã¥b": 4702,
      "miljÃ¸": 4703,
      "ous": 4704,
      "bert": 4705,
      "stisk": 4706,
      "Ġvisse": 4707,
      "ĠMob": 4708,
      "liggende": 4709,
      "Ġviste": 4710,
      "ĠMichael": 4711,
      "istorien": 4712,
      "Ġomf": 4713,
      "Ġtryk": 4714,
      "rapport": 4715,
      "LÃ¦s": 4716,
      "ĠFrem": 4717,
      "Ġafsnit": 4718,
      "reb": 4719,
      "ĠGoogle": 4720,
      "ĠlÃ¸rdag": 4721,
      "fin": 4722,
      "alis": 4723,
      "SP": 4724,
      "Ġoplevelser": 4725,
      "stitut": 4726,
      "Ġborgere": 4727,
      "ĠPen": 4728,
      "Ġce": 4729,
      "check": 4730,
      "Ġudsigt": 4731,
      "Ã¸lv": 4732,
      "Ġpaa": 4733,
      "rale": 4734,
      "Ġgeneralforsam": 4735,
      "Ġringe": 4736,
      "ĠJohan": 4737,
      "ĠRegion": 4738,
      "Ġeksper": 4739,
      "jle": 4740,
      "Ġfremstil": 4741,
      "Ġinvi": 4742,
      "Ġinteress": 4743,
      "container": 4744,
      "kast": 4745,
      "ÑĢ": 4746,
      "sterne": 4747,
      "CT": 4748,
      "ĠlÃ¦kre": 4749,
      "udt": 4750,
      "ĠRed": 4751,
      "Ġamerikanske": 4752,
      "ĠstrÃ¸m": 4753,
      "ony": 4754,
      "Ġvidt": 4755,
      "ĠMal": 4756,
      "ĠsÃ¦son": 4757,
      "ĠÃĺst": 4758,
      "Ġkommentarer": 4759,
      "Ġdebat": 4760,
      "olie": 4761,
      "ĠEm": 4762,
      "tracking": 4763,
      "ĠSid": 4764,
      "Ġformid": 4765,
      "ĠundersÃ¸gelse": 4766,
      "Ġspillet": 4767,
      "Ġdokument": 4768,
      "Ġamb": 4769,
      "img": 4770,
      "ĠComp": 4771,
      "Ġ$*": 4772,
      "Ġang": 4773,
      "hl": 4774,
      "ĠRÃ¥": 4775,
      "ĠAnd": 4776,
      "Ġerhverv": 4777,
      "Ġ2006": 4778,
      "stemmelse": 4779,
      "ĠdÃ¸de": 4780,
      "gÃ¸ring": 4781,
      "jpg": 4782,
      "Ġrecept": 4783,
      "Ġlive": 4784,
      "Ġopslag": 4785,
      "Ġander": 4786,
      "Ġfu": 4787,
      "Ġnummer": 4788,
      "Ġhunde": 4789,
      "asser": 4790,
      "Ġpunkt": 4791,
      "hÃ¥nden": 4792,
      "Ġtand": 4793,
      "price": 4794,
      "Ġcom": 4795,
      "trodu": 4796,
      "ĠSand": 4797,
      "Ġport": 4798,
      "giv": 4799,
      "ĠsÃ¥vel": 4800,
      "ĠEd": 4801,
      "ĠLad": 4802,
      "ĠSal": 4803,
      "Ġbekym": 4804,
      "64": 4805,
      "Ã¸se": 4806,
      "dyr": 4807,
      "Ġressour": 4808,
      "somt": 4809,
      "ĠCop": 4810,
      "Ġtraditione": 4811,
      "ĠHvid": 4812,
      "mg": 4813,
      "pers": 4814,
      "ĠPerson": 4815,
      "sions": 4816,
      "Ġxxxx": 4817,
      "Ġsven": 4818,
      "Ġliste": 4819,
      "itel": 4820,
      "Ġenheder": 4821,
      "tigere": 4822,
      "Ã¦gter": 4823,
      "Ġskrev": 4824,
      "foreningen": 4825,
      "Ġfunktioner": 4826,
      "ĠThomas": 4827,
      "Ġudel": 4828,
      "ĠhvornÃ¥r": 4829,
      "greb": 4830,
      "Ġuaf": 4831,
      "ĠKÃ¸benhavns": 4832,
      "ĠstÃ¦rkt": 4833,
      "ĠgennemfÃ¸re": 4834,
      "Ġtegn": 4835,
      "Ġindust": 4836,
      "kommer": 4837,
      "mte": 4838,
      "stival": 4839,
      "ĠFjern": 4840,
      "54": 4841,
      "Ġke": 4842,
      "Ġopbe": 4843,
      "Ġforretning": 4844,
      "Ġgenop": 4845,
      "lima": 4846,
      "51": 4847,
      "Ġlove": 4848,
      "ĠkÃ¦rlighed": 4849,
      "Ġforhand": 4850,
      "Ġudviklet": 4851,
      "ĠvilkÃ¥r": 4852,
      "kninger": 4853,
      "right": 4854,
      "EX": 4855,
      "Ġfrisk": 4856,
      "VD": 4857,
      "Ġut": 4858,
      "Partner": 4859,
      "Ġ2000": 4860,
      "ficeret": 4861,
      "faciliteter": 4862,
      "andid": 4863,
      "Ġwebsite": 4864,
      "ĠfÃ¸dt": 4865,
      "forb": 4866,
      "ĠDR": 4867,
      "ĠKirke": 4868,
      "Ġdre": 4869,
      "uddannelse": 4870,
      "igur": 4871,
      "vail": 4872,
      "Ġfakt": 4873,
      "ott": 4874,
      "ĠprimÃ¦r": 4875,
      "Ġmulige": 4876,
      "Ġvaske": 4877,
      "Ġeksisterende": 4878,
      "Ġbort": 4879,
      "Ġmiddel": 4880,
      "Ġtemperat": 4881,
      "ĠlÃ¦gger": 4882,
      "fen": 4883,
      "Ġ38": 4884,
      "Ġhttps": 4885,
      "Ġanderledes": 4886,
      "Ġlisten": 4887,
      "ĠMor": 4888,
      "Ġbekendt": 4889,
      "Ġph": 4890,
      "oom": 4891,
      "ĠnetvÃ¦rk": 4892,
      "pladsen": 4893,
      "aren": 4894,
      "yst": 4895,
      "dis": 4896,
      "widgets": 4897,
      "Ġfremtiden": 4898,
      "Ġmarkedet": 4899,
      "Ġbeslutning": 4900,
      "Ġkommune": 4901,
      "ries": 4902,
      "Ġramme": 4903,
      "system": 4904,
      "ĠSkole": 4905,
      "Ġskolen": 4906,
      "ham": 4907,
      "Meta": 4908,
      "CC": 4909,
      "List": 4910,
      "Ġprofil": 4911,
      "Tra": 4912,
      "Ġabsolut": 4913,
      ",'": 4914,
      "Ġskrift": 4915,
      "ĠTag": 4916,
      "Ġfr": 4917,
      "ĠdÃ¸g": 4918,
      "sene": 4919,
      "ĠforegÃ¥r": 4920,
      "ign": 4921,
      "67": 4922,
      "gÃ¦ld": 4923,
      "ĠdÃ©": 4924,
      "Ġpara": 4925,
      "ĠnÃ¸g": 4926,
      "Ġhandle": 4927,
      "Ġerstat": 4928,
      "ĠQu": 4929,
      "Ġafdeling": 4930,
      "rib": 4931,
      "ek": 4932,
      "skrift": 4933,
      "person": 4934,
      "Ġretter": 4935,
      "68": 4936,
      ".(": 4937,
      "Ġvalgte": 4938,
      "ĠHos": 4939,
      "Ġpludse": 4940,
      "delig": 4941,
      "ondon": 4942,
      "Ġopret": 4943,
      "mmel": 4944,
      "stjer": 4945,
      "Ġbord": 4946,
      "dÃ¦": 4947,
      "olding": 4948,
      "ĠpÃ¥g": 4949,
      "Tilbud": 4950,
      "ĠtilfÃ¸je": 4951,
      "ĠRa": 4952,
      "Ġstudie": 4953,
      "ĠHor": 4954,
      "ĠFin": 4955,
      "rn": 4956,
      "ĠsÃ¥kal": 4957,
      "ada": 4958,
      "ĠindkÃ¸b": 4959,
      "DKK": 4960,
      "ĠBus": 4961,
      "Ġfalder": 4962,
      "ĠFÃ¦lles": 4963,
      "Ġbrugte": 4964,
      "pladser": 4965,
      "sÃ¦de": 4966,
      "Ġvandet": 4967,
      "udstyr": 4968,
      "Ġforplig": 4969,
      "ĠKe": 4970,
      "Ġsidde": 4971,
      "Ġtilpas": 4972,
      "loc": 4973,
      "lÃ¸st": 4974,
      "-)": 4975,
      "lek": 4976,
      "Ġimidlertid": 4977,
      "ĠCa": 4978,
      "ĠÃ¸konomisk": 4979,
      "Ã¡": 4980,
      "ĠÃ©t": 4981,
      "rasse": 4982,
      "hedsb": 4983,
      "Ġvindue": 4984,
      "Ġminim": 4985,
      "ykke": 4986,
      "Ġsten": 4987,
      "ĠglÃ¦der": 4988,
      "ĠÃħrhus": 4989,
      "serede": 4990,
      "????": 4991,
      "Ġ01": 4992,
      "tr": 4993,
      "Ã¦ssig": 4994,
      "have": 4995,
      "Ġdyre": 4996,
      "livet": 4997,
      "ĠHver": 4998,
      "Ġescort": 4999,
      "ĠVand": 5000,
      "ĠÃ¸konomi": 5001,
      "sbjerg": 5002,
      "ĠrÃ¥dighed": 5003,
      "ming": 5004,
      "kk": 5005,
      "Ġteg": 5006,
      "soft": 5007,
      "ĠWeb": 5008,
      "ladet": 5009,
      "kler": 5010,
      "Ġ37": 5011,
      "POST": 5012,
      "Ġbes": 5013,
      "Ġrejser": 5014,
      "ĠBeach": 5015,
      "stid": 5016,
      "Ġforestil": 5017,
      "vidst": 5018,
      "Ġfart": 5019,
      "à¸": 5020,
      "Ġga": 5021,
      "Ġaft": 5022,
      "=\\\"": 5023,
      "ĠPlan": 5024,
      "Ġrelevante": 5025,
      "dri": 5026,
      "Ġbogen": 5027,
      "bÃ¦r": 5028,
      "Ġvanske": 5029,
      "52": 5030,
      "53": 5031,
      "ĠRoskilde": 5032,
      "Ġmask": 5033,
      "Ġgrundlag": 5034,
      "IDE": 5035,
      "ĠlÃ¥ne": 5036,
      "ĠTop": 5037,
      "delt": 5038,
      "ktorer": 5039,
      "Ġforand": 5040,
      "Ġattra": 5041,
      "Ġkob": 5042,
      "stere": 5043,
      "ĠkÃ¸bt": 5044,
      "ĠPort": 5045,
      "Ġmore": 5046,
      "ablet": 5047,
      "Ġsne": 5048,
      "fÃ¦rd": 5049,
      "ĠCla": 5050,
      "Ġoprette": 5051,
      "ĠfremgÃ¥r": 5052,
      "Ġstilling": 5053,
      "ĠLin": 5054,
      "inten": 5055,
      "stri": 5056,
      "Ġudgifter": 5057,
      "ĠhÃ¥rdt": 5058,
      "useum": 5059,
      "ĠÃ¦ndret": 5060,
      "ï¿½ï¿½ï¿½": 5061,
      "Ġdyg": 5062,
      "lÃ¦ggende": 5063,
      "holdsvis": 5064,
      "mmelig": 5065,
      "Ġmv": 5066,
      "Ġbilen": 5067,
      "oss": 5068,
      "Ġdist": 5069,
      "Ġsvarer": 5070,
      "pet": 5071,
      "ĠtrÃ¦k": 5072,
      "Ġfyldt": 5073,
      "Ġantallet": 5074,
      "ĠgrÃ¸nne": 5075,
      "kret": 5076,
      "fÃ¸ring": 5077,
      "forsk": 5078,
      "Ġref": 5079,
      "dire": 5080,
      "Ã¸bler": 5081,
      "ROOM": 5082,
      "amping": 5083,
      "Ġbank": 5084,
      "Ġskj": 5085,
      "PRI": 5086,
      "Ġfysisk": 5087,
      "my": 5088,
      "ĠVir": 5089,
      "()": 5090,
      "Ġoptage": 5091,
      "lags": 5092,
      "vers": 5093,
      "Ġsur": 5094,
      "ĠpÃ¥gÃ¦ldende": 5095,
      "amb": 5096,
      "Ġej": 5097,
      "'))": 5098,
      "ĠnÃ¸dvendige": 5099,
      "Ġanalyse": 5100,
      "Ġstati": 5101,
      "Ġdaglig": 5102,
      "ĠWh": 5103,
      "Ð¾Ð": 5104,
      "Ġgodkendt": 5105,
      "enhagen": 5106,
      "Ġci": 5107,
      "Ġdiverse": 5108,
      "jene": 5109,
      "ĠmÃ¸n": 5110,
      "aller": 5111,
      "98": 5112,
      "Ġbestyrelsen": 5113,
      "Ġforbedre": 5114,
      "ĠRad": 5115,
      "AY": 5116,
      "97": 5117,
      "dagen": 5118,
      "Ġkommunikation": 5119,
      "ĠErhver": 5120,
      "ĠBrÃ¸n": 5121,
      "Ġforsikring": 5122,
      "ffet": 5123,
      "omst": 5124,
      "ya": 5125,
      "Ġetable": 5126,
      "Ġmoder": 5127,
      "ody": 5128,
      "ĠMere": 5129,
      "Ġnavnet": 5130,
      "Ã¦ste": 5131,
      "given": 5132,
      "Produ": 5133,
      "Ġvejledning": 5134,
      "2015": 5135,
      "besk": 5136,
      "Ġskabt": 5137,
      "Ġregistrer": 5138,
      "Min": 5139,
      "kers": 5140,
      "vidi": 5141,
      "Selv": 5142,
      "ots": 5143,
      "meld": 5144,
      "fatte": 5145,
      "ĠKo": 5146,
      "ĠSamtidig": 5147,
      "Ġklin": 5148,
      "UL": 5149,
      "EF": 5150,
      "Ġeksk": 5151,
      "stoffer": 5152,
      "Ħ¢": 5153,
      "ĠBlack": 5154,
      "ĠKir": 5155,
      "Â²": 5156,
      "ĠAll": 5157,
      "ĠOle": 5158,
      "ĠafhÃ¦n": 5159,
      "Ġoverens": 5160,
      "Ġplaceret": 5161,
      "Ġlufthavn": 5162,
      "ĠudendÃ¸rs": 5163,
      "iat": 5164,
      "Ġag": 5165,
      "vejs": 5166,
      "ĠAnders": 5167,
      "cre": 5168,
      "Ġbage": 5169,
      "landske": 5170,
      "DF": 5171,
      "Ġdatter": 5172,
      "Ġparti": 5173,
      "indt": 5174,
      "hÃ¦ngig": 5175,
      "ated": 5176,
      "ting": 5177,
      "liste": 5178,
      "ĠErik": 5179,
      "alte": 5180,
      "ĠkÃ¸n": 5181,
      "Ġstrategi": 5182,
      "lÃ¦ge": 5183,
      "ĠefterhÃ¥nden": 5184,
      "ĠSocial": 5185,
      "Ġovernatning": 5186,
      "haus": 5187,
      "ĠÃ¸k": 5188,
      "Ġvarie": 5189,
      "Bil": 5190,
      "Ġjorden": 5191,
      "ĠNiels": 5192,
      "Go": 5193,
      "Ġtilslut": 5194,
      "ĠdÃ¸r": 5195,
      "ĠMartin": 5196,
      "xe": 5197,
      "ĠudgÃ¸r": 5198,
      "Ġsub": 5199,
      "Ġkorrekt": 5200,
      "skue": 5201,
      "ĠYou": 5202,
      "Ġpraktisk": 5203,
      "Ġfleksi": 5204,
      "Ġevalue": 5205,
      "posi": 5206,
      "Ġpraktiske": 5207,
      "spris": 5208,
      "ĠStart": 5209,
      "Ġ34": 5210,
      "orit": 5211,
      "Phone": 5212,
      "ĠPC": 5213,
      "ĠBi": 5214,
      "ĠUden": 5215,
      "Ġbeliggende": 5216,
      "Ġbekve": 5217,
      "Ġudvi": 5218,
      "ĠSverige": 5219,
      "ĠBille": 5220,
      "hr": 5221,
      "sf": 5222,
      "cm": 5223,
      "Ġkigge": 5224,
      "ĠbesÃ¸ge": 5225,
      "sist": 5226,
      "arder": 5227,
      "ĠIntern": 5228,
      "lef": 5229,
      "Ġcar": 5230,
      "ktivitet": 5231,
      "lads": 5232,
      "ingerne": 5233,
      "ĠbevÃ¦ge": 5234,
      "Ray": 5235,
      "Ġselskabet": 5236,
      "ournali": 5237,
      "ube": 5238,
      "Ġmandag": 5239,
      "atel": 5240,
      "vogn": 5241,
      "Ġudviklingen": 5242,
      "Ġpolitik": 5243,
      "tning": 5244,
      "Ġ07": 5245,
      "Ġnew": 5246,
      "ofa": 5247,
      "pad": 5248,
      "ĠFort": 5249,
      "Ġsang": 5250,
      "ydes": 5251,
      "ĠCD": 5252,
      "partment": 5253,
      "Ġforst": 5254,
      "Ġvandt": 5255,
      "Ġvind": 5256,
      "Ġstran": 5257,
      "film": 5258,
      "500": 5259,
      "type": 5260,
      "Ġaktie": 5261,
      "Ġfrugt": 5262,
      "Levering": 5263,
      "ĠfortsÃ¦tter": 5264,
      "Ġbook": 5265,
      "âĦ¢": 5266,
      "Ġfantastiske": 5267,
      "ĠLyn": 5268,
      "ĠPedersen": 5269,
      "ĠÃ¸de": 5270,
      "stof": 5271,
      "Ġfry": 5272,
      "ĠlÃ¦ser": 5273,
      "ĠFolke": 5274,
      "prwidgets": 5275,
      "omrÃ¥der": 5276,
      "gÃ¸relsen": 5277,
      "Ġpresse": 5278,
      "Ġkj": 5279,
      "Ġtema": 5280,
      "],": 5281,
      "Ġrige": 5282,
      "Ġkonkurren": 5283,
      "smÃ¦ssige": 5284,
      "Ġbiler": 5285,
      "ooth": 5286,
      "Ġoverblik": 5287,
      "Ġreger": 5288,
      "lut": 5289,
      "Ġing": 5290,
      "ĠRen": 5291,
      "smed": 5292,
      "\":\"(": 5293,
      "ĠlÃ¦gge": 5294,
      "ĠOf": 5295,
      "andard": 5296,
      "Ġiniti": 5297,
      "Ġkomfort": 5298,
      "run": 5299,
      "Ġfokuse": 5300,
      "ĠArbejds": 5301,
      "DK": 5302,
      "formationer": 5303,
      "Ġbetrag": 5304,
      "kvar": 5305,
      "Ġir": 5306,
      "Ġtablet": 5307,
      "ĠHarald": 5308,
      "gruppen": 5309,
      "Ġvinder": 5310,
      "getjs": 5311,
      "icrosoft": 5312,
      "ames": 5313,
      "show": 5314,
      "irt": 5315,
      "garanti": 5316,
      "skort": 5317,
      "template": 5318,
      "SB": 5319,
      "ĠSÃ¸": 5320,
      "Ġforvent": 5321,
      "agement": 5322,
      "ĠTlf": 5323,
      "Ġlettere": 5324,
      "ĠSE": 5325,
      ",Â«": 5326,
      "ĠgengÃ¦ld": 5327,
      "ĠChe": 5328,
      "stalt": 5329,
      "wards": 5330,
      "ĠWil": 5331,
      "Ġsager": 5332,
      "Ġprogrammer": 5333,
      "givelser": 5334,
      "Ġbad": 5335,
      "Ġbehage": 5336,
      "Ġrestauranter": 5337,
      "grupper": 5338,
      "Spe": 5339,
      "Ġdeltager": 5340,
      "84": 5341,
      "Ġdialog": 5342,
      "ĠFragt": 5343,
      "Ġundervis": 5344,
      "Ġspecial": 5345,
      "ĠHal": 5346,
      "Ġelektron": 5347,
      "ficerede": 5348,
      "Ġudgave": 5349,
      "PL": 5350,
      "Ġvinde": 5351,
      "ĠLarsen": 5352,
      "sto": 5353,
      "mÃ¦rket": 5354,
      "ĠStrand": 5355,
      "feren": 5356,
      "\":[],\"": 5357,
      "lette": 5358,
      "ĠBel": 5359,
      "minister": 5360,
      "ily": 5361,
      "kle": 5362,
      "Ġour": 5363,
      "ĠtÃ¥": 5364,
      "geren": 5365,
      "viden": 5366,
      "ĠbekrÃ¦": 5367,
      "Ġregion": 5368,
      "Ġvigtige": 5369,
      "Ġungdom": 5370,
      "agelse": 5371,
      "ĠLo": 5372,
      "ĠÃ¦ndring": 5373,
      "tier": 5374,
      "ĠRi": 5375,
      "ĠWomen": 5376,
      "();": 5377,
      "ĠsÃ¥fremt": 5378,
      "Ġsmule": 5379,
      "Ġbrowser": 5380,
      "svarende": 5381,
      "Ġskul": 5382,
      "Ġforker": 5383,
      "Ġskov": 5384,
      "ĠhÃ¥ndte": 5385,
      "ĠLige": 5386,
      "PER": 5387,
      "Rooms": 5388,
      "ĠLeg": 5389,
      "unst": 5390,
      "Ġkortet": 5391,
      "forhold": 5392,
      "ĠDesign": 5393,
      "Ã¸dte": 5394,
      "tidige": 5395,
      "ĠprimÃ¦rt": 5396,
      "cerer": 5397,
      "Ġsamfund": 5398,
      "Ġguide": 5399,
      "Ġforfatter": 5400,
      "organis": 5401,
      "AC": 5402,
      "Ġdels": 5403,
      "ĠJacob": 5404,
      "Ġfree": 5405,
      "Ġpasse": 5406,
      "Ġhvoraf": 5407,
      "TV": 5408,
      "Ġplus": 5409,
      "Ġsammens": 5410,
      "dem": 5411,
      "ĠÃ¸get": 5412,
      "fast": 5413,
      "ymna": 5414,
      "Ġgrupper": 5415,
      "Ġinno": 5416,
      "ĠHus": 5417,
      "ites": 5418,
      "DR": 5419,
      "Co": 5420,
      "Ġvejr": 5421,
      "rc": 5422,
      "ĠbadevÃ¦relse": 5423,
      "ĠdirektÃ¸r": 5424,
      "Ġhuden": 5425,
      "×¢": 5426,
      "LOG": 5427,
      "Ġ2005": 5428,
      "Ġ48": 5429,
      "Ġfind": 5430,
      "ĠdÃ¦kker": 5431,
      "ĠprÃ¸ver": 5432,
      "-,": 5433,
      "Ġindre": 5434,
      "Ġoftest": 5435,
      "vokat": 5436,
      "its": 5437,
      "omme": 5438,
      "selskaber": 5439,
      "Ġstarten": 5440,
      "Ġtorsdag": 5441,
      "ĠKultur": 5442,
      "Ġxx": 5443,
      "Ġhverken": 5444,
      "hovedet": 5445,
      "module": 5446,
      "aktion": 5447,
      "ĠFinan": 5448,
      "Ġkraf": 5449,
      "ĠudfÃ¸re": 5450,
      "Ġvari": 5451,
      "Ġcre": 5452,
      "Ġdejligt": 5453,
      "otellets": 5454,
      "ĠlÃ¦r": 5455,
      "ĠLou": 5456,
      "Ġstartede": 5457,
      "ÃĺR": 5458,
      "ĠMag": 5459,
      "hjÃ¦lp": 5460,
      "Nej": 5461,
      "SH": 5462,
      "Ġalmindelig": 5463,
      "vÃ¦relser": 5464,
      "ĠkÃ¸le": 5465,
      "az": 5466,
      "ĠbedÃ¸mme": 5467,
      "fig": 5468,
      "Ġmus": 5469,
      "bygning": 5470,
      "Ġaktivitet": 5471,
      "resser": 5472,
      "UN": 5473,
      "slinjer": 5474,
      "Ġtrue": 5475,
      "Ġglade": 5476,
      "ĠbeskÃ¦ftige": 5477,
      "hsx": 5478,
      "vinde": 5479,
      "pi": 5480,
      "lader": 5481,
      "ĠgÃ¸res": 5482,
      "Ġkir": 5483,
      "Ġbaby": 5484,
      "Ġspur": 5485,
      "lÃ¥n": 5486,
      "Ĥ¬": 5487,
      "Ġhenblik": 5488,
      "ĠmÃ¦rker": 5489,
      "Ġanbefales": 5490,
      "ĠKlik": 5491,
      "Ġalternativ": 5492,
      "Ġkonkurrence": 5493,
      "gaven": 5494,
      "ray": 5495,
      "flade": 5496,
      "ĠLondon": 5497,
      "ĠGen": 5498,
      "ĠtvÃ¦rs": 5499,
      "vens": 5500,
      "Hvordan": 5501,
      "ometer": 5502,
      "ĠÃ¸ge": 5503,
      "gin": 5504,
      "ĠeuropÃ¦iske": 5505,
      "ĠIndberet": 5506,
      "FORM": 5507,
      "ĠOne": 5508,
      "Ġdags": 5509,
      "ĠDig": 5510,
      "74": 5511,
      "ordin": 5512,
      "Ġspare": 5513,
      "Ġafstand": 5514,
      "\"},\"": 5515,
      "Ġindsat": 5516,
      "jening": 5517,
      "http": 5518,
      "Ġbut": 5519,
      "Ġlavere": 5520,
      "smuligheder": 5521,
      "forme": 5522,
      "Ġpoint": 5523,
      "\"}": 5524,
      "Ġteam": 5525,
      "lid": 5526,
      "Ġnyeste": 5527,
      "ĠdÃ¥rlig": 5528,
      "ĠStore": 5529,
      "Ġmaterialer": 5530,
      "klasse": 5531,
      "Ġhjemmesiden": 5532,
      "bage": 5533,
      "vidt": 5534,
      "ĠSvend": 5535,
      "Ġskar": 5536,
      "Ġmuse": 5537,
      "prw": 5538,
      "Ġprw": 5539,
      "moduleList": 5540,
      "Ġmodeller": 5541,
      "jekter": 5542,
      "Ġannoncen": 5543,
      "300": 5544,
      "oppe": 5545,
      "skriver": 5546,
      "ĠÃ¸st": 5547,
      "containerClass": 5548,
      "Ġleverand": 5549,
      "Ġidee": 5550,
      "Ã¦tning": 5551,
      "ales": 5552,
      "sensor": 5553,
      "000000": 5554,
      "lejer": 5555,
      "ĠSim": 5556,
      "Ġindfly": 5557,
      "ĠBri": 5558,
      "Ã¤r": 5559,
      "Ġ55": 5560,
      "ĠRÃ¸d": 5561,
      "Ġrapport": 5562,
      "mÃ¦ssige": 5563,
      "script": 5564,
      "ĠAL": 5565,
      "ĠstÃ¸v": 5566,
      "dskab": 5567,
      "Ġbygget": 5568,
      "Ġmuligheden": 5569,
      "rsdag": 5570,
      "Serier": 5571,
      "Ġfaste": 5572,
      "Ġlink": 5573,
      "Ġwill": 5574,
      "Ġkredit": 5575,
      "Ġtus": 5576,
      "Ġrelevant": 5577,
      "ability": 5578,
      "spolitik": 5579,
      "Ġdetaljer": 5580,
      "pens": 5581,
      "ĠGennem": 5582,
      "Ġner": 5583,
      "ssen": 5584,
      "ram": 5585,
      "Ġbund": 5586,
      "handel": 5587,
      "Ġforbrug": 5588,
      "entligt": 5589,
      "Ġpul": 5590,
      "Ġrettigheder": 5591,
      "comp": 5592,
      "Ġ150": 5593,
      "Ġinfo": 5594,
      "ĠÃ¸jne": 5595,
      "ferie": 5596,
      "Ġpartnere": 5597,
      "ĠDire": 5598,
      "BS": 5599,
      "hi": 5600,
      "96": 5601,
      "ĠbesÃ¸gende": 5602,
      "anten": 5603,
      "Ġmedarbejder": 5604,
      "ospital": 5605,
      "Ġdesignet": 5606,
      "sÃ¸gt": 5607,
      "somrÃ¥": 5608,
      "ĠStud": 5609,
      "Ġbestyrelse": 5610,
      "ĠRanders": 5611,
      "spri": 5612,
      "Ġbeskytte": 5613,
      "DW": 5614,
      "pol": 5615,
      "ĠLED": 5616,
      "Ġpotenti": 5617,
      "Ġderi": 5618,
      "Ġguld": 5619,
      "ĠCor": 5620,
      "skende": 5621,
      "Dis": 5622,
      "ĠBau": 5623,
      "ley": 5624,
      "ĠIN": 5625,
      "Ġbesked": 5626,
      "ĠRej": 5627,
      "Ġeksp": 5628,
      "manden": 5629,
      "urs": 5630,
      "Ġplad": 5631,
      "bygget": 5632,
      "ĠPoul": 5633,
      "ĠMand": 5634,
      "ĠsammenhÃ¦ng": 5635,
      "ĠPi": 5636,
      "ĠBal": 5637,
      "ĠstÃ¦rk": 5638,
      "ĠvÃ¦rktÃ¸j": 5639,
      "ĠEnergi": 5640,
      "Ġstr": 5641,
      "Ġkonkre": 5642,
      "icap": 5643,
      "opleve": 5644,
      "Ġchar": 5645,
      "ĠDVD": 5646,
      "Ġregering": 5647,
      "Ġerfaringer": 5648,
      "Ġudby": 5649,
      "Ġreali": 5650,
      "ĠThis": 5651,
      "Ġtyn": 5652,
      "ĠreprÃ¦sen": 5653,
      "Ġpriori": 5654,
      "Ġdaglige": 5655,
      "skere": 5656,
      "LINE": 5657,
      "ĠMÃ¥ske": 5658,
      "Ġskil": 5659,
      "ĠpÃ¦dagog": 5660,
      "matik": 5661,
      "Ġperioden": 5662,
      "Ġudtry": 5663,
      "................": 5664,
      "Ġforbundet": 5665,
      "urt": 5666,
      "Bar": 5667,
      "Ġforetage": 5668,
      "Ġ42": 5669,
      "Ġ599": 5670,
      "Ã³": 5671,
      "Ġmaksi": 5672,
      "Ġtemp": 5673,
      "Ġoverensstemmelse": 5674,
      "ĠkÃ¦reste": 5675,
      "Ġsket": 5676,
      "ynam": 5677,
      "orks": 5678,
      "Ġkunderne": 5679,
      "istorie": 5680,
      "Ġpludselig": 5681,
      "Ġskat": 5682,
      "Ġlad": 5683,
      "Ġlader": 5684,
      "itness": 5685,
      "Ġpolitisk": 5686,
      "Vores": 5687,
      "gange": 5688,
      "Ġskridt": 5689,
      "Ġsjovt": 5690,
      "inere": 5691,
      "ĠMac": 5692,
      "Ġsan": 5693,
      "ĠOnline": 5694,
      "Ġbredt": 5695,
      "Ġfysiske": 5696,
      "tteratur": 5697,
      "ativt": 5698,
      "ĠKommissionen": 5699,
      "ĠrÃ¸r": 5700,
      "kser": 5701,
      "lla": 5702,
      "vÃ¦rdi": 5703,
      "Ġalko": 5704,
      "okolade": 5705,
      "Ġomfang": 5706,
      "Ġafsla": 5707,
      "Ġtoppen": 5708,
      "IF": 5709,
      "Ġbase": 5710,
      "Ġneder": 5711,
      "ĠCO": 5712,
      "Ġvaren": 5713,
      "Ġstoppe": 5714,
      "Ġmikro": 5715,
      "ĠFix": 5716,
      "inen": 5717,
      "Ġleveret": 5718,
      "lagte": 5719,
      "selskab": 5720,
      "Ġroman": 5721,
      "ĠPoliti": 5722,
      "Ġnogens": 5723,
      "sret": 5724,
      "Type": 5725,
      "stpilot": 5726,
      "ressen": 5727,
      "VER": 5728,
      "ĠVejle": 5729,
      "photo": 5730,
      "72": 5731,
      "CS": 5732,
      "ĠLang": 5733,
      "Ġumiddel": 5734,
      "reak": 5735,
      "Ġcit": 5736,
      "Ġdec": 5737,
      "ĠXL": 5738,
      "Ġutrolig": 5739,
      "ĠfÃ¦rre": 5740,
      "orth": 5741,
      "skyl": 5742,
      "Ġmeddele": 5743,
      "Ġtoilet": 5744,
      "ĠlÃ¦der": 5745,
      "liver": 5746,
      "Ġomkostninger": 5747,
      "ĠSen": 5748,
      "ĠfÃ¸re": 5749,
      "âĢ¢": 5750,
      "ior": 5751,
      "ĠPrin": 5752,
      "hun": 5753,
      "hjemme": 5754,
      "ĠHje": 5755,
      "ĠChristensen": 5756,
      "Ġaktive": 5757,
      "gers": 5758,
      "Ġstiller": 5759,
      "bout": 5760,
      "ĠrÃ¸de": 5761,
      "Ġtrin": 5762,
      "fÃ¸rte": 5763,
      "KE": 5764,
      "Ġsimpelthen": 5765,
      "Ġudbud": 5766,
      "Ġbeskrive": 5767,
      "servation": 5768,
      "ĠÃ¸ver": 5769,
      "Ġmyndigheder": 5770,
      "ĠSammen": 5771,
      "Ġanvender": 5772,
      "ĠTilbehÃ¸r": 5773,
      "vendelse": 5774,
      "bol": 5775,
      "App": 5776,
      "Ġap": 5777,
      "Ġadskil": 5778,
      "Ġstress": 5779,
      "Ġarkite": 5780,
      "ĠBj": 5781,
      "Ã¥s": 5782,
      "Ġsmuk": 5783,
      "ĠsÃ¸de": 5784,
      "Ġfodbold": 5785,
      "ĠRasmussen": 5786,
      "Ġau": 5787,
      "Ġsku": 5788,
      "ykker": 5789,
      "html": 5790,
      "politik": 5791,
      "lejning": 5792,
      "ĠKommun": 5793,
      "Ġforne": 5794,
      "Ġsukker": 5795,
      "Svar": 5796,
      "content": 5797,
      "ette": 5798,
      "ĠindgÃ¥r": 5799,
      "Ġtilkn": 5800,
      "Ġdigitale": 5801,
      "Ġopdage": 5802,
      "Ġhovedet": 5803,
      "ĠBolig": 5804,
      "lage": 5805,
      "Ġtanker": 5806,
      "Ġomgang": 5807,
      "ĠBook": 5808,
      "Ġselskab": 5809,
      "Ġbetaler": 5810,
      "ĠforsÃ¸ger": 5811,
      "ino": 5812,
      "skede": 5813,
      "Ġbye": 5814,
      "vner": 5815,
      "ĠÃ¸jeblikket": 5816,
      "ï½": 5817,
      "ĠbÃ¦redyg": 5818,
      "Ã¦tter": 5819,
      "abrik": 5820,
      "lings": 5821,
      "Ġmorgenmad": 5822,
      "ĠFl": 5823,
      "acitet": 5824,
      "arget": 5825,
      "somme": 5826,
      "Ġdes": 5827,
      "ĠÃĺster": 5828,
      "Ġmini": 5829,
      "ĠSjÃ¦lland": 5830,
      "Ġfordele": 5831,
      "ns": 5832,
      "ogne": 5833,
      "put": 5834,
      "Ġaktuelle": 5835,
      "Ġstraks": 5836,
      "tv": 5837,
      "Booking": 5838,
      "ĠHD": 5839,
      "Ġmeste": 5840,
      "olo": 5841,
      "fyn": 5842,
      "ygter": 5843,
      "Ġlevere": 5844,
      "reve": 5845,
      "ĠSP": 5846,
      "Ġonsdag": 5847,
      "\"]": 5848,
      "ider": 5849,
      "ĠÃ¸nskede": 5850,
      "pl": 5851,
      "83": 5852,
      "ĠCV": 5853,
      "ĠanmeldelserVis": 5854,
      "Ser": 5855,
      "ĠlÃ¸se": 5856,
      "ĠSuites": 5857,
      "Ġmulti": 5858,
      "afÃ©": 5859,
      "ents": 5860,
      "Ġspor": 5861,
      "Ġspillere": 5862,
      "ĠBank": 5863,
      "Ġinspire": 5864,
      "ĠCe": 5865,
      "mos": 5866,
      "ÃĨR": 5867,
      "ĠHj": 5868,
      "lÃ¦gning": 5869,
      "ĠPost": 5870,
      "Ġansvarlig": 5871,
      "91": 5872,
      "ĠRus": 5873,
      "Ġspecifi": 5874,
      "Ġnogensinde": 5875,
      "Ġdie": 5876,
      "unk": 5877,
      "Ġkontrolle": 5878,
      "Ġtr": 5879,
      "Ġvery": 5880,
      "hop": 5881,
      "Ġbilligste": 5882,
      "rika": 5883,
      "ĠmÃ¦ng": 5884,
      "Ġkonsekven": 5885,
      "Ġeleverne": 5886,
      "IRG": 5887,
      "Ġkampen": 5888,
      "Ġvarmt": 5889,
      "Ġfrit": 5890,
      "mmeligheder": 5891,
      "roid": 5892,
      "Ġtilskud": 5893,
      "Ġkonkrete": 5894,
      "73": 5895,
      "ĠGro": 5896,
      "regi": 5897,
      "ĠSkov": 5898,
      "ĠfortsÃ¦tte": 5899,
      "Ġvenligst": 5900,
      "zer": 5901,
      "stillinger": 5902,
      "ĠFlere": 5903,
      "sche": 5904,
      "Ġgrunde": 5905,
      "Î±": 5906,
      "ĠtillÃ¦g": 5907,
      "Over": 5908,
      "Ġnab": 5909,
      "Ti": 5910,
      "Ġaktiv": 5911,
      "gangen": 5912,
      "tallet": 5913,
      "Ġnemmere": 5914,
      "ĠOgsÃ¥": 5915,
      "ĠforlÃ¸b": 5916,
      "tain": 5917,
      "varing": 5918,
      "ĠMassage": 5919,
      "dato": 5920,
      "Ġmale": 5921,
      "Ġlod": 5922,
      "Ġwebsted": 5923,
      "Ġbyer": 5924,
      "Ġgent": 5925,
      "ligste": 5926,
      "ĠforstÃ¥r": 5927,
      "urdere": 5928,
      "ĠMiljÃ¸": 5929,
      "Ġturi": 5930,
      "Ġforhandler": 5931,
      "Message": 5932,
      "Ġpat": 5933,
      "ĠSilvan": 5934,
      "ktiviteter": 5935,
      "nene": 5936,
      "Ġgrader": 5937,
      "forlÃ¸b": 5938,
      "Ġmarked": 5939,
      "ommer": 5940,
      "QU": 5941,
      "Ġus": 5942,
      "hav": 5943,
      "Ġforetaget": 5944,
      "ora": 5945,
      "Ã¦de": 5946,
      "ĠspÃ¸rge": 5947,
      "ĠtrÃ¦kke": 5948,
      "rejse": 5949,
      "Ġminimum": 5950,
      "Ġandel": 5951,
      "Ġhund": 5952,
      "Ġpenis": 5953,
      "Ġsjove": 5954,
      "ĠBauhaus": 5955,
      "Ġtilstand": 5956,
      "ĠFal": 5957,
      "Ġsoftware": 5958,
      "fet": 5959,
      "×Ļ×": 5960,
      "Ġforventes": 5961,
      "oni": 5962,
      "mat": 5963,
      "ĠResort": 5964,
      "ĠSkal": 5965,
      "ĠhÃ¸jeste": 5966,
      "the": 5967,
      "81": 5968,
      "ĠKj": 5969,
      "Ġrelig": 5970,
      "tegnelse": 5971,
      "derer": 5972,
      "><": 5973,
      "ĠPS": 5974,
      "Ġlukket": 5975,
      "ĠLÃ¸": 5976,
      "gy": 5977,
      "ĠApS": 5978,
      "sby": 5979,
      "Ġpersonlig": 5980,
      "start": 5981,
      "Ġtydeligt": 5982,
      "Ġï¿½ï¿½ï¿½ï¿½ï¿½ï¿½ï¿½ï¿½": 5983,
      "stati": 5984,
      "ĠJem": 5985,
      "Ġventer": 5986,
      "Ġhi": 5987,
      "ĠÃ¥rets": 5988,
      "OD": 5989,
      "Ġ06": 5990,
      "Ġbom": 5991,
      "Ġml": 5992,
      "strem": 5993,
      "ksus": 5994,
      "vendt": 5995,
      "Ġsalt": 5996,
      "Ġlangs": 5997,
      "Ġinc": 5998,
      "oren": 5999,
      "lamentet": 6000,
      "otte": 6001,
      "lovens": 6002,
      "Flags": 6003,
      "Ġfir": 6004,
      "ĠdrÃ¦": 6005,
      "Ġpool": 6006,
      "ally": 6007,
      "scriptFlags": 6008,
      "Ġmg": 6009,
      "Ġsymptomer": 6010,
      "ĠFyn": 6011,
      "ĠCy": 6012,
      "nav": 6013,
      "markedet": 6014,
      "ĠVester": 6015,
      "Ġtlf": 6016,
      "ĠgrundlÃ¦ggende": 6017,
      "Ġkontor": 6018,
      "stider": 6019,
      "lefoner": 6020,
      "rejser": 6021,
      "ĠYork": 6022,
      "alender": 6023,
      "Ġweekend": 6024,
      "shÃ¸j": 6025,
      "AP": 6026,
      "000000000": 6027,
      "ĠtilbehÃ¸r": 6028,
      "vnen": 6029,
      "ĠEuro": 6030,
      "Ġkrig": 6031,
      "melding": 6032,
      "ĠTro": 6033,
      "cted": 6034,
      "ĠnÃ¦rmest": 6035,
      "jektet": 6036,
      "ĠKont": 6037,
      "Ġfisk": 6038,
      "EJ": 6039,
      "Ġmi": 6040,
      "Ġtilbydes": 6041,
      "ters": 6042,
      "Ġbilledet": 6043,
      "82": 6044,
      "Ġtyske": 6045,
      "stÃ¥et": 6046,
      "kri": 6047,
      "Ġleverer": 6048,
      "lÃ¥s": 6049,
      "ĠBeg": 6050,
      "aftale": 6051,
      "Ġeffektiv": 6052,
      "uth": 6053,
      "ep": 6054,
      "ĠFrankrig": 6055,
      "lay": 6056,
      "Ġudenfor": 6057,
      "Ġtilladt": 6058,
      "Ã¸nne": 6059,
      "spare": 6060,
      "×¢×": 6061,
      "Ġeje": 6062,
      "Ġfunction": 6063,
      "Ġkommentar": 6064,
      "ĠTer": 6065,
      "Ġugen": 6066,
      "Ġstigende": 6067,
      "Ġinvol": 6068,
      "Ġford": 6069,
      "ĠskÃ¸nne": 6070,
      "Ġleg": 6071,
      "ilit": 6072,
      "Ġskifte": 6073,
      "Ġoverhovedet": 6074,
      "ĠParis": 6075,
      "ĠprÃ¦ci": 6076,
      "Ġkursus": 6077,
      "Ġligge": 6078,
      "Ġrime": 6079,
      "Ġplacering": 6080,
      "ĠblÃ¸d": 6081,
      "ĠVÃ¦re": 6082,
      "ĠtilgÃ¦ngelige": 6083,
      "ĠÃ¥bner": 6084,
      "Ġmetoder": 6085,
      "Ġjun": 6086,
      "Â´": 6087,
      "ousel": 6088,
      "Ġnyttige": 6089,
      "Ġlook": 6090,
      "ĠgrÃ¥": 6091,
      "UD": 6092,
      "cu": 6093,
      "keting": 6094,
      "lam": 6095,
      "ĠTekn": 6096,
      "Ġdato": 6097,
      "natning": 6098,
      "tider": 6099,
      "Ġkompetencer": 6100,
      "cca": 6101,
      "Ġklik": 6102,
      "Ġhaven": 6103,
      "Ġdets": 6104,
      "Ġinten": 6105,
      "Ġkigger": 6106,
      "ĠÂ©": 6107,
      "Ġopdateret": 6108,
      "ĠmaskinoversÃ¦ttelserJa": 6109,
      "riere": 6110,
      "ĠHouse": 6111,
      "Ġ65": 6112,
      "Ġpublik": 6113,
      "Ġ250": 6114,
      "Ġ2004": 6115,
      "Ġlandbrug": 6116,
      "gle": 6117,
      "\").": 6118,
      "Ġgaran": 6119,
      "REG": 6120,
      "ogen": 6121,
      "Ġindflydelse": 6122,
      "ĠstÃ¥l": 6123,
      "Ġvarm": 6124,
      "Ġdanne": 6125,
      "kster": 6126,
      "fart": 6127,
      "Ġudstyret": 6128,
      "ĠopstÃ¥r": 6129,
      "ĠtÃ¦": 6130,
      "brand": 6131,
      "ĠblÃ¦": 6132,
      "keborg": 6133,
      "ĠAlder": 6134,
      "stop": 6135,
      "Ġhyl": 6136,
      "ulture": 6137,
      "Ġelementer": 6138,
      "Ġstik": 6139,
      "former": 6140,
      "Ġnedenfor": 6141,
      "Ġintrodu": 6142,
      "carousel": 6143,
      "rerne": 6144,
      "Ġmagt": 6145,
      "Ġ:)": 6146,
      "Ġpapir": 6147,
      "vejledning": 6148,
      "ĠÃ¥bning": 6149,
      "flu": 6150,
      "ĠStat": 6151,
      "Ġvises": 6152,
      "Ġstoffer": 6153,
      "vÃ¦g": 6154,
      "Ġsing": 6155,
      "Ġbilligt": 6156,
      "ĠEN": 6157,
      "matisk": 6158,
      "ĠudfÃ¸rt": 6159,
      "____": 6160,
      "INLINE": 6161,
      "oter": 6162,
      "Ã¦nding": 6163,
      "holdning": 6164,
      "etooth": 6165,
      "jord": 6166,
      "Ġmetode": 6167,
      "ĠforstÃ¥else": 6168,
      "Ã¦nke": 6169,
      "71": 6170,
      "lia": 6171,
      "Ġdatoer": 6172,
      "marked": 6173,
      "stande": 6174,
      "Ġansat": 6175,
      "Ġmanglende": 6176,
      "Ġtirsdag": 6177,
      "Ġkaldes": 6178,
      "ĠlÃ¸ber": 6179,
      "produkter": 6180,
      "ensk": 6181,
      "ssist": 6182,
      "intendo": 6183,
      "ĠMorten": 6184,
      "Ġteknologi": 6185,
      "ĠIt": 6186,
      "Ġskin": 6187,
      "time": 6188,
      "ĠÃ¸l": 6189,
      "ĠKa": 6190,
      "VÃ¦relse": 6191,
      "Room": 6192,
      "Ġfyr": 6193,
      "63": 6194,
      "Ġklassiske": 6195,
      "stiske": 6196,
      "Ġuniversi": 6197,
      "lide": 6198,
      "Ġstatus": 6199,
      "kets": 6200,
      "ĠEsbjerg": 6201,
      "ĠItalien": 6202,
      "Comp": 6203,
      "penge": 6204,
      "stin": 6205,
      "ĠvÃ¦rk": 6206,
      "konomi": 6207,
      "Ġvolds": 6208,
      "ovre": 6209,
      "lund": 6210,
      "rager": 6211,
      "ĠLok": 6212,
      "Ġbestille": 6213,
      "Ġinformationer": 6214,
      "sels": 6215,
      "ĠRig": 6216,
      "Ġmobile": 6217,
      "Hun": 6218,
      "Ġtek": 6219,
      "urn": 6220,
      "Ġproduktet": 6221,
      "Ġdvs": 6222,
      "ata": 6223,
      "93": 6224,
      "ĠmÃ¦l": 6225,
      "ĠCopenhagen": 6226,
      "ĠPrÃ¦": 6227,
      "Ġ400": 6228,
      "ĠMy": 6229,
      "Ġkonstru": 6230,
      "regn": 6231,
      "ku": 6232,
      "Nyheder": 6233,
      "Ġkalder": 6234,
      "\":[\"": 6235,
      "ĠbrÃ¸d": 6236,
      "ĠFly": 6237,
      "abil": 6238,
      "phone": 6239,
      "ĠStil": 6240,
      "Ġundt": 6241,
      "mÃ¦ssigt": 6242,
      "Ġoverbe": 6243,
      "jeneste": 6244,
      "ĠsvÃ¦re": 6245,
      "ĠforÃ¥r": 6246,
      "veks": 6247,
      "\")": 6248,
      "FÃ¥": 6249,
      "Ġ44": 6250,
      "ĠKolding": 6251,
      "ĠafhÃ¦nger": 6252,
      "Ġregnskab": 6253,
      "ĠNav": 6254,
      "Ġudfor": 6255,
      "Ġvende": 6256,
      "ĠForen": 6257,
      "alth": 6258,
      "gens": 6259,
      "olens": 6260,
      "Ġfaglige": 6261,
      "ĠtilstrÃ¦kke": 6262,
      "ELSE": 6263,
      "94": 6264,
      "Ġnej": 6265,
      "Ġkampe": 6266,
      "Ġ43": 6267,
      "Ġhjul": 6268,
      "Ġinterview": 6269,
      "BR": 6270,
      "ĠTilbud": 6271,
      "Ġbland": 6272,
      "ĠER": 6273,
      "Ġeftersp": 6274,
      "Ġstats": 6275,
      "LOW": 6276,
      "Ġsendes": 6277,
      "tekn": 6278,
      "Ġnaturen": 6279,
      "Ġigang": 6280,
      "Ġsorte": 6281,
      "ico": 6282,
      "Ret": 6283,
      "ĠLau": 6284,
      "auer": 6285,
      "Ġuddannelses": 6286,
      "ĠFrederiksberg": 6287,
      "2013": 6288,
      "Ġomfattet": 6289,
      "sulent": 6290,
      "TA": 6291,
      "ĠSw": 6292,
      "Ġomfattende": 6293,
      "Ġmindste": 6294,
      "Ġindholdet": 6295,
      "ĠMette": 6296,
      "sstil": 6297,
      "stMeta": 6298,
      "stMetaPrice": 6299,
      "nien": 6300,
      "Ġdanskere": 6301,
      "vÃ¦k": 6302,
      "kÃ¸r": 6303,
      "Ã¦lder": 6304,
      "sler": 6305,
      "Ġsw": 6306,
      "blemer": 6307,
      "Ġcasino": 6308,
      "Avail": 6309,
      "ĠUD": 6310,
      "sproces": 6311,
      "Frem": 6312,
      "Ġmetal": 6313,
      "ĠMulti": 6314,
      "Ġinteressant": 6315,
      "ĠNorge": 6316,
      "ĠKL": 6317,
      "ĠInternet": 6318,
      "EC": 6319,
      "bal": 6320,
      "rine": 6321,
      "Dansk": 6322,
      "Ġstyre": 6323,
      "Ġvore": 6324,
      "ĠpÃ¦n": 6325,
      "Ġbetingelser": 6326,
      "ĠBÃ¸rne": 6327,
      "Ġfornu": 6328,
      "cd": 6329,
      "92": 6330,
      "ĠCas": 6331,
      "nÃ¦vn": 6332,
      "rent": 6333,
      "ki": 6334,
      "station": 6335,
      "Ġ46": 6336,
      "ĠRewards": 6337,
      "Ġ!": 6338,
      "search": 6339,
      "Ġplat": 6340,
      "arbejder": 6341,
      "goda": 6342,
      "ĠHerning": 6343,
      "ĠViborg": 6344,
      "ĠMarie": 6345,
      "Ã¸rgsmÃ¥let": 6346,
      "Ġsmerte": 6347,
      "Ġsikkerheds": 6348,
      "ĠskrÃ¦": 6349,
      "Ġsad": 6350,
      "Ġanbefal": 6351,
      "2014": 6352,
      "Ġforklarer": 6353,
      "Ġbeskrivelse": 6354,
      "ĠivÃ¦rks": 6355,
      "LOGIN": 6356,
      "Ġokt": 6357,
      "Ġgives": 6358,
      "ĠSag": 6359,
      "ĠsÃ¦rdeles": 6360,
      "Ġfler": 6361,
      "].": 6362,
      "Ġkoncent": 6363,
      "verne": 6364,
      "bestilling": 6365,
      "itt": 6366,
      "ift": 6367,
      "ĠMuseum": 6368,
      "ĠKina": 6369,
      "Ġvirkeligheden": 6370,
      "Hu": 6371,
      "Info": 6372,
      "Ġment": 6373,
      "Ġskader": 6374,
      "ĠVol": 6375,
      "ĠÃ¤": 6376,
      "Ġnov": 6377,
      "ĠfÃ¦llesskab": 6378,
      "undersÃ¸ge": 6379,
      "Ġtea": 6380,
      "prin": 6381,
      "ĠjÃ¦vn": 6382,
      "Ġlandets": 6383,
      "kap": 6384,
      "Ġone": 6385,
      "vÃ¦l": 6386,
      "obby": 6387,
      "ĠnÃ¦vnt": 6388,
      "dannet": 6389,
      "Ã¦nk": 6390,
      "ĠOpdater": 6391,
      "ita": 6392,
      "Ġprinci": 6393,
      "Ġminutters": 6394,
      "Ġfilmen": 6395,
      "Ġender": 6396,
      "Ġnaturlige": 6397,
      "bili": 6398,
      "Ġvaret": 6399,
      "Ġbalance": 6400,
      "Â¥": 6401,
      "Ã¥rig": 6402,
      "Ġnatten": 6403,
      "ament": 6404,
      "ould": 6405,
      "Ġvild": 6406,
      "Ġopfatte": 6407,
      "daterer": 6408,
      "pedia": 6409,
      "Ġtider": 6410,
      "una": 6411,
      "Ġeventuelt": 6412,
      "ĠCom": 6413,
      "Ġprogrammet": 6414,
      "ĠVan": 6415,
      "ĠbegrÃ¦nset": 6416,
      "Ġbevidst": 6417,
      "dede": 6418,
      "Ġcomm": 6419,
      "Ġudgivet": 6420,
      "ĠMil": 6421,
      "ĠkÃ¸d": 6422,
      "Ġhelb": 6423,
      "ĠHvil": 6424,
      "Ġsagtens": 6425,
      "Ġkem": 6426,
      "Ġkamera": 6427,
      "Ġskyld": 6428,
      "ĠrÃ¥dgivning": 6429,
      "Pris": 6430,
      "Ġvurdere": 6431,
      "true": 6432,
      "spÃ¦r": 6433,
      "Ġmulig": 6434,
      "Ġoverskud": 6435,
      "Ġrelation": 6436,
      "Ġopford": 6437,
      "Ġatt": 6438,
      "Ġsign": 6439,
      "Ġ05": 6440,
      "Ġpension": 6441,
      "smid": 6442,
      "institu": 6443,
      "Ġsystemet": 6444,
      "Ġsenge": 6445,
      "Key": 6446,
      "Ġendvidere": 6447,
      "fy": 6448,
      "Ġressourcer": 6449,
      "aterne": 6450,
      "Ġloc": 6451,
      "Ġtegne": 6452,
      "ĠSv": 6453,
      "atteri": 6454,
      "Ġhistorien": 6455,
      "plejer": 6456,
      "ĠsÃ¥danne": 6457,
      "Ne": 6458,
      "mÃ¸de": 6459,
      "Ġklokken": 6460,
      "Ġtjeneste": 6461,
      "Byg": 6462,
      "overnatning": 6463,
      "ierne": 6464,
      "ĠAm": 6465,
      "Ġindividu": 6466,
      "slÃ¥": 6467,
      "terende": 6468,
      "Ġsamarbejdsp": 6469,
      "Ġtrans": 6470,
      "Ġfritids": 6471,
      "ukkende": 6472,
      "Ġkigget": 6473,
      "Ġcirka": 6474,
      "ĠJesper": 6475,
      "Ġvilde": 6476,
      "BC": 6477,
      "Ġgravidi": 6478,
      "ĠsÃ¸gning": 6479,
      "Availability": 6480,
      "function": 6481,
      "61": 6482,
      "Ġklikke": 6483,
      "Ġafgifter": 6484,
      "Ġstream": 6485,
      "ĠDenmark": 6486,
      "ĠfÃ¸dselsdag": 6487,
      "message": 6488,
      "FÃ¸r": 6489,
      "Ġdrenge": 6490,
      "By": 6491,
      "Ġdemokra": 6492,
      "llerne": 6493,
      "Ġspar": 6494,
      "yrk": 6495,
      "fre": 6496,
      "Ġhurtigere": 6497,
      "Ġrisi": 6498,
      "Ġsyv": 6499,
      "62": 6500,
      "Ġbegiven": 6501,
      "forbrug": 6502,
      "Ġtanke": 6503,
      "Ġyderst": 6504,
      "Ġstue": 6505,
      "kj": 6506,
      "Ġskue": 6507,
      "ĠHand": 6508,
      "Ġkonkret": 6509,
      "Ġ2003": 6510,
      "Ġbol": 6511,
      "Ġgift": 6512,
      "ĠfortÃ¦l": 6513,
      "Ð»": 6514,
      "stel": 6515,
      "ĠBorn": 6516,
      "Ġekstrem": 6517,
      "Ġalkohol": 6518,
      "artof": 6519,
      "ĠMED": 6520,
      "ĠmÃ¸des": 6521,
      "Ġbrede": 6522,
      "gyl": 6523,
      "Ġorganisation": 6524,
      "ospit": 6525,
      "press": 6526,
      "Ġbidrage": 6527,
      "Ġbeskyttelse": 6528,
      "Ġherefter": 6529,
      "Fe": 6530,
      "itor": 6531,
      "gro": 6532,
      "sson": 6533,
      "Ġgulv": 6534,
      "yske": 6535,
      "svaret": 6536,
      "Ã¦nds": 6537,
      "ates": 6538,
      "Ġforordning": 6539,
      "Ġselskaber": 6540,
      "ville": 6541,
      "Ġfund": 6542,
      "-/": 6543,
      "ĠMat": 6544,
      "kerer": 6545,
      "Ġ1000": 6546,
      "Ġovernatninger": 6547,
      "Ġback": 6548,
      "seende": 6549,
      "ĠTrÃ¦": 6550,
      "Ġbygning": 6551,
      "ĠsjÃ¦ldent": 6552,
      "hÃ¦ngigt": 6553,
      "ĠTid": 6554,
      "Che": 6555,
      "meldelser": 6556,
      "ĠdÃ¸ren": 6557,
      "job": 6558,
      "ĠklÃ¦": 6559,
      "Ġejendommen": 6560,
      "Ġgeneralforsamling": 6561,
      "Ġannoncer": 6562,
      "celine": 6563,
      "Ġnationale": 6564,
      "Ġstrand": 6565,
      "Ġudelukkende": 6566,
      "ĠHvorfor": 6567,
      "×ķ": 6568,
      "ĠafgÃ¸relse": 6569,
      "Ġboo": 6570,
      "gÃ¸res": 6571,
      "Ġunderstre": 6572,
      "tiklen": 6573,
      "Ġhvorvidt": 6574,
      "Ġpause": 6575,
      "Ġopskrifter": 6576,
      "Ã¸rrelse": 6577,
      "sbet": 6578,
      "Ġbilag": 6579,
      "atet": 6580,
      "IGH": 6581,
      "vÃ¦gt": 6582,
      "rt": 6583,
      "eld": 6584,
      "ĠlÃ¦ring": 6585,
      "formen": 6586,
      "ĠSn": 6587,
      "Ġbestilling": 6588,
      "Ġbibliote": 6589,
      "mag": 6590,
      "yright": 6591,
      "ref": 6592,
      "ĠfuldstÃ¦ndig": 6593,
      "Ġdagligt": 6594,
      "kten": 6595,
      "Ġsvarede": 6596,
      "ferat": 6597,
      "Ġsammenligne": 6598,
      "hent": 6599,
      "kode": 6600,
      "url": 6601,
      "Ġfeb": 6602,
      "Ġseng": 6603,
      "ĠsÃ¦lge": 6604,
      "ĠSÃ¸rensen": 6605,
      "strÃ¦": 6606,
      "Ġorden": 6607,
      "bes": 6608,
      "Ġboliger": 6609,
      "pre": 6610,
      "Ġopskrift": 6611,
      "','": 6612,
      "BOOKING": 6613,
      "Ġrecep": 6614,
      "ĠgennemfÃ¸rt": 6615,
      "ationalt": 6616,
      "OF": 6617,
      "skrifter": 6618,
      "Ġudnytte": 6619,
      "ĠNY": 6620,
      "Î¹": 6621,
      "Ġtilsvarende": 6622,
      "Ġna": 6623,
      "atellit": 6624,
      "ninge": 6625,
      "ĠprÃ¸vet": 6626,
      "nÃ¦vnte": 6627,
      "ĠbÃ¦r": 6628,
      "Ġforening": 6629,
      "mentere": 6630,
      "ĠkrÃ¦ft": 6631,
      "Ġkorte": 6632,
      "ruer": 6633,
      "ĠDS": 6634,
      "Ġbekvemmeligheder": 6635,
      "Ġvidste": 6636,
      "ums": 6637,
      "Ġlovgivning": 6638,
      "Ġaftal": 6639,
      "ografi": 6640,
      "Ã¦vnet": 6641,
      "ĠHorsens": 6642,
      "velser": 6643,
      "Ġplanter": 6644,
      "ĠKap": 6645,
      "tidens": 6646,
      "reet": 6647,
      "kat": 6648,
      "Vil": 6649,
      "Ġkvart": 6650,
      "bÃ¥nd": 6651,
      "avis": 6652,
      "Ġspiser": 6653,
      "Ġoppe": 6654,
      "utere": 6655,
      "Ġnaturligt": 6656,
      "Ġku": 6657,
      "yal": 6658,
      "Widget": 6659,
      "Ġkendskab": 6660,
      "Ġsommeren": 6661,
      "Ġbygninger": 6662,
      "We": 6663,
      "mÃ¦nd": 6664,
      "ĠHusk": 6665,
      "staltninger": 6666,
      "Ġsatte": 6667,
      "ĠDy": 6668,
      "Ġudsalg": 6669,
      "ĠfÃ¥s": 6670,
      "Ġoverord": 6671,
      "kÃ¸bing": 6672,
      "Ġvildt": 6673,
      "Ġshow": 6674,
      "Ġgyl": 6675,
      "Ġkvalitets": 6676,
      "rÃ¸d": 6677,
      "IndlÃ¦g": 6678,
      "Ġho": 6679,
      "Grid": 6680,
      "Ġordent": 6681,
      "Ġpolitiet": 6682,
      "Ġvirksomhedens": 6683,
      "byggelse": 6684,
      "ĠDog": 6685,
      "Ġchokolade": 6686,
      "tilf": 6687,
      "Ġhigh": 6688,
      "ĠkÃ¸benhavn": 6689,
      "Ġspa": 6690,
      "ĠlÃ¦ng": 6691,
      "ĠfÃ¸lelse": 6692,
      "ĠMer": 6693,
      "MA": 6694,
      "ĠhÃ¸rt": 6695,
      "terings": 6696,
      "ĠsÃ¸rge": 6697,
      "ĠansÃ¸gning": 6698,
      "Ġafsl": 6699,
      "Ġrek": 6700,
      "strÃ¸m": 6701,
      "Ġslu": 6702,
      "opgaver": 6703,
      "levet": 6704,
      "Ġveri": 6705,
      "ĠlÃ¦kkert": 6706,
      "Ġ..": 6707,
      "ĠHo": 6708,
      "==": 6709,
      "ĠsÃ¸vn": 6710,
      "bere": 6711,
      "leret": 6712,
      "skat": 6713,
      "ĠVI": 6714,
      "sal": 6715,
      "Ġreglerne": 6716,
      "ĠiPhone": 6717,
      "ory": 6718,
      "ĠDo": 6719,
      "Ġbegynde": 6720,
      "Ġget": 6721,
      "TE": 6722,
      "Ġkandid": 6723,
      "Â®": 6724,
      "Ġstykker": 6725,
      "Ġfug": 6726,
      "Ġkiggede": 6727,
      "lingerne": 6728,
      "ĠRy": 6729,
      "ros": 6730,
      "Ġabout": 6731,
      "skifte": 6732,
      "Ã¸ret": 6733,
      "Ġtilh": 6734,
      "ĠimÃ¸de": 6735,
      "Ġturen": 6736,
      "ĠOut": 6737,
      "FLOW": 6738,
      "ĠFC": 6739,
      "Ġtryg": 6740,
      "ĠLog": 6741,
      "ĠMari": 6742,
      "nerne": 6743,
      "ĠGreen": 6744,
      "Ġnede": 6745,
      "Ġjern": 6746,
      "Ġhurtige": 6747,
      "ORD": 6748,
      "ĠLund": 6749,
      "Ġheldigvis": 6750,
      "NEW": 6751,
      "Ġenhed": 6752,
      "ĠAug": 6753,
      "Ġforventer": 6754,
      "ĠgrÃ¦nse": 6755,
      "tur": 6756,
      "listen": 6757,
      "skema": 6758,
      "ATION": 6759,
      "ĠVin": 6760,
      "Derfor": 6761,
      "ĠAk": 6762,
      "fÃ¸rsel": 6763,
      "Ġimple": 6764,
      "ĠJylland": 6765,
      "gri": 6766,
      "Ġudlandet": 6767,
      "Ġmedvir": 6768,
      "ĠEnd": 6769,
      "sministeriet": 6770,
      "ĠHÃ¥nd": 6771,
      "ÃŃ": 6772,
      "Ġlinks": 6773,
      "ĠJÃ¸rgensen": 6774,
      "oret": 6775,
      "Ġmake": 6776,
      "Ã¤n": 6777,
      "Ġtekniske": 6778,
      "standen": 6779,
      "ĠDeres": 6780,
      "off": 6781,
      "timent": 6782,
      "ĠMusik": 6783,
      "ĠfÃ¶r": 6784,
      "Ġderimod": 6785,
      "light": 6786,
      "oug": 6787,
      "Ġudarbejdet": 6788,
      "akob": 6789,
      "ĠHelle": 6790,
      "Ġring": 6791,
      "ĠHave": 6792,
      "dsjÃ¦lland": 6793,
      "ymnasi": 6794,
      "Î¿": 6795,
      "Ġondt": 6796,
      "ĠPal": 6797,
      "partner": 6798,
      "ĠnÃ¦rmeste": 6799,
      "ĠMod": 6800,
      "Ġmave": 6801,
      "Ġroom": 6802,
      "ĠsÃ¸rger": 6803,
      "otter": 6804,
      "ĠApple": 6805,
      "Ġskete": 6806,
      "Ġplante": 6807,
      "ĠDem": 6808,
      "Ġtidligt": 6809,
      "ĠMi": 6810,
      "onth": 6811,
      "dstil": 6812,
      "Fre": 6813,
      "Ġintegre": 6814,
      "Ġjournali": 6815,
      "grammer": 6816,
      "Ġnyheder": 6817,
      "ĠKla": 6818,
      "Ġ?": 6819,
      "ĠMax": 6820,
      "ktÃ¸jer": 6821,
      "Ġ49": 6822,
      "Ġ41": 6823,
      "llet": 6824,
      "analy": 6825,
      "Ġdagens": 6826,
      "rang": 6827,
      "ĠBÃ¸ger": 6828,
      "Ġudvikler": 6829,
      "ĠKra": 6830,
      "Ġlevende": 6831,
      "ĠbÃ¸": 6832,
      "Ġunikke": 6833,
      "anceret": 6834,
      "Ġkonfli": 6835,
      "fest": 6836,
      "sid": 6837,
      "chef": 6838,
      "ĠMicrosoft": 6839,
      "AIL": 6840,
      "anien": 6841,
      "ĠTw": 6842,
      "lÃ¦gges": 6843,
      "Ġvedkommende": 6844,
      "»¿": 6845,
      "Ġ@": 6846,
      "ofte": 6847,
      "butikker": 6848,
      "Ġpre": 6849,
      "bt": 6850,
      "Ġenor": 6851,
      "ĠÃ¥n": 6852,
      "Ã¸jelse": 6853,
      "Ġomgivelser": 6854,
      "ĠtrÃ¦t": 6855,
      "Ġgas": 6856,
      "Ġnormal": 6857,
      "Con": 6858,
      "Ġmax": 6859,
      "Ġfulde": 6860,
      "ï»¿": 6861,
      "kasse": 6862,
      "ĠmÃ¦r": 6863,
      "Ġinddra": 6864,
      "cc": 6865,
      "ĠÃ¥bent": 6866,
      "sident": 6867,
      "Ġfirmae": 6868,
      "ĠComm": 6869,
      "Ġudbet": 6870,
      "Ġsmil": 6871,
      "ĠLÃ¦der": 6872,
      "Ġskatter": 6873,
      "Ġeventuelle": 6874,
      "ams": 6875,
      "ĠhÃ¦nder": 6876,
      "status": 6877,
      "ĠdÃ¦k": 6878,
      "gik": 6879,
      "ĠBerlin": 6880,
      "ĠrengÃ¸ring": 6881,
      "adresse": 6882,
      "eth": 6883,
      "sien": 6884,
      "\"],\"": 6885,
      "Ġki": 6886,
      "web": 6887,
      "byder": 6888,
      "certifik": 6889,
      "Ġvoksen": 6890,
      "Jo": 6891,
      "hygge": 6892,
      "Ġforsvar": 6893,
      "umpe": 6894,
      "Ġanledning": 6895,
      "Ġdejlige": 6896,
      "formand": 6897,
      "num": 6898,
      "Ġstranden": 6899,
      "Ġeffektivt": 6900,
      "Ġsamfunds": 6901,
      "Kr": 6902,
      "lect": 6903,
      "aft": 6904,
      "Ġeftermid": 6905,
      "ĠundersÃ¸gelser": 6906,
      "×Ĳ": 6907,
      "Ste": 6908,
      "Ġartikler": 6909,
      "ancen": 6910,
      "ĠKen": 6911,
      "klager": 6912,
      "Ġkron": 6913,
      "ĠNational": 6914,
      "Ġvedr": 6915,
      "Ġbefinder": 6916,
      "î¥": 6917,
      "ENS": 6918,
      "ĠsÃ¥kaldte": 6919,
      "ĠmÃ¸rke": 6920,
      "icielle": 6921,
      "Ġindkvar": 6922,
      "Ġslutningen": 6923,
      "ain": 6924,
      "timer": 6925,
      "ĠdÃ©t": 6926,
      "fÃ¦lge": 6927,
      "Indsendt": 6928,
      "smÃ¸de": 6929,
      "Ġumiddelbart": 6930,
      "ĠPat": 6931,
      "llere": 6932,
      "Ġideer": 6933,
      "Ġsygdomme": 6934,
      "ĠtÃ¸": 6935,
      "Ġcentrale": 6936,
      "Ġpga": 6937,
      "Ġplane": 6938,
      "veres": 6939,
      "ĠRestaurant": 6940,
      "ux": 6941,
      "ĠSilkeborg": 6942,
      "ĠBlÃ¥": 6943,
      "Ġfirmaer": 6944,
      "ĠMÃ¥l": 6945,
      "ĠRÃ¥d": 6946,
      "Ġsite": 6947,
      "ĠFore": 6948,
      "ĠFrederik": 6949,
      "Ġprofessionel": 6950,
      "ĠBud": 6951,
      "rea": 6952,
      "ssor": 6953,
      "Ġhul": 6954,
      "Ġhavet": 6955,
      "rator": 6956,
      "ĠDie": 6957,
      "osis": 6958,
      "rift": 6959,
      "ĠLyng": 6960,
      "OC": 6961,
      "kli": 6962,
      "ĠlagerLevering": 6963,
      "kamp": 6964,
      "udvalg": 6965,
      "Ġfrokost": 6966,
      "Ġrente": 6967,
      "ays": 6968,
      "kede": 6969,
      "Ġhid": 6970,
      "kro": 6971,
      "Ġmedlemsst": 6972,
      "Ġsamle": 6973,
      "ulering": 6974,
      "fit": 6975,
      "Ġhuse": 6976,
      "Ġchance": 6977,
      "maskiner": 6978,
      "gul": 6979,
      "ÏĦ": 6980,
      "Ġinternettet": 6981,
      "Ġhistorier": 6982,
      "ĠEuropÃ¦iske": 6983,
      "Ġpositiv": 6984,
      "ĠsÃ¸d": 6985,
      "orefter": 6986,
      "Ġterrasse": 6987,
      "gas": 6988,
      "igation": 6989,
      "lÃ¦gger": 6990,
      "Ġderved": 6991,
      "uster": 6992,
      "derslev": 6993,
      "regler": 6994,
      "Ġemb": 6995,
      "ĠLuft": 6996,
      "Ġbonusovernatning": 6997,
      "see": 6998,
      "Ġmoti": 6999,
      "lysning": 7000,
      "Bid": 7001,
      "Ġlast": 7002,
      "arter": 7003,
      "ansvar": 7004,
      "Hos": 7005,
      "ĠKnud": 7006,
      "ĠLind": 7007,
      "SD": 7008,
      "Ġserie": 7009,
      "Ġligner": 7010,
      "Ġhandling": 7011,
      "Que": 7012,
      "Ġkonstant": 7013,
      "omi": 7014,
      "Ġlyse": 7015,
      "Ġadministration": 7016,
      "anke": 7017,
      "ĠvÃ¦rdie": 7018,
      "px": 7019,
      "hedsbrev": 7020,
      "GE": 7021,
      "unes": 7022,
      "Ġsmukt": 7023,
      "Bo": 7024,
      "Ġadskillige": 7025,
      "Mange": 7026,
      "Ġ120": 7027,
      "ava": 7028,
      "ĠTilbage": 7029,
      "ikken": 7030,
      "serva": 7031,
      "OB": 7032,
      "Ġinfe": 7033,
      "ĠopmÃ¦rksomhed": 7034,
      "Ġinstitutioner": 7035,
      "ĠforÃ¥ret": 7036,
      "Ġ47": 7037,
      "ĠvÃ¦rdier": 7038,
      "Log": 7039,
      "systemet": 7040,
      "ĠovervÃ¥": 7041,
      "onnement": 7042,
      "Ġrob": 7043,
      "Ġtiltag": 7044,
      "Ġlyn": 7045,
      "ĠÃ¥rsager": 7046,
      "Ġhard": 7047,
      "ĠGam": 7048,
      "mage": 7049,
      "Ġstillede": 7050,
      "Ġpop": 7051,
      "ju": 7052,
      "ĠMÃ¸ller": 7053,
      "Ġrest": 7054,
      "ĠRegn": 7055,
      "ribu": 7056,
      "materiale": 7057,
      "ĠtÃ¦tte": 7058,
      "Ġskoler": 7059,
      "ume": 7060,
      "Ġfaldt": 7061,
      "Ġmarkant": 7062,
      "png": 7063,
      "ĠÃ¸jnene": 7064,
      "Ġtun": 7065,
      "smÃ¦ssigt": 7066,
      "Ġsky": 7067,
      "Ġbenytter": 7068,
      "ĠlÃ¦s": 7069,
      "Ġinteresseret": 7070,
      "ĠAust": 7071,
      "Ġstillet": 7072,
      "Ġlykkedes": 7073,
      "cien": 7074,
      "Ġipad": 7075,
      "ĠÃħrs": 7076,
      "ĠDavidsen": 7077,
      "ĠkÃ¸bes": 7078,
      "lyst": 7079,
      "Ġ$$": 7080,
      "Ġforbinde": 7081,
      "Ġindustri": 7082,
      "ĠNat": 7083,
      "Ġapr": 7084,
      "Ġproblemet": 7085,
      "ĠskÃ¦": 7086,
      "mÃ¥let": 7087,
      "Ġkonstate": 7088,
      "ĠAs": 7089,
      "Ġbutikken": 7090,
      "('.": 7091,
      "astrup": 7092,
      "skade": 7093,
      "Ġtips": 7094,
      "Ġhvorefter": 7095,
      "ular": 7096,
      "Kom": 7097,
      "2012": 7098,
      "Ġemner": 7099,
      "ĠBemÃ¦rk": 7100,
      "udi": 7101,
      "Ġhil": 7102,
      "ĠhÃ¥rd": 7103,
      "rationer": 7104,
      "ĠKim": 7105,
      "har": 7106,
      "ĠSundheds": 7107,
      "Ġdame": 7108,
      "Ġbrev": 7109,
      "Ġforkert": 7110,
      "cks": 7111,
      "BA": 7112,
      "Ġfi": 7113,
      "Ġhverdage": 7114,
      "rad": 7115,
      "Ġep": 7116,
      "ĠdÃ¸gn": 7117,
      "ĠKomp": 7118,
      "ures": 7119,
      "haven": 7120,
      "vie": 7121,
      "ĠRom": 7122,
      "UM": 7123,
      "cielle": 7124,
      "Ġkonge": 7125,
      "ORT": 7126,
      "Ġfoto": 7127,
      "Ġprofessionelle": 7128,
      "Ġregistreret": 7129,
      "virksomhed": 7130,
      "dannelse": 7131,
      "ĠNyheder": 7132,
      "ĠMeget": 7133,
      "Ġpan": 7134,
      "Ġrevide": 7135,
      "Ġudfyl": 7136,
      "Ġ56": 7137,
      "Ġsaa": 7138,
      "ĠfÃ¸lelser": 7139,
      "Ġhenholdsvis": 7140,
      "Ġfrivillige": 7141,
      "verer": 7142,
      "Ġ02": 7143,
      "ĠLis": 7144,
      "ĠtrÃ¦ner": 7145,
      "ĠUanset": 7146,
      "ĠdÃ¥rligt": 7147,
      "ĠLille": 7148,
      "Ġminister": 7149,
      "ĠKunst": 7150,
      "lish": 7151,
      "Ġudover": 7152,
      "ĠKat": 7153,
      "Ġvalut": 7154,
      "');": 7155,
      "ĠHoved": 7156,
      "ssion": 7157,
      "Ġudvalgte": 7158,
      "Ġbeskrevet": 7159,
      "ĠangÃ¥r": 7160,
      "ĠSelvom": 7161,
      "ĠmÃ¥ler": 7162,
      "ĠkÃ¸rsel": 7163,
      "Ġirri": 7164,
      "Ġaff": 7165,
      "Ġ85": 7166,
      "ĠMc": 7167,
      "Bidrager": 7168,
      "Ġni": 7169,
      "Ġuse": 7170,
      "volu": 7171,
      "Ġkategorien": 7172,
      "ities": 7173,
      "stret": 7174,
      "ftede": 7175,
      "strategi": 7176,
      "smo": 7177,
      "Ġregistrering": 7178,
      "test": 7179,
      "ĠGal": 7180,
      "Ġow": 7181,
      "Ġeksempler": 7182,
      "Ġfortalte": 7183,
      "ĠAT": 7184,
      "Ġmilit": 7185,
      "Ġcor": 7186,
      "ĠslÃ¥r": 7187,
      "Kontakt": 7188,
      "beg": 7189,
      "ex": 7190,
      "Ġbange": 7191,
      "ĠlÃ¦st": 7192,
      "Ġpositive": 7193,
      "ĠmÃ¦ngde": 7194,
      "ĠKlima": 7195,
      "verden": 7196,
      "zza": 7197,
      "ĠThor": 7198,
      "ĠHav": 7199,
      "ĠStk": 7200,
      "Ġseri": 7201,
      "Ġkilometer": 7202,
      "vilkÃ¥r": 7203,
      "cla": 7204,
      "Danmark": 7205,
      "Ġtingene": 7206,
      "Ġyde": 7207,
      "ĠTre": 7208,
      "SS": 7209,
      "Ġ64": 7210,
      "ĠSidst": 7211,
      "redse": 7212,
      "Ġgood": 7213,
      "ĠHigh": 7214,
      "Ġeksis": 7215,
      "Ġperspe": 7216,
      "bri": 7217,
      "ĠMaria": 7218,
      "ĠFree": 7219,
      "irsdag": 7220,
      "Ġmedie": 7221,
      "fuldt": 7222,
      "Ġvejret": 7223,
      "ĠlÃ¦ngde": 7224,
      "hy": 7225,
      "Ġindtryk": 7226,
      "punkt": 7227,
      "Ġclass": 7228,
      "Ġhjertet": 7229,
      "Ġvit": 7230,
      "rab": 7231,
      "Ikke": 7232,
      "Ġavis": 7233,
      "Ġpassende": 7234,
      "ĠdrÃ¸mme": 7235,
      "Ġshopping": 7236,
      "Ġopvar": 7237,
      "Ġdrejer": 7238,
      "ĠefterÃ¥ret": 7239,
      "selskabet": 7240,
      "jent": 7241,
      "rg": 7242,
      "ĠtilgÃ¦ngelig": 7243,
      "ĠmÃ¸bler": 7244,
      "ANCE": 7245,
      "Ġ:-)": 7246,
      "indre": 7247,
      "Ġfremmest": 7248,
      "sborg": 7249,
      "Ġkunden": 7250,
      "ĠShop": 7251,
      "forsikring": 7252,
      "ica": 7253,
      "personer": 7254,
      "ftelse": 7255,
      "Ġprocessen": 7256,
      "ĠudfÃ¸res": 7257,
      "Ġdownlo": 7258,
      "Ġberet": 7259,
      "hÃ¸rende": 7260,
      "ĠÃħb": 7261,
      "ĠEngland": 7262,
      "bÃ¸rn": 7263,
      "computer": 7264,
      "ĠMikke": 7265,
      "ĠStark": 7266,
      "otos": 7267,
      "Ġorganisationer": 7268,
      "Ġbryllu": 7269,
      "ĠSommer": 7270,
      "ESS": 7271,
      "Ġepub": 7272,
      "ĠnÃ¸dvendig": 7273,
      "ĠInden": 7274,
      "Ġtraditionelle": 7275,
      "tran": 7276,
      "navn": 7277,
      "Mad": 7278,
      "nappen": 7279,
      "ĠforsÃ¸ge": 7280,
      "Ġheraf": 7281,
      "Ġ52": 7282,
      "but": 7283,
      "Tablet": 7284,
      "ĠAM": 7285,
      "ĠVirksom": 7286,
      "endes": 7287,
      "ĠHotellet": 7288,
      "GEN": 7289,
      "Ġherre": 7290,
      "ĠInternational": 7291,
      "Sy": 7292,
      "Ġstreaming": 7293,
      "tilskud": 7294,
      "];": 7295,
      "Ġfremstillet": 7296,
      "ĠforÃ¦ld": 7297,
      "Ġsil": 7298,
      "issionens": 7299,
      "lemme": 7300,
      "RID": 7301,
      "ĠHam": 7302,
      "Ġregeringen": 7303,
      "Ġsvenske": 7304,
      "Ġbeskriver": 7305,
      "filer": 7306,
      "ÃĺF": 7307,
      "Ġbegyndelsen": 7308,
      "sor": 7309,
      "Ġgravid": 7310,
      "ality": 7311,
      "max": 7312,
      "Ġordren": 7313,
      "Ġhad": 7314,
      "123": 7315,
      "any": 7316,
      "syning": 7317,
      "Ġkasse": 7318,
      "ĠNyt": 7319,
      "Ġart": 7320,
      "Ġkonsekvenser": 7321,
      "ĠLiv": 7322,
      "Ġresul": 7323,
      "ĠtrÃ¦ffe": 7324,
      "ĠEks": 7325,
      "igen": 7326,
      "Ġany": 7327,
      "steret": 7328,
      "ĠkÃ¸ret": 7329,
      "Ã¸jag": 7330,
      "ĠKal": 7331,
      "letter": 7332,
      "Ġkritik": 7333,
      "ump": 7334,
      "ĠBornholm": 7335,
      "subscription": 7336,
      "sch": 7337,
      "Ġkonklu": 7338,
      "myn": 7339,
      "Ġofficielle": 7340,
      ".Â«": 7341,
      "sÃ¦tninger": 7342,
      "Ġcentral": 7343,
      "aer": 7344,
      "ĠMobil": 7345,
      "ĠnÃ¸je": 7346,
      "Ġveje": 7347,
      "Ġsommerhus": 7348,
      "fÃ¸j": 7349,
      "illerÃ¸d": 7350,
      "die": 7351,
      "try": 7352,
      "jek": 7353,
      "ĠFuld": 7354,
      "kraft": 7355,
      "Ġinkluderet": 7356,
      "keret": 7357,
      "Ġsmerter": 7358,
      "asy": 7359,
      "sionen": 7360,
      "Ġ03": 7361,
      "ĠfÃ¸rende": 7362,
      "PRICE": 7363,
      "sung": 7364,
      "Ġotte": 7365,
      "ĠPra": 7366,
      "CD": 7367,
      "Ġansigt": 7368,
      "stue": 7369,
      "Ġoverflade": 7370,
      "ĠsÃ¦ttes": 7371,
      "ĠPrÃ¸": 7372,
      "spÃ¦rre": 7373,
      "Ġvedligeholdelse": 7374,
      "Ġresultatet": 7375,
      "Ã¨": 7376,
      "reservation": 7377,
      "onerende": 7378,
      "hvert": 7379,
      "Ġkaldet": 7380,
      "agende": 7381,
      "ded": 7382,
      "Ġcamping": 7383,
      "Ġhverdagen": 7384,
      "Ġoprindelige": 7385,
      "ĠAR": 7386,
      "Ġlike": 7387,
      "icia": 7388,
      "demokra": 7389,
      "Ġtilt": 7390,
      "Ġvender": 7391,
      "ativer": 7392,
      "Ġtillige": 7393,
      "ĠreprÃ¦sent": 7394,
      "ĠAntal": 7395,
      "ĠBusiness": 7396,
      "ĠTelefon": 7397,
      "zen": 7398,
      "Is": 7399,
      "î¥¤": 7400,
      "Ġmist": 7401,
      "Ġopdater": 7402,
      "Ġfred": 7403,
      "Ġvurder": 7404,
      "just": 7405,
      "Ġfli": 7406,
      "wood": 7407,
      "ralt": 7408,
      "sky": 7409,
      "Ġbestemmelser": 7410,
      "Ġbringe": 7411,
      "Ġapote": 7412,
      "ĠStra": 7413,
      "ĠBygma": 7414,
      "ĠWorld": 7415,
      "gres": 7416,
      "Ġfavorit": 7417,
      "dklÃ¦": 7418,
      "ĠÃ¸jeblik": 7419,
      "ĠhÃ¸": 7420,
      "Ġfel": 7421,
      "Ġforklar": 7422,
      "Ġmer": 7423,
      "overing": 7424,
      "ĠGrund": 7425,
      "Hotellet": 7426,
      "Name": 7427,
      "Ġhandicap": 7428,
      "iche": 7429,
      "abri": 7430,
      "Ġother": 7431,
      "ĠMiddel": 7432,
      "mene": 7433,
      "Ġaftaler": 7434,
      "asing": 7435,
      "Ġleveres": 7436,
      "Ġkombination": 7437,
      "Ġingre": 7438,
      "Ġscen": 7439,
      "Ġbehandlingen": 7440,
      "Ġfamilier": 7441,
      "Ġsolgt": 7442,
      "Ġoplevet": 7443,
      "tilfreds": 7444,
      "Ġdetalje": 7445,
      "Ġafbestilling": 7446,
      "ĠtrÃ¦n": 7447,
      "ĠspÃ¸rger": 7448,
      "burg": 7449,
      "Spar": 7450,
      "ĠNÃ¸r": 7451,
      "Ġbunden": 7452,
      "ĠRu": 7453,
      "Ġ04": 7454,
      "Ġmateri": 7455,
      "Ġanvendt": 7456,
      "Ġ2002": 7457,
      "ĠhÃ¥nden": 7458,
      "ĠUSB": 7459,
      "base": 7460,
      "valgt": 7461,
      "sorg": 7462,
      "Ġtilgang": 7463,
      "ĠâĤ¬": 7464,
      "Ġreklame": 7465,
      "ĠIND": 7466,
      "\":{": 7467,
      "ureau": 7468,
      "skift": 7469,
      "rettede": 7470,
      "ĠJon": 7471,
      "ĠFragtfrit": 7472,
      "Ġsvare": 7473,
      "Ġbidrag": 7474,
      "Ġkategori": 7475,
      "ĠHold": 7476,
      "lles": 7477,
      "meter": 7478,
      "Ġsav": 7479,
      "seng": 7480,
      "Ġoversigt": 7481,
      "Ġogs": 7482,
      "ĠJakob": 7483,
      "abled": 7484,
      "fisk": 7485,
      "ĠafhÃ¦ngig": 7486,
      "biler": 7487,
      "muligheder": 7488,
      "ĠBlue": 7489,
      "Ġsports": 7490,
      "ketinget": 7491,
      "Ġstars": 7492,
      "Ġansig": 7493,
      "gtninge": 7494,
      "ĠhÃ¥ndtere": 7495,
      "Ġfungere": 7496,
      "Ġillu": 7497,
      "stern": 7498,
      "Ġforberede": 7499,
      "ĠPÃħ": 7500,
      "Tag": 7501,
      "Ġemne": 7502,
      "ĠmÃ¥le": 7503,
      "ula": 7504,
      "tiget": 7505,
      "Ġumu": 7506,
      "Ġstu": 7507,
      "stemme": 7508,
      "gten": 7509,
      "ij": 7510,
      "sikkerhed": 7511,
      "ĠkÃ¸rte": 7512,
      "Ġskift": 7513,
      "ĠPlus": 7514,
      "Ġbesluttet": 7515,
      "ska": 7516,
      "ĠNye": 7517,
      "Ġretten": 7518,
      "Ġeen": 7519,
      "celler": 7520,
      "malt": 7521,
      "ĠtrÃ¦kker": 7522,
      "Ġgalt": 7523,
      "ĠiP": 7524,
      "Ġstruktur": 7525,
      "Â¦": 7526,
      "\";": 7527,
      "Ġdamer": 7528,
      "alisering": 7529,
      "ople": 7530,
      "Ġbygger": 7531,
      "./": 7532,
      "ruk": 7533,
      "ĠPre": 7534,
      "Super": 7535,
      "Ġchat": 7536,
      "ĠArk": 7537,
      "spillere": 7538,
      "isme": 7539,
      "grammet": 7540,
      "ĠsÃ¥r": 7541,
      "Ġ99": 7542,
      "slen": 7543,
      "Ġhensigt": 7544,
      "Å¿": 7545,
      "ĠsÃ¸lv": 7546,
      "ĠSiden": 7547,
      "ross": 7548,
      "Ġproduceret": 7549,
      "ĠSU": 7550,
      "Ġtill": 7551,
      "ĠknÃ¦": 7552,
      "Ġforetages": 7553,
      "Ġlaveste": 7554,
      "Ġrede": 7555,
      "Ġenige": 7556,
      "tog": 7557,
      "aben": 7558,
      "Ġsyntes": 7559,
      "Ġeksklu": 7560,
      "Ġregne": 7561,
      "ĠElekt": 7562,
      "ĠunderstÃ¸tter": 7563,
      "stens": 7564,
      "Ġheste": 7565,
      "RUP": 7566,
      "Ġvirkning": 7567,
      "Model": 7568,
      "Ġkartof": 7569,
      "ĠtÃ¦nkt": 7570,
      "virkninger": 7571,
      "ĠKop": 7572,
      "somrÃ¥det": 7573,
      "ĠAgoda": 7574,
      "Ġkollega": 7575,
      "udvik": 7576,
      "Ã¦ne": 7577,
      "ĠsÃ¦lges": 7578,
      "Ġitalien": 7579,
      "Ġ[\"": 7580,
      "oga": 7581,
      "ĠManager": 7582,
      "Ġbenyttes": 7583,
      "ocument": 7584,
      "ssam": 7585,
      "brit": 7586,
      "DER": 7587,
      "ĠVia": 7588,
      "Ġsamtale": 7589,
      "ĠnÃ¸": 7590,
      "link": 7591,
      "ĠLegetÃ¸j": 7592,
      "ĠKor": 7593,
      "ĠBÃ¥de": 7594,
      "ĠGi": 7595,
      "Ġramt": 7596,
      "lemt": 7597,
      "Ġlands": 7598,
      "Ġrapp": 7599,
      "bus": 7600,
      "Ġhypp": 7601,
      "Ġdeltagere": 7602,
      "ĠIsland": 7603,
      "Ġkyl": 7604,
      "Ġpersonligt": 7605,
      "day": 7606,
      "ĠPaul": 7607,
      "Â§": 7608,
      "Ġluksus": 7609,
      "Ġdate": 7610,
      "rÃ¸j": 7611,
      "mÃ¦rkelses": 7612,
      "Ġtalt": 7613,
      "Ġplaner": 7614,
      "New": 7615,
      "Ġpc": 7616,
      "dress": 7617,
      "Ġbegyndt": 7618,
      "Ġforvejen": 7619,
      "Ðº": 7620,
      "SI": 7621,
      "ool": 7622,
      "Hej": 7623,
      "ĠstÃ¸j": 7624,
      "alder": 7625,
      "ĠSla": 7626,
      "gives": 7627,
      "Ġdengang": 7628,
      "fikationer": 7629,
      "ĠMit": 7630,
      "Ġmidten": 7631,
      "Ġegenskaber": 7632,
      "Ġ600": 7633,
      "linge": 7634,
      "ĠSystem": 7635,
      "Ġproced": 7636,
      "skÃ¦": 7637,
      "serer": 7638,
      "tagerne": 7639,
      "Kan": 7640,
      "Ġcomplet": 7641,
      "ĠInformation": 7642,
      "ĠPL": 7643,
      "Ġwell": 7644,
      "Ġarrangementer": 7645,
      "Ġdigital": 7646,
      "Ġsupport": 7647,
      "Saml": 7648,
      "Ġbatteri": 7649,
      "vÃ¦rker": 7650,
      "Sele": 7651,
      "ĠRestauranter": 7652,
      "ĠHome": 7653,
      "Ġkurser": 7654,
      "ĠvÃ¦sentlig": 7655,
      "':": 7656,
      "ĠSus": 7657,
      "urtig": 7658,
      "oris": 7659,
      "smÃ¥l": 7660,
      "Ġkapacitet": 7661,
      "ĠbesÃ¸ger": 7662,
      "Ġafsted": 7663,
      "ĠSten": 7664,
      "ĠSpa": 7665,
      "'.": 7666,
      "bruget": 7667,
      "Gennem": 7668,
      "hjul": 7669,
      "Query": 7670,
      "Ġudtale": 7671,
      "Ġimponerende": 7672,
      "ĠHÃ¸jde": 7673,
      "Ġgavn": 7674,
      "Ġsent": 7675,
      "ĠGolf": 7676,
      "ĠunderstÃ¸tte": 7677,
      "opyright": 7678,
      "Ġhyggeligt": 7679,
      "ĠKur": 7680,
      "ĠBay": 7681,
      "ani": 7682,
      "billeder": 7683,
      "ĠomstÃ¦n": 7684,
      "agram": 7685,
      "INS": 7686,
      "ĠadfÃ¦rd": 7687,
      "ript": 7688,
      "Ġrunde": 7689,
      "ĠfÃ¦ng": 7690,
      "rich": 7691,
      "ĠInstitut": 7692,
      "plade": 7693,
      "Ġaftenen": 7694,
      "ftes": 7695,
      "ordningen": 7696,
      "Ġil": 7697,
      "Ġopfattelse": 7698,
      "ĠPol": 7699,
      "Ġafholdt": 7700,
      "Stk": 7701,
      "rerende": 7702,
      "ĠslÃ¥et": 7703,
      "ĠFÃ¸l": 7704,
      "vd": 7705,
      "anger": 7706,
      "oliday": 7707,
      "Ġeventyr": 7708,
      "Ġetc": 7709,
      "ics": 7710,
      "Ġrisikoen": 7711,
      "stype": 7712,
      "Ġdanmark": 7713,
      "Ġlejligheder": 7714,
      "Ġmal": 7715,
      "ĠBoot": 7716,
      "chn": 7717,
      "Ġfordelt": 7718,
      "ĠThai": 7719,
      "LER": 7720,
      "ledyr": 7721,
      "ĠSimon": 7722,
      "agno": 7723,
      "Ġminde": 7724,
      "Ġkapital": 7725,
      "Ġinstallation": 7726,
      "ĠCharlot": 7727,
      "Ġlavede": 7728,
      "bran": 7729,
      "Ġreducere": 7730,
      "lite": 7731,
      "Ġslan": 7732,
      "Slet": 7733,
      "vind": 7734,
      "Ġbra": 7735,
      "ĠEF": 7736,
      "ĠstrÃ¥": 7737,
      "EU": 7738,
      "Ġ95": 7739,
      "Ġfylder": 7740,
      "Kommende": 7741,
      "AF": 7742,
      "vares": 7743,
      "ĠVide": 7744,
      "opper": 7745,
      "Ġsortiment": 7746,
      "gÃ¥rden": 7747,
      "Di": 7748,
      "Ġudsat": 7749,
      "slaget": 7750,
      "dic": 7751,
      "sager": 7752,
      "sdÃ¦k": 7753,
      "bon": 7754,
      "Ġnote": 7755,
      "fici": 7756,
      "argeting": 7757,
      "aen": 7758,
      "Ġindeb": 7759,
      "elsen": 7760,
      "fic": 7761,
      "ĠÃ¥rligt": 7762,
      "ĠMads": 7763,
      "passe": 7764,
      "aten": 7765,
      "Ġque": 7766,
      "âĢ¦]": 7767,
      "ĠNÃ¦st": 7768,
      "ĠnÃ¦vnte": 7769,
      "Ġdiskus": 7770,
      "slutning": 7771,
      "GRID": 7772,
      "Ġ360": 7773,
      "Ġfiler": 7774,
      "ssystem": 7775,
      "ĠSty": 7776,
      "Ġcompleto": 7777,
      "Popul": 7778,
      "ĠselvstÃ¦n": 7779,
      "PT": 7780,
      "ments": 7781,
      "$/": 7782,
      "ĠNÃ¸rre": 7783,
      "asc": 7784,
      "Ġfranske": 7785,
      "ĠCarl": 7786,
      "ĠsÃ¦dvan": 7787,
      "Ġnum": 7788,
      "Ġye": 7789,
      "Ġliter": 7790,
      "bid": 7791,
      "dby": 7792,
      "ĠSundhed": 7793,
      "okument": 7794,
      "skaffe": 7795,
      "place": 7796,
      "Standard": 7797,
      "dstaden": 7798,
      "ĠTom": 7799,
      "ashion": 7800,
      "givende": 7801,
      "ĠLej": 7802,
      "Ġdol": 7803,
      "Ġhemme": 7804,
      "ĠkÃ¸bet": 7805,
      "bringe": 7806,
      "ï½¨": 7807,
      "ĠforÃ¥rs": 7808,
      "work": 7809,
      "OV": 7810,
      "alerne": 7811,
      "Ġindrettet": 7812,
      "tab": 7813,
      "ĠâĢº": 7814,
      "Ge": 7815,
      "sej": 7816,
      "Count": 7817,
      "][": 7818,
      "Ġwebshops": 7819,
      "ĠKro": 7820,
      "ĠAlex": 7821,
      "ĠSkriv": 7822,
      "Ġminder": 7823,
      "Ġ2001": 7824,
      "Ġkommunens": 7825,
      "ĠarbejdsmiljÃ¸": 7826,
      "Ġledere": 7827,
      "Ġevne": 7828,
      "osof": 7829,
      "iste": 7830,
      "ĠSpanien": 7831,
      "ĠId": 7832,
      "ficere": 7833,
      "ĠGa": 7834,
      "ĠOff": 7835,
      "britan": 7836,
      "DC": 7837,
      "ĠDom": 7838,
      "ĠÃ¥rhun": 7839,
      "fikation": 7840,
      "INTER": 7841,
      "kostninger": 7842,
      "Ġakut": 7843,
      "dam": 7844,
      "Ġafspe": 7845,
      "plo": 7846,
      "mode": 7847,
      "Ġtilladelse": 7848,
      "Ġsystemer": 7849,
      "Ġanses": 7850,
      "lean": 7851,
      "Ġgenerelle": 7852,
      "ĠOs": 7853,
      "rater": 7854,
      "Click": 7855,
      "lÃ¸n": 7856,
      "liceret": 7857,
      "ĠOfte": 7858,
      "ppens": 7859,
      "Alt": 7860,
      "Nogle": 7861,
      "stor": 7862,
      "ĠErhvervs": 7863,
      "orkshop": 7864,
      "skon": 7865,
      "ĠOk": 7866,
      "Ġdybt": 7867,
      "serende": 7868,
      "luft": 7869,
      "Ġelement": 7870,
      "Ġtemperatur": 7871,
      "Ġhistoriske": 7872,
      "ĠhÃ¦nger": 7873,
      "ĠnÃ¸jag": 7874,
      "Ġrep": 7875,
      "Ġbefolk": 7876,
      "FORMANCE": 7877,
      "Ö·": 7878,
      "dags": 7879,
      "Ġendte": 7880,
      "Ġdk": 7881,
      "ĠBan": 7882,
      "Ġsituationer": 7883,
      "Ġklassisk": 7884,
      "ĠWest": 7885,
      "sammen": 7886,
      "Ġebook": 7887,
      "ĠbevÃ¦gelse": 7888,
      "ĠGrand": 7889,
      "fr": 7890,
      "Ġopdaterede": 7891,
      "laterede": 7892,
      "ĠUniversity": 7893,
      "Ġdreng": 7894,
      "Targeting": 7895,
      "format": 7896,
      "Ġmusk": 7897,
      "ĠBang": 7898,
      "Ġlaves": 7899,
      "Ġundervejs": 7900,
      "folkning": 7901,
      "bogen": 7902,
      "sex": 7903,
      "Ġtrus": 7904,
      "Ġuhel": 7905,
      "lease": 7906,
      "ĠdÃ¦kket": 7907,
      "Ġrund": 7908,
      "bad": 7909,
      "Ġtol": 7910,
      "ĠkÃ¸bte": 7911,
      "Ġkog": 7912,
      "ĠstÃ¸rrelser": 7913,
      "ĠpÃ¥virker": 7914,
      "Ġhjemmet": 7915,
      "baseret": 7916,
      "Ġ57": 7917,
      "kkerne": 7918,
      "ĠSF": 7919,
      "struktur": 7920,
      "Ġgud": 7921,
      "Ġkede": 7922,
      "Ã¸rring": 7923,
      "locity": 7924,
      "Ġscore": 7925,
      "ELS": 7926,
      "ktoren": 7927,
      "Ġsch": 7928,
      "Ġsamfundet": 7929,
      "ysk": 7930,
      "Ġbilligere": 7931,
      "bak": 7932,
      "ĠGeneral": 7933,
      "Ġvurderer": 7934,
      "inerer": 7935,
      "ĠEscort": 7936,
      "begyn": 7937,
      "Ġoptaget": 7938,
      "OMM": 7939,
      "stÃ¸tte": 7940,
      "ĠHelsing": 7941,
      "vÃ¦sen": 7942,
      "ties": 7943,
      "ĠLov": 7944,
      "Ġlitteratur": 7945,
      "Ġfriske": 7946,
      "ĠModel": 7947,
      "velocity": 7948,
      "Ġbidrager": 7949,
      "lign": 7950,
      "enerelt": 7951,
      "ĠKi": 7952,
      "KKE": 7953,
      "Ġtradition": 7954,
      "Ġ54": 7955,
      "edback": 7956,
      "varende": 7957,
      "store": 7958,
      "ĠCam": 7959,
      "Ġposition": 7960,
      "Ġrute": 7961,
      "ĠSikker": 7962,
      "Ġlavt": 7963,
      "ball": 7964,
      "Ġvinduer": 7965,
      "Ġtilsyn": 7966,
      "stemte": 7967,
      "ĠgrÃ¦nser": 7968,
      "ĠVelkommen": 7969,
      "hjem": 7970,
      "ii": 7971,
      "So": 7972,
      "ĠUl": 7973,
      "amenities": 7974,
      "Ġthai": 7975,
      "uddannelsen": 7976,
      "ĠEjer": 7977,
      "adgang": 7978,
      "bum": 7979,
      "ĠSlot": 7980,
      "rÃ¸mme": 7981,
      "RICS": 7982,
      "Ġpublikum": 7983,
      "sia": 7984,
      "information": 7985,
      "ĠIndhold": 7986,
      "dustri": 7987,
      "skrevet": 7988,
      "Ġeuro": 7989,
      "idth": 7990,
      "Ġhome": 7991,
      "vidste": 7992,
      "Ġstay": 7993,
      "PERFORMANCE": 7994,
      "ĠRis": 7995,
      "2011": 7996,
      "ardiner": 7997,
      "Ġpriserne": 7998,
      "Ã¦d": 7999,
      "ĠGrÃ¥": 8000,
      "Ġtren": 8001,
      "Ġdownload": 8002,
      "roller": 8003,
      "Ġkryd": 8004,
      "lete": 8005,
      "ĠBygge": 8006,
      "ighe": 8007,
      "forslag": 8008,
      "Ġoperation": 8009,
      "Ġ});": 8010,
      "ĠEsp": 8011,
      "Ġjagt": 8012,
      "ĠTour": 8013,
      "ledende": 8014,
      "Ġsamtlige": 8015,
      "Ġkoste": 8016,
      "ago": 8017,
      "model": 8018,
      "boliger": 8019,
      "Ġbehandles": 8020,
      "Ġtot": 8021,
      "zy": 8022,
      "Ã¦ndelse": 8023,
      "meta": 8024,
      "respon": 8025,
      "Ġvor": 8026,
      "Ġaktivt": 8027,
      "ĠNordjylland": 8028,
      "iden": 8029,
      "Ġfalde": 8030,
      "cker": 8031,
      "Ã¦mpe": 8032,
      "METRICS": 8033,
      "inet": 8034,
      "Ġbasis": 8035,
      "Ġarbejdsgiver": 8036,
      "gennem": 8037,
      "Ġtotal": 8038,
      "ĠAnti": 8039,
      "ĠgennemgÃ¥": 8040,
      "ĠGB": 8041,
      "Ġklubben": 8042,
      "Ġchef": 8043,
      "ĠfremhÃ¦": 8044,
      "Ġ51": 8045,
      "angen": 8046,
      "Ġnaturlig": 8047,
      "kig": 8048,
      "vÃ¦rket": 8049,
      "instal": 8050,
      "Ġlivs": 8051,
      "Ġlinje": 8052,
      "bank": 8053,
      "ĠðŁĻ": 8054,
      "stebro": 8055,
      "Ġrelativt": 8056,
      "Ġnational": 8057,
      "Â«.": 8058,
      "danmark": 8059,
      "wire": 8060,
      "assage": 8061,
      "Ġpositivt": 8062,
      "Ġdeler": 8063,
      "ĠMÃ¸r": 8064,
      "here": 8065,
      "forman": 8066,
      "Ġudseende": 8067,
      "ĠKonge": 8068,
      "Ġkant": 8069,
      "ĠÃ¤r": 8070,
      "Ġits": 8071,
      "Ġbryst": 8072,
      "fortegnelse": 8073,
      "Ã¸der": 8074,
      "spriser": 8075,
      "Ġinternational": 8076,
      "Ġspecifikke": 8077,
      "ĠPDF": 8078,
      "Ġtrav": 8079,
      "Ġgevin": 8080,
      "Ġhotellets": 8081,
      "Ġvo": 8082,
      "datter": 8083,
      "iÃ¸r": 8084,
      "retter": 8085,
      "Ġgolf": 8086,
      "radi": 8087,
      "ĠkÃ¸rt": 8088,
      "Ġdeltagelse": 8089,
      "Ġinvestering": 8090,
      "Ġporno": 8091,
      "Ġgram": 8092,
      "*!": 8093,
      "ĠtrÃ¥": 8094,
      "Ġwhich": 8095,
      "Ġprodukterne": 8096,
      "ĠfÃ¸devarer": 8097,
      "ĠEvent": 8098,
      "ĠJesus": 8099,
      "Ġudvalget": 8100,
      "ĠSne": 8101,
      "){": 8102,
      "ĠrÃ¸": 8103,
      "jÃ¦lp": 8104,
      "Ġgla": 8105,
      "Ġudfordring": 8106,
      "Ġass": 8107,
      "Ġkarriere": 8108,
      "rebet": 8109,
      "ĠfÃ¦lle": 8110,
      "ĠStar": 8111,
      "alp": 8112,
      "lier": 8113,
      "Ġbestiller": 8114,
      "Ġforvente": 8115,
      "Ġslippe": 8116,
      "ĠGÃ¸r": 8117,
      "styrelsens": 8118,
      "Ġome": 8119,
      "VS": 8120,
      "Ġekstremt": 8121,
      "ĠdÃ©r": 8122,
      "Ġstrukt": 8123,
      "--------": 8124,
      "sÃ¦d": 8125,
      "onde": 8126,
      "ĠspÃ¸rgsmÃ¥let": 8127,
      "Flere": 8128,
      "ĠRewardsSaml": 8129,
      "ĠFredericia": 8130,
      "Ġangreb": 8131,
      "aria": 8132,
      "ĠHenter": 8133,
      "Ġparter": 8134,
      "telefon": 8135,
      "prog": 8136,
      "lande": 8137,
      "ledningen": 8138,
      "opro": 8139,
      "Ġderudover": 8140,
      "Ġgran": 8141,
      "ĠkrÃ¦fter": 8142,
      "tens": 8143,
      "ĠTri": 8144,
      "Ġ59": 8145,
      "Ġovenfor": 8146,
      "perty": 8147,
      "Ġkone": 8148,
      "Îµ": 8149,
      "ĠnÃ¸dvendigvis": 8150,
      "Bille": 8151,
      "Ġrumme": 8152,
      "ĠColle": 8153,
      "Ġtroede": 8154,
      "Fremragende": 8155,
      "Ġkvartal": 8156,
      "rk": 8157,
      "All": 8158,
      "Ġsekunder": 8159,
      "Ġhyggelig": 8160,
      "ĠDating": 8161,
      "ĠSvendborg": 8162,
      "Ġbanen": 8163,
      "600": 8164,
      "llen": 8165,
      "ĠTemp": 8166,
      "ĠEpub": 8167,
      "centre": 8168,
      "boks": 8169,
      "Ġ58": 8170,
      "Ġrettet": 8171,
      "ktiske": 8172,
      "ĠgrÃ¸nts": 8173,
      "ĠnÃ¥ede": 8174,
      "Ġbin": 8175,
      "Ġkommunale": 8176,
      "Ġoblig": 8177,
      "2020": 8178,
      "Ġvokser": 8179,
      "ĠmÃ¸det": 8180,
      "ĠDon": 8181,
      "Ġafholdes": 8182,
      "Ġviagra": 8183,
      "Ġgemme": 8184,
      "ĠPetersen": 8185,
      "Ġstolte": 8186,
      "Ġdokumentation": 8187,
      "ĠBluetooth": 8188,
      "kage": 8189,
      "ĠLove": 8190,
      "Ġfront": 8191,
      "ĠApartment": 8192,
      "Ġkomplet": 8193,
      "Ġcol": 8194,
      "Ġspillede": 8195,
      "ĠSig": 8196,
      "ĠDownload": 8197,
      "Ġfremover": 8198,
      "Ġlagde": 8199,
      "Ã¦vne": 8200,
      "ĠfÃ¸les": 8201,
      "ĠIfÃ¸lge": 8202,
      "skur": 8203,
      "Ġrespekt": 8204,
      "Bru": 8205,
      "ĠGul": 8206,
      "ĠCVR": 8207,
      "WINS": 8208,
      "META": 8209,
      "ĠtilfÃ¦ldet": 8210,
      "oph": 8211,
      "SHOW": 8212,
      "roll": 8213,
      "uest": 8214,
      "Ġmotion": 8215,
      "ĠStorbritan": 8216,
      "Ġvold": 8217,
      "ĠstÃ¸tter": 8218,
      "Ġlukke": 8219,
      "Ġsamling": 8220,
      "ĠEjendom": 8221,
      "ĠMÃ¦nds": 8222,
      "ating": 8223,
      "Ġsolen": 8224,
      "mindre": 8225,
      "Ġ68": 8226,
      "Ġengel": 8227,
      "ĠZe": 8228,
      "lelse": 8229,
      "ktione": 8230,
      "Ġopgaven": 8231,
      "ĠGÃ¥": 8232,
      "duelle": 8233,
      "prÃ¸ve": 8234,
      "pool": 8235,
      "ĠKÃ¸ge": 8236,
      "Ġbetales": 8237,
      "ĠforlÃ¦nge": 8238,
      "ceres": 8239,
      "Ġkompetence": 8240,
      "Per": 8241,
      "ĠBilag": 8242,
      "ĠforelÃ¸b": 8243,
      "Ġmiddag": 8244,
      "Ġfinansielle": 8245,
      "MÃ¥": 8246,
      "Ġteknisk": 8247,
      "ĠBest": 8248,
      "400": 8249,
      "ĠTrustpilot": 8250,
      "priser": 8251,
      "Ġnyder": 8252,
      "Pla": 8253,
      "tagelse": 8254,
      "lyn": 8255,
      "Ġdirektiv": 8256,
      "ĠChr": 8257,
      "ĠClaus": 8258,
      "hÃ¥nd": 8259,
      "ones": 8260,
      "ICON": 8261,
      "Ġblack": 8262,
      "Ġbrugen": 8263,
      "less": 8264,
      "Ġkompon": 8265,
      "por": 8266,
      "Ġfastsat": 8267,
      "Ġspid": 8268,
      "Ġstammer": 8269,
      "Ġspurgte": 8270,
      "sund": 8271,
      "Ġmate": 8272,
      "tÃ¸r": 8273,
      "Ġvoldsom": 8274,
      "ury": 8275,
      "ĠCre": 8276,
      "Gen": 8277,
      "Ġforvalt": 8278,
      "Ġindsigt": 8279,
      "Â¸": 8280,
      "ĠJob": 8281,
      "Ġvirus": 8282,
      "holdsfortegnelse": 8283,
      "ĠIP": 8284,
      "Ġroligt": 8285,
      "Ġpakken": 8286,
      "Ġbetalt": 8287,
      "Ġfortry": 8288,
      "ktions": 8289,
      "Ġ--": 8290,
      "EÃĺF": 8291,
      "ida": 8292,
      "Ġpraktik": 8293,
      "Ġprim": 8294,
      "serie": 8295,
      "tielle": 8296,
      "Element": 8297,
      "Ġhon": 8298,
      "EK": 8299,
      "rÃ¦ts": 8300,
      "ĠgÃ¦sterne": 8301,
      "sivt": 8302,
      "EV": 8303,
      "Ġever": 8304,
      "Ġkage": 8305,
      "ĠFo": 8306,
      "Ġfremtidige": 8307,
      "aba": 8308,
      "Ġudpe": 8309,
      "deler": 8310,
      "ĠÃ¦ld": 8311,
      "ĠNik": 8312,
      "SÃ¦r": 8313,
      "Ġjurid": 8314,
      "OG": 8315,
      "ĠHi": 8316,
      "Ã¸nder": 8317,
      "ĠGer": 8318,
      "Ġpu": 8319,
      "Ġvarerne": 8320,
      "Ġtendens": 8321,
      "live": 8322,
      "Ġbede": 8323,
      "Ġalso": 8324,
      "Ġklassi": 8325,
      "ĠSti": 8326,
      "Ġstigning": 8327,
      "Ġserien": 8328,
      "fladen": 8329,
      "ateri": 8330,
      "Ġ[âĢ¦]": 8331,
      "Ġkulture": 8332,
      "Header": 8333,
      "parti": 8334,
      "smÃ¦ssig": 8335,
      "vask": 8336,
      "VÃ¦lg": 8337,
      "Find": 8338,
      "Sm": 8339,
      "Ġforedrag": 8340,
      "Ġkilde": 8341,
      "Ġarbejdsplads": 8342,
      "ĠFolketinget": 8343,
      "ĠprÃ¦sident": 8344,
      "ĠCap": 8345,
      "ovn": 8346,
      "aff": 8347,
      "ĠUng": 8348,
      "ĠLig": 8349,
      "mÃ¦ssig": 8350,
      "ktiver": 8351,
      "Ġlyset": 8352,
      "Ġslappe": 8353,
      "Ġkontrakt": 8354,
      "ann": 8355,
      "Ġforsig": 8356,
      "Ġstede": 8357,
      "ĠMadsen": 8358,
      "sjÃ¦lland": 8359,
      "Foto": 8360,
      "lsens": 8361,
      "Ġfremad": 8362,
      "ĠClub": 8363,
      "ĠMidtjylland": 8364,
      "Ġjust": 8365,
      "Â«,": 8366,
      "Ġprotein": 8367,
      "Ġsandsynligvis": 8368,
      "Ñĥ": 8369,
      "ĠmedfÃ¸rer": 8370,
      "Ġbaggr": 8371,
      "ords": 8372,
      "CO": 8373,
      "Ġleverings": 8374,
      "gration": 8375,
      "ĠomstÃ¦ndigheder": 8376,
      "ĠÃ¥rlige": 8377,
      "Ġflo": 8378,
      "Ġwi": 8379,
      "lÃ¥r": 8380,
      "ĠAme": 8381,
      "rist": 8382,
      "ui": 8383,
      "ĠðŁĻĤ": 8384,
      "venlig": 8385,
      "mit": 8386,
      "Ġadvokat": 8387,
      "ĠnÃ¦st": 8388,
      "ĠskÃ¦rm": 8389,
      "Ġmanden": 8390,
      "Ġtysk": 8391,
      "Ġtw": 8392,
      "asta": 8393,
      "uch": 8394,
      "Ã¦isk": 8395,
      "ĠHil": 8396,
      "omster": 8397,
      "SÃ¥dan": 8398,
      "ĠBrand": 8399,
      "foc": 8400,
      "Ġmark": 8401,
      "Ġalmindeligt": 8402,
      "Ġ72": 8403,
      "ĠValg": 8404,
      "Ġstemning": 8405,
      "Ġverificerede": 8406,
      "cus": 8407,
      "Ġfitness": 8408,
      "ĠSyge": 8409,
      "highe": 8410,
      "ĠAnna": 8411,
      "Ġetableret": 8412,
      "Ġmia": 8413,
      "highestMetaPrice": 8414,
      "Ġtjekke": 8415,
      "lock": 8416,
      "ĠHvem": 8417,
      "ĠnÃ¸gle": 8418,
      "Ġkvaliteten": 8419,
      "Ġholdning": 8420,
      "regning": 8421,
      "via": 8422,
      "nail": 8423,
      "Ġgennemsnitlige": 8424,
      "Ġkreative": 8425,
      "fÃ¸lger": 8426,
      "Ġhorm": 8427,
      "ĠHy": 8428,
      "Sta": 8429,
      "Ġeffektive": 8430,
      "ĠlÃ¦gges": 8431,
      "Ġafleve": 8432,
      "ĠLyngby": 8433,
      "ĠChrist": 8434,
      "ĠHerre": 8435,
      "Ġfinansiering": 8436,
      "Ã¸rste": 8437,
      "Ġudarbej": 8438,
      "Ġ66": 8439,
      "Ġmedlems": 8440,
      "Ġfransk": 8441,
      "ĠFart": 8442,
      "Ġbrugerne": 8443,
      "gent": 8444,
      "lene": 8445,
      "tika": 8446,
      "Ġinnovation": 8447,
      "iseret": 8448,
      "funktions": 8449,
      "falds": 8450,
      "ĠÃ¦ndrer": 8451,
      "Rad": 8452,
      "lets": 8453,
      "virksomheder": 8454,
      "Ġfremtid": 8455,
      "ĠÃ¸jen": 8456,
      "Ġforsknings": 8457,
      "styrre": 8458,
      "skoler": 8459,
      "Ġhyggelige": 8460,
      "istiske": 8461,
      "Ġkabel": 8462,
      "tact": 8463,
      "Ġ????": 8464,
      "Ġinkluderer": 8465,
      "ĠArt": 8466,
      "Ġborgerne": 8467,
      "Ġoprettet": 8468,
      "ĠHÃ¥r": 8469,
      "tÃ¸j": 8470,
      "ĠmÃ¦ngder": 8471,
      "mÃ¦rker": 8472,
      "Ġ53": 8473,
      "ĠtrÃ¥dlÃ¸st": 8474,
      "ĠFÃ¸rste": 8475,
      "Ġudvide": 8476,
      "ladt": 8477,
      "Ġrevideret": 8478,
      "IfÃ¸lge": 8479,
      "ĠDame": 8480,
      "ĠFÃ¸rst": 8481,
      "Ġdemon": 8482,
      "ĠPan": 8483,
      "Ġstiger": 8484,
      "Ġday": 8485,
      "ĠMaj": 8486,
      "cerede": 8487,
      "visninger": 8488,
      "ĠLav": 8489,
      "Ġlangsomt": 8490,
      "ĠStock": 8491,
      "ĠNÃ¦stved": 8492,
      "key": 8493,
      "Ġbetalings": 8494,
      "ute": 8495,
      "vaske": 8496,
      "pat": 8497,
      "fume": 8498,
      "ĠopkrÃ¦": 8499,
      "syne": 8500,
      "Ġentre": 8501,
      "ĠStreet": 8502,
      "Gr": 8503,
      "Ġgodkendelse": 8504,
      "ope": 8505,
      "Ġreturn": 8506,
      "Ġlede": 8507,
      "Ġsofa": 8508,
      "spor": 8509,
      "Ġfryg": 8510,
      "Ġslog": 8511,
      "ĠrÃ¸g": 8512,
      "Ġholdes": 8513,
      "Ġforventninger": 8514,
      "Ġslette": 8515,
      "find": 8516,
      "\":\"\",\"": 8517,
      "Ġmester": 8518,
      "stad": 8519,
      "ĠPR": 8520,
      "Ġrummer": 8521,
      "enten": 8522,
      "ĠgrÃ¦s": 8523,
      "ĠPrem": 8524,
      "ĠDit": 8525,
      "Ġdesto": 8526,
      "ĠPower": 8527,
      "ĠGucca": 8528,
      "pakke": 8529,
      "ĠMay": 8530,
      "Ġydelser": 8531,
      "fejl": 8532,
      "Ġsymb": 8533,
      "ĠVa": 8534,
      "udgifter": 8535,
      "Ġungdoms": 8536,
      "Ġunik": 8537,
      "banen": 8538,
      "EMAIL": 8539,
      "Vel": 8540,
      "vises": 8541,
      "ĠÃ¥rsag": 8542,
      "Ġplast": 8543,
      "ĠOb": 8544,
      "Ġsamarbejdet": 8545,
      "Out": 8546,
      "Ġimm": 8547,
      "Ġmedarbejderne": 8548,
      "fekt": 8549,
      "Ġbehandler": 8550,
      "Ġwere": 8551,
      "Ġkommunal": 8552,
      "Ġgal": 8553,
      "ĠDM": 8554,
      "ĠtÃ¸rre": 8555,
      "Ġartiklen": 8556,
      "Ġhoveds": 8557,
      "Ġgebyr": 8558,
      "ĠNavn": 8559,
      "Ġatmos": 8560,
      "perioden": 8561,
      "ĠLokal": 8562,
      "ĠâĨ": 8563,
      "legnet": 8564,
      "Ġed": 8565,
      "aktive": 8566,
      "hedens": 8567,
      "Ġbehandlet": 8568,
      "âĢĻ,": 8569,
      "ĠslÃ¦": 8570,
      "ĠGre": 8571,
      "umbnail": 8572,
      "ĠmÃ¸dt": 8573,
      "ĠlÃ¸fte": 8574,
      "Ġ67": 8575,
      "ĠFla": 8576,
      "ĠjQuery": 8577,
      "ĠRadio": 8578,
      "Download": 8579,
      "ttering": 8580,
      "ĠVerden": 8581,
      "GridWidget": 8582,
      "bit": 8583,
      "ĠDr": 8584,
      "Ġgreen": 8585,
      "pren": 8586,
      "ĠindebÃ¦rer": 8587,
      "ofix": 8588,
      "Vej": 8589,
      "Ġkerne": 8590,
      "rÃ¸rer": 8591,
      "meddele": 8592,
      "';": 8593,
      "setTargeting": 8594,
      "Ġï¿½ï¿½ï¿½ï¿½ï¿½": 8595,
      "ĠVilla": 8596,
      "Ġmente": 8597,
      "Ġindstillinger": 8598,
      "ĠMark": 8599,
      "ĠpÃ¦nt": 8600,
      "Ġopt": 8601,
      "Ġplejer": 8602,
      "Ġforholde": 8603,
      "ording": 8604,
      "Ġgraviditet": 8605,
      "ĠforÃ¦ldrene": 8606,
      "Ġgreat": 8607,
      "Ġdefini": 8608,
      "Ġxxx": 8609,
      "iere": 8610,
      "ĠAustra": 8611,
      "familie": 8612,
      "ĠBaby": 8613,
      "pension": 8614,
      "ĠÃ¸ger": 8615,
      "ĠAN": 8616,
      "Ġholdet": 8617,
      "Ġarbejd": 8618,
      "Ġoverensk": 8619,
      "ĠAD": 8620,
      "lÃ¦ggelse": 8621,
      "tegn": 8622,
      "umper": 8623,
      "ĠStorbritannien": 8624,
      "Ġryggen": 8625,
      "Ġforpligte": 8626,
      "Ġbringer": 8627,
      "iew": 8628,
      "Ġlytte": 8629,
      "mlÃ¦n": 8630,
      "terier": 8631,
      "ĠkmHoteller": 8632,
      "ato": 8633,
      "Ġafspej": 8634,
      "Ġtjener": 8635,
      "images": 8636,
      "Ġproducenter": 8637,
      "Ġlivlige": 8638,
      "Ġfer": 8639,
      "Ġundervisningen": 8640,
      "Ġrevision": 8641,
      "ĠlegetÃ¸j": 8642,
      "ands": 8643,
      "wa": 8644,
      "pression": 8645,
      "ĠAndroid": 8646,
      "âĢĻ.": 8647,
      "skabelige": 8648,
      "rooms": 8649,
      "ĠvÃ¦sentligt": 8650,
      "hor": 8651,
      "AK": 8652,
      "ĠvÃ¦rktÃ¸jer": 8653,
      "ĠPor": 8654,
      "ston": 8655,
      "God": 8656,
      "kender": 8657,
      "Ġstrateg": 8658,
      "Ġbist": 8659,
      "ĠhÃ¥rde": 8660,
      "Ġdokumenter": 8661,
      "Ġindividuelle": 8662,
      "Ġkommunerne": 8663,
      "stic": 8664,
      "Qu": 8665,
      "2010": 8666,
      "Ġmap": 8667,
      "farvede": 8668,
      "Ġsrc": 8669,
      "disk": 8670,
      "Ġkundeservice": 8671,
      "Ġsyg": 8672,
      "Ġflad": 8673,
      "Ġpyn": 8674,
      "sbehandling": 8675,
      "Ġhom": 8676,
      "Ġregioner": 8677,
      "ĠCH": 8678,
      "ĠdÃ¸ds": 8679,
      "zin": 8680,
      "Ġkni": 8681,
      "Ġradio": 8682,
      "komp": 8683,
      "reakfast": 8684,
      "Ġudstil": 8685,
      "Ġdagsorden": 8686,
      "Ġvidunder": 8687,
      "Ġhalvdelen": 8688,
      "ĠAugust": 8689,
      "ĠBrÃ¸ndby": 8690,
      "inte": 8691,
      "Ġdon": 8692,
      "rative": 8693,
      "Ġmangel": 8694,
      "ĠHerfra": 8695,
      "Ġbeslutninger": 8696,
      "ĠÃ¦ndres": 8697,
      "park": 8698,
      "stykke": 8699,
      "ĠMel": 8700,
      "info": 8701,
      "Î½": 8702,
      "ĠMotor": 8703,
      "nering": 8704,
      "Com": 8705,
      "ĠNed": 8706,
      "oksen": 8707,
      "ĠHej": 8708,
      "ASS": 8709,
      "ĠNorth": 8710,
      "Ġelev": 8711,
      "ĠvÃ¦rt": 8712,
      "Ġfjerde": 8713,
      "IP": 8714,
      "Ġudenlandske": 8715,
      "ĠOlsen": 8716,
      "inerede": 8717,
      "ĠRos": 8718,
      "bas": 8719,
      "ĠBarn": 8720,
      "dienser": 8721,
      "artikler": 8722,
      "Ġforanstaltninger": 8723,
      "orgmester": 8724,
      "Ġfing": 8725,
      "ĠNike": 8726,
      "Ġdygtige": 8727,
      "Ġflu": 8728,
      "Ġforfat": 8729,
      "skode": 8730,
      "produktion": 8731,
      "Ġbakter": 8732,
      "Ġgruppen": 8733,
      "ĠoptrÃ¦": 8734,
      "Ġventil": 8735,
      "image": 8736,
      "bund": 8737,
      "Ġcenter": 8738,
      "gets": 8739,
      "ĠTur": 8740,
      "Ġmekan": 8741,
      "Ġskib": 8742,
      "Ġgeneration": 8743,
      "Li": 8744,
      "somrÃ¥der": 8745,
      "ache": 8746,
      "formance": 8747,
      "Ġblade": 8748,
      "ĠSÃ¸g": 8749,
      "Ġeksperter": 8750,
      "ĠOrd": 8751,
      "ĠSpÃ¸rgsmÃ¥l": 8752,
      "ush": 8753,
      "Ġetabler": 8754,
      "Ġsmar": 8755,
      "raft": 8756,
      "Ġ×Ĳ": 8757,
      "wi": 8758,
      "Ġmaven": 8759,
      "Ġprem": 8760,
      "ĠAma": 8761,
      "No": 8762,
      "Ġsnakke": 8763,
      "Ġkraftig": 8764,
      "Ġbehandle": 8765,
      "Ġfrihed": 8766,
      "ĠprimÃ¦re": 8767,
      "ĠÃ¥rene": 8768,
      "Ġgaver": 8769,
      "stiden": 8770,
      "SF": 8771,
      "Ġfugle": 8772,
      "Ġkurs": 8773,
      "sert": 8774,
      "jeg": 8775,
      "Ġmund": 8776,
      "can": 8777,
      "landsk": 8778,
      "lejlighed": 8779,
      "bh": 8780,
      "ffen": 8781,
      "Ġbespare": 8782,
      "Ġkontant": 8783,
      "ĠKristian": 8784,
      "Ġinteresser": 8785,
      "ĠbeskÃ¦ftigelse": 8786,
      "ĠberÃ¸r": 8787,
      "reret": 8788,
      "ĠOM": 8789,
      "eng": 8790,
      "Ġuddannet": 8791,
      "Ġvirksomheds": 8792,
      "VÃ¦r": 8793,
      "zon": 8794,
      "Ġuddannelser": 8795,
      "ĠdrÃ¸m": 8796,
      "ĠskÃ¸nt": 8797,
      "PartnerRoom": 8798,
      "PartnerRoomGridWidget": 8799,
      "ARK": 8800,
      "Priceline": 8801,
      "Brug": 8802,
      "Ġnormale": 8803,
      "bens": 8804,
      "ĠpÃ¥rÃ¸rende": 8805,
      "skar": 8806,
      "Ġfig": 8807,
      "Lu": 8808,
      "skont": 8809,
      "ĠFerie": 8810,
      "redning": 8811,
      "Ġfanta": 8812,
      "Ġforinden": 8813,
      "ĠforeslÃ¥": 8814,
      "ĠtÃ¦nkte": 8815,
      "dkÃ¸b": 8816,
      "haver": 8817,
      "oplevelse": 8818,
      "Ġteen": 8819,
      "Ġfans": 8820,
      "Ġpal": 8821,
      "Ġfaldet": 8822,
      "Ġfrie": 8823,
      "sÃ¦dvan": 8824,
      "ĠPub": 8825,
      "adem": 8826,
      "Store": 8827,
      "olering": 8828,
      "Net": 8829,
      "Ġug": 8830,
      "Ġutal": 8831,
      "Ġaccepterer": 8832,
      "ĠnÃ¥et": 8833,
      "holdende": 8834,
      "ĠTryk": 8835,
      "histor": 8836,
      "ART": 8837,
      "Ġbla": 8838,
      "lassic": 8839,
      "Ñı": 8840,
      "multi": 8841,
      "cdn": 8842,
      "ĠLet": 8843,
      "ĠProfe": 8844,
      "Ġ69": 8845,
      "ĠÃ¸verste": 8846,
      "ants": 8847,
      "Ġordin": 8848,
      "acc": 8849,
      "ĠhÃ¥ret": 8850,
      "star": 8851,
      "ĠRÃ¥dets": 8852,
      "ĠIS": 8853,
      "Ġkvar": 8854,
      "Ġtabe": 8855,
      "Ġfelt": 8856,
      "Ġklage": 8857,
      "Ġbefolkning": 8858,
      "nsker": 8859,
      "brÃ¸d": 8860,
      "ĠDanish": 8861,
      "Ġsigt": 8862,
      "Ïĥ": 8863,
      "stes": 8864,
      "skraft": 8865,
      "projekt": 8866,
      "house": 8867,
      "800": 8868,
      "Ġforretninger": 8869,
      "Ñĭ": 8870,
      "stran": 8871,
      "bitz": 8872,
      "ĠSof": 8873,
      "\"}},\"": 8874,
      "Ã¥rn": 8875,
      "skriv": 8876,
      "veri": 8877,
      "ĠbrÃ¦nde": 8878,
      "ĠIndholdsfortegnelse": 8879,
      "ĠpÃ¥virke": 8880,
      "ĠKÃ¸re": 8881,
      "kommelse": 8882,
      "ĠAlu": 8883,
      "HOL": 8884,
      "ĠvÃ¦ld": 8885,
      "menteret": 8886,
      "Skal": 8887,
      "bags": 8888,
      "Ġcont": 8889,
      "Pa": 8890,
      "ĠBre": 8891,
      "Var": 8892,
      "Ġanbefalinger": 8893,
      "Ġfaktorer": 8894,
      "sempel": 8895,
      "ĠindgÃ¥et": 8896,
      "Ek": 8897,
      "ĠdÃ¥rlige": 8898,
      "ĠSvar": 8899,
      "otwire": 8900,
      "stÃ¸v": 8901,
      "ĠFire": 8902,
      "ĠdÃ¦kke": 8903,
      "Ġ79": 8904,
      "fan": 8905,
      "ente": 8906,
      "dne": 8907,
      "ĠkÃ¸kkenet": 8908,
      "uds": 8909,
      "Ġretningslinjer": 8910,
      "rak": 8911,
      "cessor": 8912,
      "Ġhusker": 8913,
      "Ġsunde": 8914,
      "ĠTeg": 8915,
      "Ġdesigner": 8916,
      "('#": 8917,
      "Ġnedsat": 8918,
      "berne": 8919,
      "Ġ63": 8920,
      "ĠNic": 8921,
      "board": 8922,
      "Ġbjerg": 8923,
      "ason": 8924,
      "ĠGodt": 8925,
      "Ġassist": 8926,
      "ĠViden": 8927,
      "Ġtor": 8928,
      "Ġvedtaget": 8929,
      "Ġsens": 8930,
      "ĠPRO": 8931,
      "LC": 8932,
      "ĠlÃ¦gen": 8933,
      "amily": 8934,
      "NyhederTilbud": 8935,
      "ĠhÃ¦r": 8936,
      "program": 8937,
      "Ġopstil": 8938,
      "Ġdrive": 8939,
      "rage": 8940,
      "new": 8941,
      "jÃ¦": 8942,
      "Ġbane": 8943,
      "Ġanmod": 8944,
      "Ġtillid": 8945,
      "jere": 8946,
      "ĠGent": 8947,
      "Ġaftalen": 8948,
      "Ġoplyser": 8949,
      "midt": 8950,
      "oneret": 8951,
      "Ġhellere": 8952,
      "sitet": 8953,
      "stilbud": 8954,
      "ĠInde": 8955,
      "rienter": 8956,
      "Ġ86": 8957,
      "Ġpiller": 8958,
      "ology": 8959,
      "Ġjag": 8960,
      "Kri": 8961,
      "Ġbesluttede": 8962,
      "Ġopbevaring": 8963,
      "Ġtemmelig": 8964,
      "ĠSep": 8965,
      "Ġkvi": 8966,
      "styring": 8967,
      "Ġredskaber": 8968,
      "ĠhÃ¦k": 8969,
      "</": 8970,
      "Ġindeholde": 8971,
      "ĠDato": 8972,
      "Ġudsk": 8973,
      "komne": 8974,
      "ĠSpar": 8975,
      "plader": 8976,
      "Ġblanding": 8977,
      "ĠFÃ¦r": 8978,
      "Ma": 8979,
      "ĠFag": 8980,
      "Ġkjole": 8981,
      "givningen": 8982,
      "ĠÃ¸re": 8983,
      "Ġindretning": 8984,
      "Ġhjerne": 8985,
      "rl": 8986,
      "ches": 8987,
      "Ġoriginale": 8988,
      "Ġafgift": 8989,
      "kald": 8990,
      "jet": 8991,
      "ĠHelsingÃ¸r": 8992,
      "Ġdynam": 8993,
      "nie": 8994,
      "ĠforeslÃ¥r": 8995,
      "ena": 8996,
      "ĠtilhÃ¸rende": 8997,
      "Ġ1999": 8998,
      "ugh": 8999,
      "dtast": 9000,
      "Ġoffentliggjort": 9001,
      "lationer": 9002,
      "ferencer": 9003,
      "periode": 9004,
      "ria": 9005,
      "ĠlÃ¦ger": 9006,
      "foto": 9007,
      "Ġbetinge": 9008,
      "Ġpeber": 9009,
      "ĠStation": 9010,
      "Ġbetragt": 9011,
      "Ġstation": 9012,
      "Ġult": 9013,
      "StandardvÃ¦relse": 9014,
      "rte": 9015,
      "rael": 9016,
      "ĠTeam": 9017,
      "ĠMont": 9018,
      "Ġbevare": 9019,
      "ias": 9020,
      "Ã¼r": 9021,
      "ĠUp": 9022,
      "Ġtilstede": 9023,
      "Ġtusind": 9024,
      "antastisk": 9025,
      "Ġforhind": 9026,
      "list": 9027,
      "ading": 9028,
      "sÃ¦tningen": 9029,
      "ĠHele": 9030,
      "obe": 9031,
      "ĠBur": 9032,
      "Hus": 9033,
      "LP": 9034,
      "ĠGrÃ¦": 9035,
      "Ġaspe": 9036,
      "Ġangivet": 9037,
      "LED": 9038,
      "Ġpunkter": 9039,
      "lister": 9040,
      "Ġgli": 9041,
      "ĠDerefter": 9042,
      "Ġoverordnede": 9043,
      "sprog": 9044,
      "Ġsnak": 9045,
      "Ġporn": 9046,
      "rens": 9047,
      "Show": 9048,
      "Ġï¿½ï¿½ï¿½ï¿½ï¿½ï¿½": 9049,
      "sprogram": 9050,
      "Ġpersonalet": 9051,
      "Display": 9052,
      "orge": 9053,
      "ĠIndi": 9054,
      "Ġangst": 9055,
      "ĠAuto": 9056,
      "byrer": 9057,
      "Bl": 9058,
      "ĠCamp": 9059,
      "ĠJap": 9060,
      "ĠSÃ¦de": 9061,
      "Ġlider": 9062,
      "stPrice": 9063,
      "Ġenig": 9064,
      "fÃ¦rds": 9065,
      "Ġgrill": 9066,
      "Ġberegnet": 9067,
      "astro": 9068,
      "Ġansvaret": 9069,
      "Ġsvarende": 9070,
      "CK": 9071,
      "ĠvÃ¥ben": 9072,
      "Ġgulvet": 9073,
      "talte": 9074,
      "Ġtriv": 9075,
      "ÌĬ": 9076,
      "Ġjakke": 9077,
      "Ġaktier": 9078,
      "Ġmilliarder": 9079,
      "Ġsepar": 9080,
      "Ġsituationen": 9081,
      "Ġ89": 9082,
      "Ġnylig": 9083,
      "ournal": 9084,
      "gej": 9085,
      "ĠFartpilot": 9086,
      "Ġkolleger": 9087,
      "ĠBillig": 9088,
      "Ġkines": 9089,
      "ctive": 9090,
      "nas": 9091,
      "ĠIndledning": 9092,
      "Dire": 9093,
      "het": 9094,
      "Ġkapitel": 9095,
      "ĠCasino": 9096,
      "ĠShe": 9097,
      "Lad": 9098,
      "Ġmaskine": 9099,
      "Ġhospit": 9100,
      "Ġulti": 9101,
      "ĠAmager": 9102,
      "Ġmaden": 9103,
      "tten": 9104,
      "Car": 9105,
      "Ġengelske": 9106,
      "Ġ62": 9107,
      "ĠWhite": 9108,
      "Ġoverleve": 9109,
      "ĠKors": 9110,
      "')": 9111,
      "ian": 9112,
      "igtig": 9113,
      "okus": 9114,
      "pere": 9115,
      "ĠHolstebro": 9116,
      "Ġstole": 9117,
      "Ġinspireret": 9118,
      "Ã¦sterne": 9119,
      "ĠprÃ¦m": 9120,
      "manent": 9121,
      "Ġforhandlere": 9122,
      "Ġforhindre": 9123,
      "Ġflygtninge": 9124,
      "ĠHelt": 9125,
      "VI": 9126,
      "lykke": 9127,
      "dar": 9128,
      "Up": 9129,
      "Â½": 9130,
      "ĠID": 9131,
      "ĠblÃ¸de": 9132,
      "akers": 9133,
      "Ġfornuf": 9134,
      "Ġlar": 9135,
      "Ġtu": 9136,
      "ĠmarkedsfÃ¸ring": 9137,
      "ridge": 9138,
      "odge": 9139,
      "Ġbordet": 9140,
      "ĠBare": 9141,
      "ameter": 9142,
      "Ġfugt": 9143,
      "rerer": 9144,
      "Ġutroligt": 9145,
      "ĠHolbÃ¦k": 9146,
      "Ġgodkende": 9147,
      "ĠovenstÃ¥ende": 9148,
      "Ġkode": 9149,
      "Ġslutter": 9150,
      "Ġhertil": 9151,
      "Ġ800": 9152,
      "Fil": 9153,
      "ĠhÃ¥b": 9154,
      "ĠmÃ¥lrettet": 9155,
      "Ġthere": 9156,
      "Ġsocialt": 9157,
      "ague": 9158,
      "onym": 9159,
      "ĠbesvÃ¦r": 9160,
      "Ġbind": 9161,
      "kir": 9162,
      "BÃ¸rn": 9163,
      "INTERRUP": 9164,
      "Ġbyde": 9165,
      "moder": 9166,
      "ĠHjemme": 9167,
      "ĠXbox": 9168,
      "INTERRUPTER": 9169,
      "obil": 9170,
      "Ġafdelinger": 9171,
      "Ġengage": 9172,
      "ĠMog": 9173,
      "lÃ¦n": 9174,
      "saf": 9175,
      "ĠlÃ¦rere": 9176,
      "Ġoveralt": 9177,
      "sites": 9178,
      "ĠKlub": 9179,
      "Ġsome": 9180,
      "Ġhere": 9181,
      "vendig": 9182,
      "Ġmillion": 9183,
      "Ġfortol": 9184,
      "Ġeksperi": 9185,
      "Ġtitel": 9186,
      "ĠBill": 9187,
      "BemÃ¦rk": 9188,
      "Ġcentralt": 9189,
      "ĠKaren": 9190,
      "ygdomme": 9191,
      "klas": 9192,
      "Ġboede": 9193,
      "ĠNem": 9194,
      "Tru": 9195,
      "Ġindbe": 9196,
      "Ġmay": 9197,
      "lee": 9198,
      "ĠtÃ¦nder": 9199,
      "Ġtidlig": 9200,
      "ĠFun": 9201,
      "Ġant": 9202,
      "Ġstjerne": 9203,
      "ĠTal": 9204,
      "Skre": 9205,
      "Ġrabatter": 9206,
      "product": 9207,
      "Ġforbruger": 9208,
      "sÃ¸gning": 9209,
      "Klik": 9210,
      "rukne": 9211,
      "focenter": 9212,
      "Ġrart": 9213,
      "Ġmatch": 9214,
      "Ġrene": 9215,
      "Ġ98": 9216,
      "Ġtilrette": 9217,
      "ĠVM": 9218,
      "betal": 9219,
      "funktionsrat": 9220,
      "proces": 9221,
      "Ġopvarmning": 9222,
      "Ġfede": 9223,
      "Ġrulle": 9224,
      "Ġteknolog": 9225,
      "mmende": 9226,
      "Ġluften": 9227,
      "rummet": 9228,
      "Ġforskere": 9229,
      "Ġbestemte": 9230,
      "ministration": 9231,
      "edia": 9232,
      "ĠMens": 9233,
      "ĠhÃ¸jst": 9234,
      "ĠRusland": 9235,
      "string": 9236,
      "Ġreception": 9237,
      "Ġforsin": 9238,
      "îģ": 9239,
      "ronik": 9240,
      "Ġsold": 9241,
      "Ġindkomst": 9242,
      "skrav": 9243,
      "Ġvegne": 9244,
      "Ġkrise": 9245,
      "Ġ180": 9246,
      "ĠleverandÃ¸rer": 9247,
      "udlejning": 9248,
      "ĠtrÃ¦nings": 9249,
      "afin": 9250,
      "Ġstyrker": 9251,
      "Ġindbyg": 9252,
      "Ġopfylder": 9253,
      "pul": 9254,
      "ĠScan": 9255,
      "Ġ\\": 9256,
      "hov": 9257,
      "Ġudkig": 9258,
      "ladende": 9259,
      "sistent": 9260,
      "Ġforeningen": 9261,
      "stige": 9262,
      "Ġgangen": 9263,
      "Ġmdr": 9264,
      "ĠBlandt": 9265,
      "Ġbytte": 9266,
      "ĠMandag": 9267,
      "aug": 9268,
      "Ã¸rgsel": 9269,
      "Ġtele": 9270,
      "HED": 9271,
      "Ġdanner": 9272,
      "ĠbedÃ¸": 9273,
      "givere": 9274,
      "ragte": 9275,
      "Ġwork": 9276,
      "Ġpkt": 9277,
      "fÃ¸relse": 9278,
      "ado": 9279,
      "ĠNa": 9280,
      "ĠOrigin": 9281,
      "jan": 9282,
      "gelygter": 9283,
      "ĠHerefter": 9284,
      "Ġlandsby": 9285,
      "ĠMellem": 9286,
      "Ġhalvt": 9287,
      "Ġalvorlige": 9288,
      "sterer": 9289,
      "Skrevet": 9290,
      "Ã¸nt": 9291,
      "itch": 9292,
      "Ġtrykke": 9293,
      "ĠSyn": 9294,
      "ĠRoyal": 9295,
      "ĠhÃ¦nge": 9296,
      "ĠTan": 9297,
      "ĠfrÃ¸": 9298,
      "NOW": 9299,
      "Ġnys": 9300,
      "ship": 9301,
      "Selection": 9302,
      "Ġerstatning": 9303,
      "Ġsnare": 9304,
      "ĠgrÃ¸ntsager": 9305,
      "ĠusÃ¦dvan": 9306,
      "angere": 9307,
      "Familie": 9308,
      "ĠCat": 9309,
      "ĠOrgan": 9310,
      "ĠhÃ¦l": 9311,
      "elle": 9312,
      "ĠPsyk": 9313,
      "Ġformentlig": 9314,
      "Ġderfra": 9315,
      "Ġubeh": 9316,
      "Ġvurderes": 9317,
      "skop": 9318,
      "beskyttelse": 9319,
      "ions": 9320,
      "aktionen": 9321,
      "lÃ¸g": 9322,
      "Danske": 9323,
      "ĠMetal": 9324,
      "ronic": 9325,
      "Ġflaske": 9326,
      "Ġmulighederne": 9327,
      "ĠData": 9328,
      "Image": 9329,
      "Ã¦gler": 9330,
      "ĠEL": 9331,
      "456": 9332,
      "vÃ¦ge": 9333,
      "forvalt": 9334,
      "Ġforsende": 9335,
      "Ġnon": 9336,
      "mÃ¦rkelsescertifik": 9337,
      "resulta": 9338,
      "Ġsuch": 9339,
      "ĠPlay": 9340,
      "llig": 9341,
      "Parlamentet": 9342,
      "Ġbooking": 9343,
      "Ġvundet": 9344,
      "Ġbevil": 9345,
      "Ġeleg": 9346,
      "bestyrelsen": 9347,
      "Ġsejr": 9348,
      "modt": 9349,
      "HÃ¸j": 9350,
      "NA": 9351,
      "tto": 9352,
      "Ġrigeligt": 9353,
      "polling": 9354,
      "Ġrelationer": 9355,
      "split": 9356,
      "Ġethvert": 9357,
      "Ġfylde": 9358,
      "Hol": 9359,
      "kvalitet": 9360,
      "ĠnÃ¦v": 9361,
      "Ġbetyd": 9362,
      "Ġdriv": 9363,
      "La": 9364,
      "cering": 9365,
      "Ġproduct": 9366,
      "GB": 9367,
      "ils": 9368,
      "ĠsmÃ¸r": 9369,
      "ĠGlo": 9370,
      "Ġgum": 9371,
      "Ġonly": 9372,
      "pligt": 9373,
      "wp": 9374,
      "bre": 9375,
      "Ġflytter": 9376,
      "Sid": 9377,
      "Disse": 9378,
      "size": 9379,
      "vention": 9380,
      "Ġbilled": 9381,
      "ĠBruger": 9382,
      "design": 9383,
      "Ġskub": 9384,
      "bruger": 9385,
      "ĠEkstra": 9386,
      "ineres": 9387,
      "ĠGuds": 9388,
      "EB": 9389,
      "Ġuddannelsen": 9390,
      "ĠSoci": 9391,
      "Ġbilletter": 9392,
      "Mu": 9393,
      "Ġstopper": 9394,
      "rive": 9395,
      "ĠLeveret": 9396,
      "Ġopfylde": 9397,
      "Ġdeltog": 9398,
      "Ġadsk": 9399,
      "Ġafhent": 9400,
      "Ġwho": 9401,
      "ĠmodsÃ¦tning": 9402,
      "artnere": 9403,
      "hyd": 9404,
      "Ġgry": 9405,
      "Ġdiagno": 9406,
      "Ġservi": 9407,
      "count": 9408,
      "media": 9409,
      "Ġfabrik": 9410,
      "Ġrespon": 9411,
      "Mellem": 9412,
      "ĠforhÃ¥nd": 9413,
      "ĠLine": 9414,
      "Ġnar": 9415,
      "Ġruss": 9416,
      "ĠWar": 9417,
      "Ġeksterne": 9418,
      "ĠEM": 9419,
      "ĠLufthavn": 9420,
      "ĠsvÃ¸mme": 9421,
      "pning": 9422,
      "ĠTÃ¥": 9423,
      "Ġsektor": 9424,
      "kta": 9425,
      "ĠprÃ¦cist": 9426,
      "Ġtheir": 9427,
      "Ġinder": 9428,
      "Ġudl": 9429,
      "ĠGuld": 9430,
      "Ġsolid": 9431,
      "Ġendelige": 9432,
      "gige": 9433,
      "legetÃ¸j": 9434,
      "kningen": 9435,
      "ĠPrivat": 9436,
      "ged": 9437,
      "ĠRob": 9438,
      "tiet": 9439,
      "ota": 9440,
[...]
